{
  "version": "1.0",
  "truncation": null,
  "padding": null,
  "added_tokens": [
    {
      "id": 0,
      "content": "<|python|>",
      "single_word": false,
      "lstrip": false,
      "rstrip": false,
      "normalized": false,
      "special": true
    },
    {
      "id": 1,
      "content": "<|dart|>",
      "single_word": false,
      "lstrip": false,
      "rstrip": false,
      "normalized": false,
      "special": true
    },
    {
      "id": 2,
      "content": "<|javascript|>",
      "single_word": false,
      "lstrip": false,
      "rstrip": false,
      "normalized": false,
      "special": true
    },
    {
      "id": 3,
      "content": "<|code|>",
      "single_word": false,
      "lstrip": false,
      "rstrip": false,
      "normalized": false,
      "special": true
    },
    {
      "id": 4,
      "content": "<|comment|>",
      "single_word": false,
      "lstrip": false,
      "rstrip": false,
      "normalized": false,
      "special": true
    },
    {
      "id": 5,
      "content": "<|docstring|>",
      "single_word": false,
      "lstrip": false,
      "rstrip": false,
      "normalized": false,
      "special": true
    },
    {
      "id": 6,
      "content": "<|function|>",
      "single_word": false,
      "lstrip": false,
      "rstrip": false,
      "normalized": false,
      "special": true
    },
    {
      "id": 7,
      "content": "<|class|>",
      "single_word": false,
      "lstrip": false,
      "rstrip": false,
      "normalized": false,
      "special": true
    },
    {
      "id": 8,
      "content": "<|error|>",
      "single_word": false,
      "lstrip": false,
      "rstrip": false,
      "normalized": false,
      "special": true
    },
    {
      "id": 9,
      "content": "<|fix|>",
      "single_word": false,
      "lstrip": false,
      "rstrip": false,
      "normalized": false,
      "special": true
    },
    {
      "id": 10,
      "content": "<|explain|>",
      "single_word": false,
      "lstrip": false,
      "rstrip": false,
      "normalized": false,
      "special": true
    },
    {
      "id": 11,
      "content": "<|question|>",
      "single_word": false,
      "lstrip": false,
      "rstrip": false,
      "normalized": false,
      "special": true
    },
    {
      "id": 12,
      "content": "<|answer|>",
      "single_word": false,
      "lstrip": false,
      "rstrip": false,
      "normalized": false,
      "special": true
    },
    {
      "id": 13,
      "content": "<|context|>",
      "single_word": false,
      "lstrip": false,
      "rstrip": false,
      "normalized": false,
      "special": true
    },
    {
      "id": 14,
      "content": "<|user|>",
      "single_word": false,
      "lstrip": false,
      "rstrip": false,
      "normalized": false,
      "special": true
    },
    {
      "id": 15,
      "content": "<|assistant|>",
      "single_word": false,
      "lstrip": false,
      "rstrip": false,
      "normalized": false,
      "special": true
    },
    {
      "id": 16,
      "content": "<|system|>",
      "single_word": false,
      "lstrip": false,
      "rstrip": false,
      "normalized": false,
      "special": true
    },
    {
      "id": 17,
      "content": "<|pad|>",
      "single_word": false,
      "lstrip": false,
      "rstrip": false,
      "normalized": false,
      "special": true
    },
    {
      "id": 18,
      "content": "<|eos|>",
      "single_word": false,
      "lstrip": false,
      "rstrip": false,
      "normalized": false,
      "special": true
    },
    {
      "id": 19,
      "content": "<|unk|>",
      "single_word": false,
      "lstrip": false,
      "rstrip": false,
      "normalized": false,
      "special": true
    }
  ],
  "normalizer": null,
  "pre_tokenizer": {
    "type": "ByteLevel",
    "add_prefix_space": true,
    "trim_offsets": true,
    "use_regex": true
  },
  "post_processor": {
    "type": "ByteLevel",
    "add_prefix_space": true,
    "trim_offsets": true,
    "use_regex": true
  },
  "decoder": null,
  "model": {
    "type": "BPE",
    "dropout": null,
    "unk_token": "<|unk|>",
    "continuing_subword_prefix": null,
    "end_of_word_suffix": null,
    "fuse_unk": false,
    "byte_fallback": false,
    "ignore_merges": false,
    "vocab": {
      "<|python|>": 0,
      "<|dart|>": 1,
      "<|javascript|>": 2,
      "<|code|>": 3,
      "<|comment|>": 4,
      "<|docstring|>": 5,
      "<|function|>": 6,
      "<|class|>": 7,
      "<|error|>": 8,
      "<|fix|>": 9,
      "<|explain|>": 10,
      "<|question|>": 11,
      "<|answer|>": 12,
      "<|context|>": 13,
      "<|user|>": 14,
      "<|assistant|>": 15,
      "<|system|>": 16,
      "<|pad|>": 17,
      "<|eos|>": 18,
      "<|unk|>": 19,
      "!": 20,
      "\"": 21,
      "#": 22,
      "$": 23,
      "%": 24,
      "&": 25,
      "'": 26,
      "(": 27,
      ")": 28,
      "*": 29,
      "+": 30,
      ",": 31,
      "-": 32,
      ".": 33,
      "/": 34,
      "0": 35,
      "1": 36,
      "2": 37,
      "3": 38,
      "4": 39,
      "5": 40,
      "6": 41,
      "7": 42,
      "8": 43,
      "9": 44,
      ":": 45,
      ";": 46,
      "<": 47,
      "=": 48,
      ">": 49,
      "?": 50,
      "@": 51,
      "A": 52,
      "B": 53,
      "C": 54,
      "D": 55,
      "E": 56,
      "F": 57,
      "G": 58,
      "H": 59,
      "I": 60,
      "J": 61,
      "K": 62,
      "L": 63,
      "M": 64,
      "N": 65,
      "O": 66,
      "P": 67,
      "Q": 68,
      "R": 69,
      "S": 70,
      "T": 71,
      "U": 72,
      "V": 73,
      "W": 74,
      "X": 75,
      "Y": 76,
      "Z": 77,
      "[": 78,
      "\\": 79,
      "]": 80,
      "^": 81,
      "_": 82,
      "`": 83,
      "a": 84,
      "b": 85,
      "c": 86,
      "d": 87,
      "e": 88,
      "f": 89,
      "g": 90,
      "h": 91,
      "i": 92,
      "j": 93,
      "k": 94,
      "l": 95,
      "m": 96,
      "n": 97,
      "o": 98,
      "p": 99,
      "q": 100,
      "r": 101,
      "s": 102,
      "t": 103,
      "u": 104,
      "v": 105,
      "w": 106,
      "x": 107,
      "y": 108,
      "z": 109,
      "{": 110,
      "|": 111,
      "}": 112,
      "~": 113,
      "¡": 114,
      "¢": 115,
      "£": 116,
      "¤": 117,
      "¥": 118,
      "¦": 119,
      "§": 120,
      "¨": 121,
      "©": 122,
      "ª": 123,
      "¬": 124,
      "®": 125,
      "¯": 126,
      "°": 127,
      "±": 128,
      "²": 129,
      "³": 130,
      "´": 131,
      "¶": 132,
      "·": 133,
      "¸": 134,
      "¹": 135,
      "º": 136,
      "»": 137,
      "¼": 138,
      "½": 139,
      "¾": 140,
      "¿": 141,
      "Â": 142,
      "Ã": 143,
      "Ä": 144,
      "Å": 145,
      "Æ": 146,
      "Ç": 147,
      "Ì": 148,
      "Î": 149,
      "Ï": 150,
      "â": 151,
      "æ": 152,
      "ï": 153,
      "ð": 154,
      "ĉ": 155,
      "Ċ": 156,
      "č": 157,
      "Ġ": 158,
      "Ģ": 159,
      "ģ": 160,
      "Ĥ": 161,
      "ĥ": 162,
      "Ħ": 163,
      "Ĩ": 164,
      "ĩ": 165,
      "Ī": 166,
      "ī": 167,
      "Ĭ": 168,
      "ĭ": 169,
      "Į": 170,
      "į": 171,
      "İ": 172,
      "ı": 173,
      "Ĳ": 174,
      "ĳ": 175,
      "Ĵ": 176,
      "ĵ": 177,
      "Ķ": 178,
      "ķ": 179,
      "ĸ": 180,
      "Ĺ": 181,
      "ĺ": 182,
      "Ļ": 183,
      "ļ": 184,
      "ľ": 185,
      "Ŀ": 186,
      "ŀ": 187,
      "Ł": 188,
      "ł": 189,
      "Ń": 190,
      "Ä±": 191,
      "ĠĠ": 192,
      "la": 193,
      "er": 194,
      "in": 195,
      "ir": 196,
      "Ã¼": 197,
      "ÅŁ": 198,
      "Ġb": 199,
      "en": 200,
      "Ã§": 201,
      "ar": 202,
      "Ä±n": 203,
      "an": 204,
      "il": 205,
      "Ġv": 206,
      "Ġk": 207,
      "ÄŁ": 208,
      "Ġs": 209,
      "ma": 210,
      "Ġd": 211,
      "el": 212,
      "lar": 213,
      "Ġve": 214,
      "Ġy": 215,
      "ĠĠĠĠ": 216,
      "Ġi": 217,
      "ĠĊ": 218,
      "ek": 219,
      "Ġbir": 220,
      "Ġg": 221,
      "Ġo": 222,
      "et": 223,
      "Ã¶": 224,
      "ak": 225,
      "Ġt": 226,
      "al": 227,
      "ler": 228,
      "le": 229,
      "Ġh": 230,
      "un": 231,
      "ik": 232,
      "ay": 233,
      "Ä±r": 234,
      "on": 235,
      "at": 236,
      "es": 237,
      "lan": 238,
      "or": 239,
      "im": 240,
      "lÄ±": 241,
      "ĠiÃ§": 242,
      "ÅŁt": 243,
      "ur": 244,
      "ed": 245,
      "Ġa": 246,
      "ĠB": 247,
      "ĠiÃ§in": 248,
      "da": 249,
      "li": 250,
      "ul": 251,
      "em": 252,
      "iz": 253,
      "as": 254,
      "ĠÃ¶": 255,
      "Ġm": 256,
      "Ã¼n": 257,
      "Ġol": 258,
      "Ġp": 259,
      "ĠÃ§": 260,
      "ĠĠĠ": 261,
      "ĠA": 262,
      "ya": 263,
      "is": 264,
      "de": 265,
      "aÄŁ": 266,
      "ah": 267,
      "ey": 268,
      "bil": 269,
      "it": 270,
      "iy": 271,
      "Ġf": 272,
      "mak": 273,
      "Ã¼r": 274,
      "Ġya": 275,
      "Ä±nÄ±": 276,
      "Ä±m": 277,
      "iÅŁ": 278,
      "ini": 279,
      "Ä±k": 280,
      "Ġn": 281,
      "am": 282,
      "ĠĠĠĠĠĠĠ": 283,
      "larÄ±": 284,
      "eri": 285,
      "st": 286,
      "Ġar": 287,
      "eÄŁ": 288,
      "ev": 289,
      "ol": 290,
      "bilir": 291,
      "ĠS": 292,
      "Ã¼m": 293,
      "ullan": 294,
      "erin": 295,
      "ĠÅŁ": 296,
      "um": 297,
      "Ġet": 298,
      "Ġkullan": 299,
      "Ä±ÅŁ": 300,
      "ec": 301,
      "Ã¼k": 302,
      "lay": 303,
      "Ä±l": 304,
      "Ġr": 305,
      "ĠK": 306,
      "larÄ±n": 307,
      "dir": 308,
      "leri": 309,
      "Ã¼z": 310,
      "ĠgÃ¶": 311,
      "Ġ1": 312,
      "Ġc": 313,
      "Ġz": 314,
      "mek": 315,
      "eÅŁ": 316,
      "uy": 317,
      "ad": 318,
      "Ġ\"": 319,
      "ĠD": 320,
      "az": 321,
      "aÅŁ": 322,
      "cÄ±": 323,
      "sÄ±": 324,
      "Ġan": 325,
      "dÄ±r": 326,
      "dÄ±": 327,
      "ut": 328,
      "Ġ-": 329,
      "ĠBir": 330,
      "aha": 331,
      "aki": 332,
      "ok": 333,
      "Ġolu": 334,
      "Ġil": 335,
      "ĠM": 336,
      "iÄŁ": 337,
      "Ġkar": 338,
      "dan": 339,
      "lama": 340,
      "Ġyap": 341,
      "ab": 342,
      "Ġdaha": 343,
      "ÄŁr": 344,
      "lik": 345,
      "ÅŁtur": 346,
      "Ġver": 347,
      "Ä±nda": 348,
      "du": 349,
      "Ġed": 350,
      "ĠoluÅŁtur": 351,
      "ĠG": 352,
      "lÄ±k": 353,
      "Ġen": 354,
      "Ġal": 355,
      "me": 356,
      "den": 357,
      "ĠT": 358,
      "ine": 359,
      "ap": 360,
      "ley": 361,
      "ĠY": 362,
      "ĠĠĠĠĠĠĠĠĠĠĠ": 363,
      "Ġin": 364,
      "ĠÃ¶n": 365,
      "av": 366,
      "ti": 367,
      "ÅŁtir": 368,
      "ro": 369,
      "uz": 370,
      "Ġ=": 371,
      "Ä°": 372,
      "daki": 373,
      "larak": 374,
      "ĠH": 375,
      "Ġbil": 376,
      "inin": 377,
      "esi": 378,
      "ta": 379,
      "Ġ2": 380,
      "ĠÃ": 381,
      "ĠÄ°": 382,
      "ib": 383,
      "Ġgel": 384,
      "Ġolarak": 385,
      "ĠBu": 386,
      "ĠsaÄŁ": 387,
      "ĠgÃ¶r": 388,
      "Ä±z": 389,
      "ĠE": 390,
      "af": 391,
      "Ġyar": 392,
      "di": 393,
      "len": 394,
      "Ġdo": 395,
      "man": 396,
      "ĠaÃ§": 397,
      "Ã¼y": 398,
      "onu": 399,
      "layÄ±n": 400,
      "iler": 401,
      "ĠiÅŁ": 402,
      "elf": 403,
      "ca": 404,
      "aÄŁÄ±": 405,
      "eler": 406,
      "Ġyaz": 407,
      "cak": 408,
      "ip": 409,
      "Ġveya": 410,
      "Ã¶n": 411,
      "tÄ±": 412,
      "ilen": 413,
      "tr": 414,
      "ĠdeÄŁ": 415,
      "ibi": 416,
      "eÃ§": 417,
      "eni": 418,
      "larÄ±nÄ±": 419,
      "ÄŁÄ±": 420,
      "ark": 421,
      "Ġma": 422,
      "lu": 423,
      "ĠoluÅŁturun": 424,
      "ĠO": 425,
      "erek": 426,
      "ot": 427,
      "ĠbaÅŁ": 428,
      "Ġgibi": 429,
      "Ġuy": 430,
      "ĠP": 431,
      "ist": 432,
      "Ã¼Ã§": 433,
      "ĠV": 434,
      "Ġbul": 435,
      "dÄ±m": 436,
      "od": 437,
      "aman": 438,
      "Ġay": 439,
      "ic": 440,
      "ki": 441,
      "gu": 442,
      "lem": 443,
      "op": 444,
      "Ġ3": 445,
      "arak": 446,
      "ĠÃ¶z": 447,
      "ĠC": 448,
      "ef": 449,
      "Ġola": 450,
      "Ġned": 451,
      "Ġtar": 452,
      "Ġbel": 453,
      "Ã¼ÅŁt": 454,
      "Ä±na": 455,
      "ce": 456,
      "Ġolan": 457,
      "ĠkullanÄ±": 458,
      "Ġetk": 459,
      "inde": 460,
      "Ġself": 461,
      "ĠaÃ§Ä±k": 462,
      "Ġzaman": 463,
      "Ã¼ÅŁ": 464,
      "Ġor": 465,
      "Ġtan": 466,
      "ÅŁaÄŁÄ±": 467,
      "unu": 468,
      "ĠÅŁek": 469,
      "eli": 470,
      "imi": 471,
      "Ã¼l": 472,
      "Ġoldu": 473,
      "ayÄ±": 474,
      "ĠF": 475,
      "os": 476,
      "ÄŁren": 477,
      "ÅŁaÄŁÄ±daki": 478,
      "ĠcÃ¼m": 479,
      "Ġbelir": 480,
      "ÅŁtÄ±r": 481,
      "us": 482,
      "ebilir": 483,
      "san": 484,
      "liÄŁ": 485,
      "Ġ(": 486,
      "om": 487,
      "Ġ5": 488,
      "sel": 489,
      "rÄ±": 490,
      "gi": 491,
      "leyin": 492,
      "yon": 493,
      "iÅŁtir": 494,
      "Ġgen": 495,
      "Ä±y": 496,
      "Ġiy": 497,
      "ĠsÃ¼r": 498,
      "id": 499,
      "Ġtek": 500,
      "ĠbÃ¼y": 501,
      "tÄ±r": 502,
      "eki": 503,
      "ĠAÅŁaÄŁÄ±daki": 504,
      "if": 505,
      "Ġpro": 506,
      "te": 507,
      "Ġbu": 508,
      "Ġpar": 509,
      "aÃ§": 510,
      "laÅŁ": 511,
      "Ġaz": 512,
      "ĠÃ¶ÄŁren": 513,
      "ĠN": 514,
      "Ġher": 515,
      "Ġif": 516,
      "tir": 517,
      "Ġsah": 518,
      "Ġhay": 519,
      "ilm": 520,
      "Ġyeni": 521,
      "ans": 522,
      "isi": 523,
      "Ġek": 524,
      "lerin": 525,
      "iyor": 526,
      "Ġkay": 527,
      "masÄ±": 528,
      "lerini": 529,
      "Ġkal": 530,
      "ecek": 531,
      "ĠÃ¼r": 532,
      "Ġ4": 533,
      "ĠÅŁekil": 534,
      "'d": 535,
      "rÄ±ca": 536,
      "ers": 537,
      "Ä±ndan": 538,
      "ili": 539,
      "Ġson": 540,
      "ĠgÃ¼n": 541,
      "evr": 542,
      "Ġyol": 543,
      "ĠyardÄ±m": 544,
      "ĠÃ§al": 545,
      "eye": 546,
      "ez": 547,
      "Ġden": 548,
      "Ġli": 549,
      "maya": 550,
      "mas": 551,
      "enin": 552,
      "ter": 553,
      "ĠÃ§Ä±k": 554,
      "eyi": 555,
      "Ã¶r": 556,
      "ĠVer": 557,
      "lamak": 558,
      "Ġsor": 559,
      "ĠÃ¶nem": 560,
      "Ġhak": 561,
      "Ġneden": 562,
      "ĠolduÄŁ": 563,
      "\",": 564,
      "ellik": 565,
      "Ġbulun": 566,
      "lo": 567,
      "Ġda": 568,
      "Ġel": 569,
      "izi": 570,
      "uk": 571,
      "gr": 572,
      "ĠÅŁekilde": 573,
      "elim": 574,
      "ÅŁÄ±": 575,
      "Ġaras": 576,
      "ĠĠĠĠĠĠĠĠĠĠĠĠĠĠĠ": 577,
      "lam": 578,
      "Ġsahip": 579,
      "Ġfark": 580,
      "eb": 581,
      "ih": 582,
      "Ġgerek": 583,
      "ĠgÃ¼": 584,
      "Ä±s": 585,
      "Ġinsan": 586,
      "est": 587,
      "ĠAy": 588,
      "ĠdoÄŁr": 589,
      "eleri": 590,
      "Ġde": 591,
      "ken": 592,
      "asÄ±": 593,
      "se": 594,
      "Ġat": 595,
      "ĠiÃ§er": 596,
      "Ġile": 597,
      "arÄ±": 598,
      "ize": 599,
      "ĠÃĩ": 600,
      "ĠyÃ¶n": 601,
      "ĠVerilen": 602,
      "elerin": 603,
      "Ã¶z": 604,
      "eÄŁi": 605,
      "olo": 606,
      "end": 607,
      "Ġkur": 608,
      "Ġvar": 609,
      "tan": 610,
      "ji": 611,
      "Ġkad": 612,
      "Ġhakk": 613,
      "Ġko": 614,
      "ĠyardÄ±mcÄ±": 615,
      "ĠR": 616,
      "let": 617,
      "ika": 618,
      "Ġiyi": 619,
      "Ġkonu": 620,
      "ra": 621,
      "lara": 622,
      "ileri": 623,
      "ĠbÃ¼yÃ¼k": 624,
      "Ä±nÄ±n": 625,
      "Ġkelim": 626,
      "lÃ¼": 627,
      "Ġlist": 628,
      "ch": 629,
      "Ġhar": 630,
      "Ġtop": 631,
      "ĠdÃ¼z": 632,
      "Ġetmek": 633,
      "larÄ±na": 634,
      "ĠJ": 635,
      "Ġolma": 636,
      "ka": 637,
      "Ġbilg": 638,
      "ĠkarÅŁÄ±": 639,
      "ĠyazÄ±n": 640,
      "ĠÃ§alÄ±ÅŁ": 641,
      "iyle": 642,
      "ĠmÃ¼ÅŁt": 643,
      "ven": 644,
      "ĠÃ¶nemli": 645,
      "ate": 646,
      "odel": 647,
      "yÄ±": 648,
      "ĠaÃ§Ä±klayÄ±n": 649,
      "Ġiki": 650,
      "ĠbaÄŁ": 651,
      "ĠL": 652,
      "ĠhakkÄ±nda": 653,
      "abilir": 654,
      "Ä±cÄ±": 655,
      "Ġuz": 656,
      "leÅŁtir": 657,
      "Ã§ek": 658,
      "Ġyer": 659,
      "ĠÃ¼z": 660,
      "Ġhal": 661,
      "unda": 662,
      "Ġazal": 663,
      "00": 664,
      "ĠgeÃ§": 665,
      "met": 666,
      "ama": 667,
      "ĠÃĸ": 668,
      "ĠyÃ¼k": 669,
      "diÄŁ": 670,
      "ĠdÃ¼ÅŁ": 671,
      "istem": 672,
      "Ġkadar": 673,
      "anÄ±": 674,
      "Ġmak": 675,
      "Ġkayn": 676,
      "Ġolabilir": 677,
      "iÄŁer": 678,
      "ĠAyrÄ±ca": 679,
      "ĠdÃ¶n": 680,
      "deki": 681,
      "landÄ±r": 682,
      "Ġtekn": 683,
      "iÅŁim": 684,
      "ĠyaÅŁ": 685,
      "mat": 686,
      "po": 687,
      "ing": 688,
      "ĠdoÄŁru": 689,
      "liÄŁi": 690,
      "oÄŁ": 691,
      "Ġtas": 692,
      "asÄ±l": 693,
      "Ġuygu": 694,
      "ĠtÃ¼r": 695,
      "rn": 696,
      "Ä±ndaki": 697,
      "yun": 698,
      "ĠgeliÅŁtir": 699,
      "ac": 700,
      "Ġbo": 701,
      "Ġyak": 702,
      "labilir": 703,
      "ĠgÃ¼ven": 704,
      "ru": 705,
      "Ġveri": 706,
      "ĠnasÄ±l": 707,
      "Ä±yor": 708,
      "esini": 709,
      "--": 710,
      "gor": 711,
      "Ġak": 712,
      "ĠcÃ¼mle": 713,
      "Ġyarat": 714,
      "ĠkiÅŁ": 715,
      "ade": 716,
      "Ġtem": 717,
      "izmet": 718,
      "Ġmet": 719,
      "ĠhÄ±z": 720,
      "manÄ±n": 721,
      "Ġu": 722,
      "ĠdiÄŁer": 723,
      "Ġget": 724,
      "Ġon": 725,
      "eh": 726,
      "Ġener": 727,
      "ig": 728,
      "Ġsistem": 729,
      "Ġist": 730,
      "yan": 731,
      "Ġsu": 732,
      "Ġzor": 733,
      "ĠAn": 734,
      "ici": 735,
      "cu": 736,
      "azla": 737,
      "Ġdil": 738,
      "Ġkor": 739,
      "Ã¼t": 740,
      "Ġfazla": 741,
      "ĠdÃ¼zen": 742,
      "aya": 743,
      "ilerin": 744,
      "Ġtaraf": 745,
      "van": 746,
      "Ġduy": 747,
      "Ġhizmet": 748,
      "iniz": 749,
      "ĠÃ¼Ã§": 750,
      "Ġsev": 751,
      "uÅŁ": 752,
      "gun": 753,
      "ent": 754,
      "Ä±lÄ±": 755,
      "ĠÃ§ok": 756,
      "dÃ¼": 757,
      "ĠÃ¼rÃ¼n": 758,
      "ĠÃ§evr": 759,
      "ĠÃ¼zerin": 760,
      "Ġalan": 761,
      "Ġtasar": 762,
      "Ġger": 763,
      "ĠtanÄ±m": 764,
      "ÄŁÄ±nÄ±": 765,
      "Ġkon": 766,
      "Ã¶y": 767,
      "Ġstr": 768,
      "alÄ±": 769,
      "Ġw": 770,
      "mÄ±ÅŁ": 771,
      "Ġer": 772,
      "Ġgetir": 773,
      "__": 774,
      "Ġkaynak": 775,
      "Ġ[": 776,
      "Ã¼nya": 777,
      "Ġedin": 778,
      "Ġiz": 779,
      "ĠÃ§Ã¶z": 780,
      "iye": 781,
      "str": 782,
      "ikay": 783,
      "sek": 784,
      "ĠsayÄ±": 785,
      "lÄ±ÄŁÄ±": 786,
      "Ġverin": 787,
      "Ġdur": 788,
      "Ġilg": 789,
      "tar": 790,
      "ĠU": 791,
      "ellikle": 792,
      "lere": 793,
      "ĠseÃ§": 794,
      "ĠÃ¶rn": 795,
      "oloj": 796,
      "eÅŁit": 797,
      "lendir": 798,
      "dur": 799,
      "tion": 800,
      "ile": 801,
      "angi": 802,
      "ava": 803,
      "Ġsonu": 804,
      "ĠeÄŁ": 805,
      "iyet": 806,
      "Ġazalt": 807,
      "ĠsÄ±": 808,
      "Ġsun": 809,
      "re": 810,
      "ket": 811,
      "Ġkarar": 812,
      "iÄŁi": 813,
      "anlÄ±": 814,
      "ĠyÄ±l": 815,
      "eceÄŁ": 816,
      "Ġ6": 817,
      "Ä±nÄ±f": 818,
      "ĠgÃ¶rev": 819,
      "ĠdeÄŁer": 820,
      "Ã¼c": 821,
      "ĠdeÄŁiÅŁ": 822,
      "Ġad": 823,
      "leyi": 824,
      "ran": 825,
      "to": 826,
      "lÄ±dÄ±r": 827,
      "ĠsÄ±r": 828,
      "gram": 829,
      "ci": 830,
      "sa": 831,
      "ĠgÃ¼Ã§": 832,
      "Ġe": 833,
      "ĠarasÄ±nda": 834,
      "isay": 835,
      "self": 836,
      "ĠĠĠĠĠĠĠĠ": 837,
      "he": 838,
      "()": 839,
      "Åŀ": 840,
      "Ġara": 841,
      "lil": 842,
      "Ġyem": 843,
      "Ġdeney": 844,
      "Ġok": 845,
      "Ġ10": 846,
      "ĠtarafÄ±ndan": 847,
      "Ġ#": 848,
      "Ġkat": 849,
      "leme": 850,
      "edi": 851,
      "isayar": 852,
      "dÃ¼r": 853,
      "urn": 854,
      "ĠfarklÄ±": 855,
      "Ġ|": 856,
      "daÅŁ": 857,
      "ĠgerÃ§ek": 858,
      "Ġfor": 859,
      "ĠmÃ¼ÅŁteri": 860,
      "ĠaÄŁ": 861,
      "larÄ±nÄ±n": 862,
      "Ã§i": 863,
      "int": 864,
      "Ġne": 865,
      "ĠgÃ¶st": 866,
      "ata": 867,
      "atÄ±r": 868,
      "Ġyet": 869,
      "ten": 870,
      "Ġetm": 871,
      "lat": 872,
      "Ä±mÄ±": 873,
      "Ġkullanarak": 874,
      "tÃ¼": 875,
      "ĠsÄ±nÄ±f": 876,
      "sÄ±z": 877,
      "aba": 878,
      "Ġanal": 879,
      "si": 880,
      "Ġ8": 881,
      "Ġik": 882,
      "Ġben": 883,
      "ĠÄ°n": 884,
      "ĠyÃ¼ksek": 885,
      "ĠartÄ±r": 886,
      "Ġuygulama": 887,
      "eturn": 888,
      "ĠSon": 889,
      "ĠÅŀ": 890,
      "ort": 891,
      "for": 892,
      "\")": 893,
      "get": 894,
      "asyon": 895,
      "ĠsaÄŁlÄ±k": 896,
      "ĠÃľ": 897,
      "(\"": 898,
      "Ġdef": 899,
      "Ġhayat": 900,
      "Ġhikay": 901,
      "Ġhis": 902,
      "ep": 903,
      "ĠÅŁey": 904,
      "Ġort": 905,
      "larla": 906,
      "Ġas": 907,
      "ĠdÃ¼ÅŁÃ¼n": 908,
      "laÅŁtÄ±r": 909,
      "Ä±lÄ±r": 910,
      "ĠolduÄŁunu": 911,
      "Ä±ÅŁtÄ±r": 912,
      "Ġyeniden": 913,
      "eka": 914,
      "ĠkÃ¶": 915,
      "Ġreturn": 916,
      "Ġenerji": 917,
      "aret": 918,
      "ĠÃ¶l": 919,
      "aÅŁÄ±": 920,
      "ge": 921,
      "mayÄ±": 922,
      "ladÄ±": 923,
      "lemek": 924,
      "Ġolmak": 925,
      "ede": 926,
      "ĠI": 927,
      "Ġkap": 928,
      "ĠdoÄŁ": 929,
      "Ġuygun": 930,
      "lim": 931,
      "Ġetkil": 932,
      "ĠgÃ¶ster": 933,
      "yal": 934,
      "layan": 935,
      "laya": 936,
      "gorit": 937,
      "ĠhÄ±zlÄ±": 938,
      "Ġbak": 939,
      "Ġbelirleyin": 940,
      "Ġem": 941,
      "liy": 942,
      "Ġgir": 943,
      "ĠkullanÄ±labilir": 944,
      "ĠcÃ¼mleyi": 945,
      "oh": 946,
      "oken": 947,
      "ayan": 948,
      "esine": 949,
      "ĠZ": 950,
      "set": 951,
      "oc": 952,
      "larda": 953,
      "Ġnedir": 954,
      "ĠteÅŁ": 955,
      "imli": 956,
      "bir": 957,
      "ĠÃ¼ret": 958,
      "Ã§ok": 959,
      "con": 960,
      "Ä±sÄ±": 961,
      "Ã¼Ã§Ã¼k": 962,
      "Ġev": 963,
      "\":": 964,
      "Ġ{": 965,
      "ĠyÃ¼z": 966,
      "Ġilgili": 967,
      "men": 968,
      "nin": 969,
      "Ã¶l": 970,
      "Ġ<": 971,
      "alÄ±k": 972,
      "miÅŁ": 973,
      "ast": 974,
      "yla": 975,
      "Ġarka": 976,
      "ĠÃ§Ä±kar": 977,
      "eden": 978,
      "ĠgÃ¶rÃ¼n": 979,
      "Ġhale": 980,
      "ob": 981,
      "ilir": 982,
      "Ġgenellikle": 983,
      "Ġ7": 984,
      "ĠAr": 985,
      "luk": 986,
      "ĠkullanÄ±cÄ±": 987,
      "pt": 988,
      "Ġ0": 989,
      "Ġprogram": 990,
      "leÅŁ": 991,
      "ĠsonuÃ§": 992,
      "siz": 993,
      "Ġilet": 994,
      "Ġih": 995,
      "lerine": 996,
      "cel": 997,
      "ĠtÃ¼m": 998,
      "Ġeder": 999,
      "irket": 1000,
      "Ġolur": 1001,
      "Ġplan": 1002,
      "ĠgÃ¶re": 1003,
      "log": 1004,
      "Ġbilgisayar": 1005,
      "one": 1006,
      ".\"": 1007,
      "ĠkeÅŁ": 1008,
      "ĠarasÄ±ndaki": 1009,
      "abil": 1010,
      "esel": 1011,
      "Ġfay": 1012,
      "Ġancak": 1013,
      "Ä±lÄ±m": 1014,
      "edef": 1015,
      "Ġis": 1016,
      "sÄ±nÄ±": 1017,
      "tem": 1018,
      "ind": 1019,
      "Ġyapmak": 1020,
      "enek": 1021,
      "Ġhes": 1022,
      "Ġanlam": 1023,
      "Ġalgorit": 1024,
      "Ġuzun": 1025,
      "Ġdurum": 1026,
      "min": 1027,
      "Ġsan": 1028,
      "Ã§a": 1029,
      "ĠbirÃ§ok": 1030,
      "azÄ±": 1031,
      "Ġifade": 1032,
      "Ġsay": 1033,
      "Ġyay": 1034,
      "meye": 1035,
      "Ġmodel": 1036,
      "Ã¼nÃ¼": 1037,
      "ÄŁu": 1038,
      "Ġkolay": 1039,
      "onom": 1040,
      "Ġtah": 1041,
      "ĠHer": 1042,
      "masÄ±na": 1043,
      "una": 1044,
      "matik": 1045,
      "dak": 1046,
      "ĠW": 1047,
      "lerinin": 1048,
      "iyel": 1049,
      "ĠyÃ¶net": 1050,
      "Ġweb": 1051,
      "Ġkit": 1052,
      "Ġsat": 1053,
      "Ġtut": 1054,
      "ĠÃ¶zellik": 1055,
      "ĠtanÄ±": 1056,
      "ana": 1057,
      "tiya": 1058,
      "Ġsonra": 1059,
      "):": 1060,
      "ulu": 1061,
      "Ġama": 1062,
      "ĠfÄ±r": 1063,
      "Ġzeka": 1064,
      "put": 1065,
      "th": 1066,
      "Ġtr": 1067,
      "esin": 1068,
      "Ġteknoloj": 1069,
      "mer": 1070,
      "ĠÃ§ek": 1071,
      "ĠÃ§eÅŁit": 1072,
      "ĠGÃ¼n": 1073,
      "ĠsÄ±cak": 1074,
      "otans": 1075,
      "ver": 1076,
      "Ġ'": 1077,
      "ÅŁtÄ±": 1078,
      "lardan": 1079,
      "ebil": 1080,
      "Ġim": 1081,
      "ĠEn": 1082,
      "elidir": 1083,
      "ĠkÃ¼Ã§Ã¼k": 1084,
      "ĠeÄŁit": 1085,
      "ĠYap": 1086,
      "der": 1087,
      "anÄ±n": 1088,
      "Ã¼s": 1089,
      "Ġter": 1090,
      "akip": 1091,
      "Ġbenz": 1092,
      "ĠdeÄŁiÅŁik": 1093,
      "eya": 1094,
      "ion": 1095,
      "ĠkÄ±s": 1096,
      "Ġihtiya": 1097,
      "eme": 1098,
      "ĠkeÅŁf": 1099,
      "Ġdol": 1100,
      "Ġoyun": 1101,
      "osyal": 1102,
      "),": 1103,
      "ant": 1104,
      "Ġmakal": 1105,
      "gÄ±": 1106,
      "mesi": 1107,
      "Ġhedef": 1108,
      "ilmiÅŁ": 1109,
      "Ġhesap": 1110,
      "up": 1111,
      "ĠÃ¶ÄŁ": 1112,
      "Ġ+": 1113,
      "sal": 1114,
      "oz": 1115,
      "landÄ±rÄ±n": 1116,
      "ath": 1117,
      "edir": 1118,
      "fig": 1119,
      "ece": 1120,
      "Ġgeri": 1121,
      "xt": 1122,
      "ildiÄŁ": 1123,
      "esn": 1124,
      "lak": 1125,
      "Ġdik": 1126,
      "amp": 1127,
      "Ġtemel": 1128,
      "Ġyan": 1129,
      "Ġsit": 1130,
      "Ġdeneyim": 1131,
      "ĠaraÃ§": 1132,
      "Ġana": 1133,
      "Ġser": 1134,
      "Ġhava": 1135,
      "ersiz": 1136,
      "ĠÃ¼zerinde": 1137,
      "Ġanaliz": 1138,
      "tern": 1139,
      "ve": 1140,
      "model": 1141,
      "nÄ±": 1142,
      "Ġtak": 1143,
      "Ġpotans": 1144,
      "umlu": 1145,
      "ĠayrÄ±ca": 1146,
      "Ã¼lk": 1147,
      "Ã¶yle": 1148,
      "Ġ20": 1149,
      "eket": 1150,
      "Ġte": 1151,
      "ĠkonuÅŁ": 1152,
      "ĠyapÄ±n": 1153,
      "ĠÃ¶zel": 1154,
      "ĠdeÄŁiÅŁtir": 1155,
      "Ġyen": 1156,
      "ĠiÅŁlet": 1157,
      "Ġyemek": 1158,
      "nÄ±n": 1159,
      "Ġalt": 1160,
      "Ġbar": 1161,
      "Ã¼st": 1162,
      "Ġkab": 1163,
      "Ġtab": 1164,
      "ĠkullanÄ±m": 1165,
      "adÄ±r": 1166,
      "Ġpr": 1167,
      "ĠsaÄŁlar": 1168,
      "Ġsoru": 1169,
      "enk": 1170,
      "Ġtama": 1171,
      "ĠiliÅŁ": 1172,
      "Ġhayvan": 1173,
      "ĠarkadaÅŁ": 1174,
      "ĠsÄ±k": 1175,
      "Ġdest": 1176,
      "Ġtakip": 1177,
      "ĠbÃ¶l": 1178,
      "ĠbaÅŁarÄ±": 1179,
      "ĠgÃ¼Ã§lÃ¼": 1180,
      "Ä±ldÄ±": 1181,
      "uyor": 1182,
      "ĠiÃ§erir": 1183,
      "art": 1184,
      "ĠÃ¶zet": 1185,
      "ĠyapÄ±": 1186,
      "Ä±mÄ±z": 1187,
      "Ġres": 1188,
      "elerine": 1189,
      "lantÄ±": 1190,
      "imiz": 1191,
      "gan": 1192,
      "iÃ§": 1193,
      "eriler": 1194,
      "ĠBil": 1195,
      "out": 1196,
      "oloji": 1197,
      "ni": 1198,
      "ĠAmer": 1199,
      "ĠÃ¼lk": 1200,
      "trol": 1201,
      "liyet": 1202,
      "Ġbas": 1203,
      "iyi": 1204,
      "Ä±nÄ±z": 1205,
      "Ġfayda": 1206,
      "ĠEk": 1207,
      "ĠDÃ¼nya": 1208,
      "rom": 1209,
      "Ġkend": 1210,
      "ĠNone": 1211,
      "unun": 1212,
      "Ġ9": 1213,
      "Ġhareket": 1214,
      "ĠAI": 1215,
      "Ġmaliyet": 1216,
      "ohn": 1217,
      "Ġodak": 1218,
      "ĠgÃ¶z": 1219,
      "Ġbilgi": 1220,
      "elerini": 1221,
      "Ġken": 1222,
      "masÄ±nÄ±": 1223,
      "ĠYeni": 1224,
      "Ġolanak": 1225,
      "Ġpotansiyel": 1226,
      "Ġoy": 1227,
      "Ġpara": 1228,
      "ĠkarÅŁÄ±laÅŁtÄ±r": 1229,
      "azar": 1230,
      "Ġses": 1231,
      "eyin": 1232,
      "ĠgeniÅŁ": 1233,
      "Ġsahiptir": 1234,
      "Ġoto": 1235,
      "ĠaÅŁ": 1236,
      "uluk": 1237,
      "Ġkarak": 1238,
      "vik": 1239,
      "Ä±ÅŁÄ±": 1240,
      "lÃ¼k": 1241,
      "taj": 1242,
      "Ġdiz": 1243,
      "lÄ±ÄŁ": 1244,
      "Ġmal": 1245,
      "ĠÃ¶nemlidir": 1246,
      "las": 1247,
      "hangi": 1248,
      "suz": 1249,
      "ĠQ": 1250,
      "Ġfik": 1251,
      "port": 1252,
      "token": 1253,
      "ĠAl": 1254,
      "iÄŁini": 1255,
      "ĠÃ§Ä±ktÄ±": 1256,
      "Ġkelime": 1257,
      "ye": 1258,
      "zem": 1259,
      "ĠKar": 1260,
      "ĠdÃ¼nya": 1261,
      "Ġlistesi": 1262,
      "qu": 1263,
      "Ġmo": 1264,
      "isel": 1265,
      "ĠteÅŁvik": 1266,
      "Ġnok": 1267,
      "Ġkontrol": 1268,
      "siy": 1269,
      "ĠÃ§eÅŁitli": 1270,
      "ger": 1271,
      "inden": 1272,
      "Ã¼le": 1273,
      "ĠbeÅŁ": 1274,
      "ĠadÄ±m": 1275,
      "ĠiletiÅŁim": 1276,
      "yor": 1277,
      "ĠÅŁirket": 1278,
      "ĠalÄ±n": 1279,
      "maz": 1280,
      "ĠBaÅŁ": 1281,
      "Ġalgoritma": 1282,
      "ĠdÃ¼n": 1283,
      "ĠyÃ¼r": 1284,
      "iyat": 1285,
      "Ã¼ÅŁtÃ¼r": 1286,
      "ĠadÄ±": 1287,
      "ĠJohn": 1288,
      "Ġduygu": 1289,
      "Ġtahmin": 1290,
      "tadÄ±r": 1291,
      "ĠMÃ¼ÅŁt": 1292,
      "ĠaynÄ±": 1293,
      "ĠÃ¶ÄŁrenme": 1294,
      "irin": 1295,
      "esinin": 1296,
      "Ã¼yor": 1297,
      "ĠiliÅŁk": 1298,
      "----": 1299,
      "ĠulaÅŁ": 1300,
      "ĠÃ§Ã¶zÃ¼m": 1301,
      "ow": 1302,
      "gen": 1303,
      "gÄ±n": 1304,
      "uh": 1305,
      "og": 1306,
      "Ġkaz": 1307,
      "Ġkr": 1308,
      "Ġder": 1309,
      "eceÄŁi": 1310,
      "Ġveriler": 1311,
      "imiÃ§i": 1312,
      "Ġkonus": 1313,
      "'t": 1314,
      "tik": 1315,
      "Ã¼resel": 1316,
      "ĠiÅŁlem": 1317,
      "Ã¼ler": 1318,
      "ĠkullanÄ±lÄ±r": 1319,
      "Ġ19": 1320,
      "ÅŁÄ±k": 1321,
      "Ġper": 1322,
      "ĠÃ¶lÃ§": 1323,
      "Ġkoru": 1324,
      "Ġdestek": 1325,
      "ĠÄ°ÅŁ": 1326,
      "Ġdev": 1327,
      "Ġtes": 1328,
      "ĠyaklaÅŁ": 1329,
      "Ġart": 1330,
      "ĠYapay": 1331,
      "yi": 1332,
      "ĠaraÅŁtÄ±r": 1333,
      "Ġ)": 1334,
      "Ġekonom": 1335,
      "cut": 1336,
      "raf": 1337,
      "Ġhaf": 1338,
      "Ġ->": 1339,
      "ation": 1340,
      "isini": 1341,
      "eyen": 1342,
      "ĠdÃ¶nÃ¼ÅŁtÃ¼r": 1343,
      "ĠÄ°ki": 1344,
      "ĠvardÄ±r": 1345,
      "ehir": 1346,
      "Ġdav": 1347,
      "ĠoluÅŁturmak": 1348,
      "Ġolacak": 1349,
      "kaÃ§": 1350,
      "Ġkim": 1351,
      "ĠkÄ±sa": 1352,
      "evcut": 1353,
      "Ġgelir": 1354,
      "lanan": 1355,
      "Ġrenk": 1356,
      "ileÅŁtir": 1357,
      "ildiÄŁinde": 1358,
      "ame": 1359,
      "Ġbelirli": 1360,
      "anÄ±t": 1361,
      "eÄŁin": 1362,
      "lab": 1363,
      "Ġtamam": 1364,
      "Ġbek": 1365,
      "isk": 1366,
      "Ġyapay": 1367,
      "Ġun": 1368,
      "ara": 1369,
      "uv": 1370,
      "Ġizin": 1371,
      "Ġverimli": 1372,
      "ky": 1373,
      "tÃ¶r": 1374,
      "ĠyazÄ±lÄ±m": 1375,
      "mi": 1376,
      "Ġsorun": 1377,
      "Ġhikaye": 1378,
      "ĠihtiyaÃ§": 1379,
      "ĠbazÄ±": 1380,
      "ĠsaÄŁlamak": 1381,
      "gel": 1382,
      "ĠeÅŁ": 1383,
      "ĠMak": 1384,
      "Ġherhangi": 1385,
      "larÄ±nda": 1386,
      "Ã¼zel": 1387,
      "Ġbit": 1388,
      "ĠHay": 1389,
      "ĠkullanÄ±lan": 1390,
      "Ġgenel": 1391,
      "ilebilir": 1392,
      "ri": 1393,
      "Ġmed": 1394,
      "ĠTek": 1395,
      "adece": 1396,
      "ĠCÃ¼m": 1397,
      "Ġkav": 1398,
      "ĠyaratÄ±cÄ±": 1399,
      "gÃ¼n": 1400,
      "ĠÃ¶nce": 1401,
      "mÄ±z": 1402,
      "tÃ¼r": 1403,
      "Ġmik": 1404,
      "Ġmes": 1405,
      "ty": 1406,
      "Ġhaz": 1407,
      "Ġdikk": 1408,
      "aat": 1409,
      "dam": 1410,
      "lerle": 1411,
      "Ġmut": 1412,
      "uyu": 1413,
      "ĠsÄ±ra": 1414,
      "Ġpazar": 1415,
      "Ġeden": 1416,
      "Ġharika": 1417,
      "ĠÃ¶rneÄŁi": 1418,
      "ĠetkileÅŁ": 1419,
      "Ġbiri": 1420,
      "maÅŁÄ±k": 1421,
      "Ġhem": 1422,
      "sp": 1423,
      "ĠolduÄŁu": 1424,
      "melidir": 1425,
      "Ġhas": 1426,
      "Ġiler": 1427,
      "ĠÃ¶d": 1428,
      "ĠgÃ¼neÅŁ": 1429,
      "ĠdoÄŁal": 1430,
      "ram": 1431,
      "layabilir": 1432,
      "Ġyok": 1433,
      "Ġfilm": 1434,
      "ĠverildiÄŁinde": 1435,
      "tiv": 1436,
      "ĠOr": 1437,
      "ku": 1438,
      "Ġmil": 1439,
      "vers": 1440,
      "maktadÄ±r": 1441,
      "fer": 1442,
      "Ġgit": 1443,
      "Ġbec": 1444,
      "Ġman": 1445,
      "ĠsatÄ±n": 1446,
      "kyÃ¼z": 1447,
      "oli": 1448,
      "Ġsosyal": 1449,
      "Ġimport": 1450,
      "iksel": 1451,
      "add": 1452,
      "ĠGen": 1453,
      "inÃ§": 1454,
      "ĠĠĠĠĠĠĠĠĠĠĠĠĠĠĠĠĠĠĠ": 1455,
      "Ġnot": 1456,
      "Ġstrate": 1457,
      "Ġkazan": 1458,
      "nun": 1459,
      "Ġetti": 1460,
      "ĠbaÄŁlantÄ±": 1461,
      "Ġkarakter": 1462,
      "._": 1463,
      "unuz": 1464,
      "ĠyÃ¶ntem": 1465,
      "Ã¼p": 1466,
      "ĠeriÅŁ": 1467,
      "iyas": 1468,
      "erine": 1469,
      "ij": 1470,
      "Ä±nÄ±r": 1471,
      "Ġpay": 1472,
      "ĠAB": 1473,
      "post": 1474,
      "ocuk": 1475,
      "ĠeÄŁitim": 1476,
      "labil": 1477,
      "Ä±lmÄ±ÅŁ": 1478,
      "likte": 1479,
      "iyorum": 1480,
      "Ġboyun": 1481,
      "gil": 1482,
      "ĠbirkaÃ§": 1483,
      "Ġgerektir": 1484,
      "Ġkir": 1485,
      "ĠdeÄŁil": 1486,
      "ektr": 1487,
      "lanÄ±r": 1488,
      "Ġcih": 1489,
      "Ġorta": 1490,
      "obot": 1491,
      "ĠtÃ¼k": 1492,
      "istan": 1493,
      "usu": 1494,
      "graf": 1495,
      "ĠinsanlarÄ±n": 1496,
      "Ġseviy": 1497,
      "Ġgiz": 1498,
      "ĠdeÄŁerlendir": 1499,
      "ĠsÄ±nÄ±flandÄ±rÄ±n": 1500,
      "kÃ¼": 1501,
      "ĠkÄ±r": 1502,
      "ĠEv": 1503,
      "ĠyaÅŁam": 1504,
      "ĠÃ§evrimiÃ§i": 1505,
      "ĠhazÄ±r": 1506,
      "bi": 1507,
      "Ġes": 1508,
      "Ġekleyin": 1509,
      "Ġnedeniyle": 1510,
      "ĠÃ¶nerin": 1511,
      "Ġtarih": 1512,
      "rup": 1513,
      "kan": 1514,
      "Ä±da": 1515,
      "Ġdayan": 1516,
      "Ġnesn": 1517,
      "Ġcon": 1518,
      "config": 1519,
      "Ã§e": 1520,
      "lardÄ±r": 1521,
      "ĠyaÄŁ": 1522,
      "ĠÃ¶rnek": 1523,
      "eck": 1524,
      "forman": 1525,
      "Ġderin": 1526,
      "ĠiÃ§inde": 1527,
      "Ġmod": 1528,
      "ĠoluÅŁ": 1529,
      "esinde": 1530,
      "larÄ±ndan": 1531,
      "ada": 1532,
      "pr": 1533,
      "izer": 1534,
      "ĠsÃ¼rec": 1535,
      "path": 1536,
      "malÄ±dÄ±r": 1537,
      "ĠgÃ¼zel": 1538,
      "ĠiyileÅŁtir": 1539,
      "Ġmalzem": 1540,
      "rar": 1541,
      "oÄŁr": 1542,
      "ĠalÄ±ÅŁ": 1543,
      "Ġboyunca": 1544,
      "hat": 1545,
      "mel": 1546,
      "Ä±t": 1547,
      "Ġtat": 1548,
      "Ġhangi": 1549,
      "ĠEl": 1550,
      "ĠÄ°k": 1551,
      "ĠMÃ¼ÅŁteri": 1552,
      "ĠpiÅŁ": 1553,
      "ĠolasÄ±": 1554,
      "and": 1555,
      "Ġsav": 1556,
      "ĠayÄ±r": 1557,
      "pek": 1558,
      "Ġx": 1559,
      "Ġgid": 1560,
      "Ġdepo": 1561,
      "ĠkeÅŁfet": 1562,
      "meyi": 1563,
      "ĠkaÃ§": 1564,
      "ide": 1565,
      "menin": 1566,
      "pe": 1567,
      "size": 1568,
      "ĠkÃ¼m": 1569,
      "Ġmevcut": 1570,
      "ĠkarmaÅŁÄ±k": 1571,
      "cer": 1572,
      "ĠkaÅŁÄ±": 1573,
      "Ġetkili": 1574,
      "Ġkitap": 1575,
      "ĠkaÅŁÄ±ÄŁÄ±": 1576,
      "ali": 1577,
      "Ã¶rt": 1578,
      "Ġazaltmak": 1579,
      "blem": 1580,
      "ategor": 1581,
      "ĠtanÄ±mlayÄ±n": 1582,
      "cil": 1583,
      "Ġkonusunda": 1584,
      "ĠBen": 1585,
      "ĠmÃ¼": 1586,
      "Ġinan": 1587,
      "ĠPro": 1588,
      "ĠÃ§alÄ±ÅŁma": 1589,
      "eceÄŁini": 1590,
      "Ġfiz": 1591,
      "yanÄ±n": 1592,
      "Ġetkin": 1593,
      "sat": 1594,
      "âĢ": 1595,
      "inans": 1596,
      "lerden": 1597,
      "isyon": 1598,
      "ĠSaÄŁ": 1599,
      "Ġmakine": 1600,
      "siniz": 1601,
      "eti": 1602,
      "dÃ¼str": 1603,
      "acak": 1604,
      "Ġ}": 1605,
      "Ġgez": 1606,
      "Ġmer": 1607,
      "Ġgereken": 1608,
      "Ġsistemi": 1609,
      "Ġperforman": 1610,
      "layarak": 1611,
      "uyla": 1612,
      "Ġdolu": 1613,
      "mem": 1614,
      "Ġtav": 1615,
      "asÄ±nda": 1616,
      "iir": 1617,
      "Ġkod": 1618,
      "dÄ±ÄŁÄ±": 1619,
      "Ġpop": 1620,
      "Ġrisk": 1621,
      "Ġifad": 1622,
      "na": 1623,
      "Ġproblem": 1624,
      "per": 1625,
      "Ġfiyat": 1626,
      "Ġkendi": 1627,
      "Ġotomatik": 1628,
      "Ã¼nkÃ¼": 1629,
      "Ġverileri": 1630,
      "Ġmem": 1631,
      "Ġbilim": 1632,
      "Ġenerj": 1633,
      "ĠDaha": 1634,
      "ĠÃ¶ÄŁrenc": 1635,
      "],": 1636,
      "val": 1637,
      "Ġsaat": 1638,
      "iÅŁi": 1639,
      "Ġartan": 1640,
      "ala": 1641,
      "ilerini": 1642,
      "ĠmaÄŁ": 1643,
      "Ġmiktar": 1644,
      "Ġcihaz": 1645,
      "ens": 1646,
      "ĠyaygÄ±n": 1647,
      "ĠAmerika": 1648,
      "Ġkavram": 1649,
      "ĠABD": 1650,
      "tin": 1651,
      "Ã¼ne": 1652,
      "dÄ±ÄŁÄ±nÄ±": 1653,
      "ĠBirleÅŁ": 1654,
      "Ġkas": 1655,
      "Ġdin": 1656,
      "tra": 1657,
      "Ġyolu": 1658,
      "ĠkoÅŁ": 1659,
      "ĠuÃ§": 1660,
      "ĠfÄ±rsat": 1661,
      "ĠyatÄ±r": 1662,
      "ĠDoÄŁ": 1663,
      "Ġanlama": 1664,
      "etim": 1665,
      "ĠkiÅŁi": 1666,
      "Ġbirlikte": 1667,
      "Ä±ÅŁÄ±k": 1668,
      "load": 1669,
      "gar": 1670,
      "Ġtam": 1671,
      "Ġyapma": 1672,
      "Ġ*": 1673,
      "dirim": 1674,
      "Ä±yla": 1675,
      "\"\"": 1676,
      "bon": 1677,
      "ÄŁÄ±nda": 1678,
      "Ġyor": 1679,
      "Ġtest": 1680,
      "Ġilk": 1681,
      "ack": 1682,
      "Ġtel": 1683,
      "Ä±lmasÄ±": 1684,
      "ĠDev": 1685,
      "vantaj": 1686,
      "=\"": 1687,
      "ĠgeÃ§ir": 1688,
      "gin": 1689,
      "tor": 1690,
      "elik": 1691,
      "Ã¼nde": 1692,
      "tif": 1693,
      "ĠkiÅŁisel": 1694,
      "Ġfikir": 1695,
      "bol": 1696,
      "dik": 1697,
      "Ġsin": 1698,
      "ĠsÃ¶y": 1699,
      "Ã¼kÃ¼m": 1700,
      "Ġalmak": 1701,
      "liÄŁini": 1702,
      "siyon": 1703,
      "20": 1704,
      "lk": 1705,
      "mos": 1706,
      "Ä±b": 1707,
      "ilik": 1708,
      "lerde": 1709,
      "ĠdÃ¼zenleyin": 1710,
      "tedir": 1711,
      "yonu": 1712,
      "inci": 1713,
      "leriyle": 1714,
      "Ġuzak": 1715,
      "dÄ±k": 1716,
      "ahat": 1717,
      "ĠparÃ§": 1718,
      "Ã¼lebilir": 1719,
      "ne": 1720,
      "undan": 1721,
      "Ġhast": 1722,
      "ilenebilir": 1723,
      "Ġboy": 1724,
      "anlÄ±ÅŁ": 1725,
      "ĠGÃ¼neÅŁ": 1726,
      "ĠvardÄ±": 1727,
      "Ġlistel": 1728,
      "Ġtoplam": 1729,
      "Ġdavran": 1730,
      "los": 1731,
      "Ġkom": 1732,
      "Ġise": 1733,
      "ital": 1734,
      "Ġtart": 1735,
      "zÄ±": 1736,
      "Ġyiy": 1737,
      "atas": 1738,
      "Ġrek": 1739,
      "meler": 1740,
      "ub": 1741,
      "arÄ±m": 1742,
      "lerinden": 1743,
      "Ġmey": 1744,
      "kÃ¼n": 1745,
      "imize": 1746,
      "Ġmetin": 1747,
      "alan": 1748,
      "Ġkah": 1749,
      "Ġsadece": 1750,
      "Ġorgan": 1751,
      "ĠiÃ§eren": 1752,
      "ĠkÃ¼resel": 1753,
      "Ġsal": 1754,
      "Ġavantaj": 1755,
      "Ġyeten": 1756,
      "ĠkonuÅŁma": 1757,
      "aj": 1758,
      "key": 1759,
      "rak": 1760,
      "adÄ±": 1761,
      "Ġverir": 1762,
      "ĠendÃ¼str": 1763,
      "Ġemin": 1764,
      "caÄŁ": 1765,
      "ode": 1766,
      "Ġproj": 1767,
      "Ġdair": 1768,
      "Ġmedya": 1769,
      "Ġtopl": 1770,
      "ĠpaylaÅŁ": 1771,
      "Ġfrom": 1772,
      "Ġyolc": 1773,
      "Ġdevam": 1774,
      "emek": 1775,
      "Ã¼kem": 1776,
      "arkÄ±": 1777,
      "ĠtÃ¼rÃ¼": 1778,
      "form": 1779,
      "Ġkey": 1780,
      "Ġdah": 1781,
      "oÅŁ": 1782,
      "ĠÅŁiir": 1783,
      "manÄ±z": 1784,
      "ĠtanÄ±r": 1785,
      "idget": 1786,
      "ĠmaÄŁaz": 1787,
      "Ġdes": 1788,
      "ĠÃ§Ã¼nkÃ¼": 1789,
      "ĠaÃ§Ä±klama": 1790,
      "Ã¼ltÃ¼r": 1791,
      "ĠgÃ¼c": 1792,
      "Ġdikkat": 1793,
      "mÄ±ÅŁtÄ±r": 1794,
      "ĠyÃ¼ksel": 1795,
      "ĠartÄ±rmak": 1796,
      "Ã¼kemmel": 1797,
      "tÄ±n": 1798,
      "ĠsoÄŁ": 1799,
      "Ã¼zgar": 1800,
      "ĠkarÅŁÄ±laÅŁtÄ±rÄ±n": 1801,
      "ĠpopÃ¼ler": 1802,
      "Ġdak": 1803,
      "Ġyas": 1804,
      "ilmesi": 1805,
      "point": 1806,
      "ĠgÃ¼venli": 1807,
      "ĠÄ°nsan": 1808,
      "ternet": 1809,
      "alar": 1810,
      "Ä±ÅŁtÄ±": 1811,
      "inizi": 1812,
      "ĠÃ¶ÄŁrenimi": 1813,
      "lilik": 1814,
      "liliÄŁi": 1815,
      "ĠkÃ¶tÃ¼": 1816,
      "ĠetkileÅŁim": 1817,
      "eckpoint": 1818,
      "ĠyatÄ±rÄ±m": 1819,
      "Ġolabil": 1820,
      "Ġortaya": 1821,
      "ĠsÃ¶z": 1822,
      "larÄ±yla": 1823,
      "Ġces": 1824,
      "text": 1825,
      "Ġfiziksel": 1826,
      "ĠâĢ": 1827,
      "Ġhab": 1828,
      "Ġ12": 1829,
      "ĠeriÅŁim": 1830,
      "ĠÃ¶zetleyin": 1831,
      "ĠTekn": 1832,
      "ĠÃ§ay": 1833,
      "ĠVeri": 1834,
      "Ġlistesini": 1835,
      "Ġkabul": 1836,
      "ĠBirleÅŁik": 1837,
      "Ġbarda": 1838,
      "Ġpazarlama": 1839,
      "sil": 1840,
      "erli": 1841,
      "ĠgÃ¶rÃ¼ÅŁ": 1842,
      "Ġiklim": 1843,
      "uluÄŁ": 1844,
      "Ġstratej": 1845,
      "Ġsp": 1846,
      "Ġkalit": 1847,
      "Ġteknoloji": 1848,
      "Ġnokta": 1849,
      "Ġthe": 1850,
      "alse": 1851,
      "eyec": 1852,
      "Ġcev": 1853,
      "ÄŁret": 1854,
      "Ġhayal": 1855,
      "ue": 1856,
      "Ġyerine": 1857,
      "ĠÃ¶nc": 1858,
      "iyordu": 1859,
      "ebz": 1860,
      "Ġodaklan": 1861,
      "vi": 1862,
      "Ġst": 1863,
      "ĠBÃ¼y": 1864,
      "ĠÃ§ocuk": 1865,
      "Ġint": 1866,
      "ift": 1867,
      "Ġteknik": 1868,
      "ĠgÃ¶rÃ¼ntÃ¼": 1869,
      "ijital": 1870,
      "Ġdahil": 1871,
      "gz": 1872,
      "Ġ/": 1873,
      "ĠsÄ±nÄ±r": 1874,
      "ĠsaÄŁlayÄ±n": 1875,
      "Ġorman": 1876,
      "ĠalÄ±r": 1877,
      "Ġey": 1878,
      "ĠbÃ¶yle": 1879,
      "ĠsÃ¼reÃ§": 1880,
      "ĠolmalÄ±dÄ±r": 1881,
      "ĠbardaÄŁÄ±": 1882,
      "Ä±lan": 1883,
      "ĠÃ§iz": 1884,
      "ton": 1885,
      "Ġot": 1886,
      "ĠhiÃ§": 1887,
      "Ġfinans": 1888,
      "Ä±ÅŁma": 1889,
      "ĠgÃ¶kyÃ¼z": 1890,
      "ĠyanÄ±t": 1891,
      "lÄ±ÄŁÄ±nÄ±": 1892,
      "Ã¼nÃ¼n": 1893,
      "ith": 1894,
      "Ġetik": 1895,
      "ĠNe": 1896,
      "rue": 1897,
      "ption": 1898,
      "Ġayr": 1899,
      "oÄŁun": 1900,
      "ĠgÃ¼venlik": 1901,
      "Ä±yorum": 1902,
      "Ġortam": 1903,
      "Ä±bbi": 1904,
      "Ġdizi": 1905,
      "Ġbirbir": 1906,
      "Ġetme": 1907,
      "ilere": 1908,
      "Ġhisset": 1909,
      "com": 1910,
      "Ġ%": 1911,
      "ĠkÃ¼ltÃ¼r": 1912,
      "Ġteh": 1913,
      "ates": 1914,
      "ĠdÃ¼ÅŁÃ¼k": 1915,
      "Ġmakale": 1916,
      "sik": 1917,
      "Ġyum": 1918,
      "Ġelektr": 1919,
      "irli": 1920,
      "ĠgÃ¶revleri": 1921,
      "ĠdÃ¼ny": 1922,
      "mesine": 1923,
      "Ġadam": 1924,
      "Ġrahat": 1925,
      "Ã¼kÃ¼met": 1926,
      "Ä±p": 1927,
      "malarÄ±na": 1928,
      "Ġbirey": 1929,
      "ĠÃ§ev": 1930,
      "Ġkullanmak": 1931,
      "ĠtasarlayÄ±n": 1932,
      "ĠÃ¼st": 1933,
      "ĠkullanÄ±r": 1934,
      "Ġolmayan": 1935,
      "ataset": 1936,
      "ĠgeliÅŁ": 1937,
      "ĠbaÄŁlÄ±": 1938,
      "ary": 1939,
      "lerinde": 1940,
      "Ġgelen": 1941,
      "Ġelde": 1942,
      "layout": 1943,
      "iber": 1944,
      "ĠcÃ¼mlede": 1945,
      "ĠamaÃ§": 1946,
      "ĠsÄ±caklÄ±k": 1947,
      "ekli": 1948,
      "isinin": 1949,
      "Ġverim": 1950,
      "ĠgenÃ§": 1951,
      "ĠÃĸÄŁren": 1952,
      "ĠDevlet": 1953,
      "pu": 1954,
      "Ġkategor": 1955,
      "Ġhata": 1956,
      "ĠhatÄ±r": 1957,
      "oru": 1958,
      "ĠÄ°lk": 1959,
      "ĠsaÄŁlÄ±klÄ±": 1960,
      "Ġolumlu": 1961,
      "ĠsaÄŁlama": 1962,
      "ĠEt": 1963,
      "Ġhizmetleri": 1964,
      "Ġkut": 1965,
      "Ġopt": 1966,
      "Ġto": 1967,
      "ĠkullanÄ±n": 1968,
      "Ġzar": 1969,
      "ĠEÄŁ": 1970,
      "Ġheyec": 1971,
      "Ġfon": 1972,
      "laÅŁtÄ±": 1973,
      "ĠsÃ¼rdÃ¼r": 1974,
      "Ġatmos": 1975,
      "ĠaÄŁaÃ§": 1976,
      "Ġortalama": 1977,
      "etik": 1978,
      "lÄ±yor": 1979,
      "eyn": 1980,
      "ĠSan": 1981,
      "000": 1982,
      "Ġhat": 1983,
      "ĠgÃ¶n": 1984,
      "mektedir": 1985,
      "ĠDen": 1986,
      "ĠbileÅŁ": 1987,
      "Ġdolar": 1988,
      "evrim": 1989,
      "Ġbulunur": 1990,
      "ĠAncak": 1991,
      "latform": 1992,
      "ĠÃľÃ§": 1993,
      "Ġekonomik": 1994,
      "ere": 1995,
      "ern": 1996,
      "ĠdÃ¼zenli": 1997,
      "sun": 1998,
      "Ġdal": 1999,
      "ĠAk": 2000,
      "Ġnum": 2001,
      "Ġro": 2002,
      "efon": 2003,
      "Ġelse": 2004,
      "diÄŁi": 2005,
      "eyahat": 2006,
      "Ġoyn": 2007,
      "Ġhafif": 2008,
      "ĠalÄ±ÅŁver": 2009,
      "ĠSaÄŁlÄ±k": 2010,
      "ĠÄ±s": 2011,
      "input": 2012,
      "Ġrobot": 2013,
      "ĠaÃ§Ä±s": 2014,
      "ĠÃ¶zg": 2015,
      "____": 2016,
      "ĠÄ°ngil": 2017,
      "gzersiz": 2018,
      "ĠÃ¼n": 2019,
      "ildi": 2020,
      "ess": 2021,
      "ĠÃ¶ner": 2022,
      "Ġtarif": 2023,
      "Ġsayf": 2024,
      "Ġvur": 2025,
      "Ġsak": 2026,
      "ĠmÃ¼z": 2027,
      "ĠKullan": 2028,
      "eÅŁil": 2029,
      "ĠbaÅŁladÄ±": 2030,
      "Ġtekrar": 2031,
      "ĠÃ§alÄ±ÅŁan": 2032,
      "Ã¼cr": 2033,
      "Ġdesen": 2034,
      "Ġkes": 2035,
      "ĠtaÅŁ": 2036,
      "Ä±llÄ±": 2037,
      "Ġzih": 2038,
      "Ġverilen": 2039,
      "Ġhaline": 2040,
      "Ġzorluk": 2041,
      "ĠDevletleri": 2042,
      "Ġsen": 2043,
      "Ġparlak": 2044,
      "Ġgerekt": 2045,
      "Ġinsanlar": 2046,
      "ĠList": 2047,
      ").": 2048,
      "ber": 2049,
      "sed": 2050,
      "ĠyanlÄ±ÅŁ": 2051,
      "Ġolay": 2052,
      "ining": 2053,
      "posta": 2054,
      "Ġlisteleyin": 2055,
      "name": 2056,
      "ĠÄ±sÄ±": 2057,
      "Ã¼f": 2058,
      "etli": 2059,
      "Ġaraba": 2060,
      "Ġett": 2061,
      "ĠKÃ¶": 2062,
      "luÄŁ": 2063,
      "ĠmÃ¼ÅŁter": 2064,
      "Ġsitesi": 2065,
      "ĠdavranÄ±ÅŁ": 2066,
      "ĠâĢ¢": 2067,
      "sim": 2068,
      "atif": 2069,
      "ĠmÃ¼kemmel": 2070,
      "Ġfak": 2071,
      "Ġneler": 2072,
      "Ġgelecek": 2073,
      "Ġdakika": 2074,
      "bet": 2075,
      "Ġj": 2076,
      "ĠeÅŁit": 2077,
      "Ġpla": 2078,
      "Ã¼mkÃ¼n": 2079,
      "mez": 2080,
      "ĠHar": 2081,
      "ĠsaÄŁlayabilir": 2082,
      "user": 2083,
      "ĠdeÄŁiÅŁiklik": 2084,
      "ĠaraÅŁtÄ±rma": 2085,
      "pit": 2086,
      "esyon": 2087,
      "Ġ11": 2088,
      "ĠcanlÄ±": 2089,
      "ĠMet": 2090,
      "Ġayar": 2091,
      "Ġyiyecek": 2092,
      "muÅŁ": 2093,
      "melerine": 2094,
      "Ġtor": 2095,
      "lanabilir": 2096,
      "ĠparÃ§a": 2097,
      "Ġkamp": 2098,
      "ory": 2099,
      "ĠgÃ¶rsel": 2100,
      "Ġbulmak": 2101,
      "Ġdeniz": 2102,
      "inc": 2103,
      "ĠUy": 2104,
      "ĠÃľr": 2105,
      "Ġch": 2106,
      "Ġgerekli": 2107,
      "Ġtemsil": 2108,
      "Ġsanat": 2109,
      "ĠbÃ¶lg": 2110,
      "ĠbÃ¶ylece": 2111,
      "kez": 2112,
      "umu": 2113,
      "ĠMer": 2114,
      "ĠPar": 2115,
      "Ġoku": 2116,
      "ĠhesaplayÄ±n": 2117,
      "Ġplatform": 2118,
      "Ġ15": 2119,
      "ĠTÃ¼m": 2120,
      "ĠbaÅŁlÄ±k": 2121,
      "Ġzamanda": 2122,
      "Ġele": 2123,
      "hend": 2124,
      "Ġbah": 2125,
      "ĠBÃ¼yÃ¼k": 2126,
      "Ġsi": 2127,
      "Ġhav": 2128,
      "Ġyav": 2129,
      "Ġalma": 2130,
      "aÄŁÄ±t": 2131,
      "ruf": 2132,
      "Ġtespit": 2133,
      "Ġbeklen": 2134,
      "bo": 2135,
      "mu": 2136,
      "ĠkÄ±z": 2137,
      "ĠkullanÄ±mÄ±": 2138,
      "ĠYaz": 2139,
      "Ġincel": 2140,
      "label": 2141,
      "ĠÃ¶ÄŁret": 2142,
      "ĠÃĸrn": 2143,
      "19": 2144,
      "Ġle": 2145,
      "ult": 2146,
      "par": 2147,
      "les": 2148,
      "asÄ±nÄ±": 2149,
      "Ġfa": 2150,
      "Ġsonunda": 2151,
      "ĠanlamlÄ±": 2152,
      "ĠyaklaÅŁÄ±k": 2153,
      "Ã¼ÄŁ": 2154,
      "leyici": 2155,
      "Ä±yÄ±": 2156,
      "Ġherk": 2157,
      "sur": 2158,
      "ĠaÅŁaÄŁÄ±daki": 2159,
      "emli": 2160,
      "ict": 2161,
      "Ġzamanlar": 2162,
      "dim": 2163,
      "mur": 2164,
      "aliyet": 2165,
      "aÄŁmen": 2166,
      "Ġarama": 2167,
      "Ġ==": 2168,
      "ĠiÅŁaret": 2169,
      "ĠUz": 2170,
      "ĠyÄ±ldÄ±": 2171,
      "Ġsab": 2172,
      "Ġolun": 2173,
      "ĠKal": 2174,
      "ĠkarÄ±ÅŁtÄ±r": 2175,
      "ĠfaktÃ¶r": 2176,
      "num": 2177,
      "yth": 2178,
      "Ġdijital": 2179,
      "ĠtÄ±bbi": 2180,
      "ĠbaÅŁar": 2181,
      "ĠmÃ¼ÅŁteriler": 2182,
      "ĠÃĸz": 2183,
      "Ġbenzersiz": 2184,
      "Ġparagraf": 2185,
      "Ġsebz": 2186,
      "ĠBel": 2187,
      "ite": 2188,
      "ĠÅŁun": 2189,
      "Ġrol": 2190,
      "ĠraÄŁmen": 2191,
      "Ġvermek": 2192,
      "ids": 2193,
      "Ġso": 2194,
      "ĠdÄ±ÅŁ": 2195,
      "ord": 2196,
      "Ġpoli": 2197,
      "ĠiÅŁleme": 2198,
      "ĠMakine": 2199,
      "mÄ±zÄ±": 2200,
      "ĠtÃ¼ket": 2201,
      "Ġhaber": 2202,
      "Widget": 2203,
      "dÄ±ndan": 2204,
      "son": 2205,
      "Ġsunar": 2206,
      "Ġprint": 2207,
      "ĠbaÅŁarÄ±lÄ±": 2208,
      "gisi": 2209,
      "Ġseyahat": 2210,
      "Ã¼cÃ¼": 2211,
      "ĠaÃ§Ä±sÄ±ndan": 2212,
      "ĠyÄ±ldÄ±z": 2213,
      "data": 2214,
      "ĠGir": 2215,
      "Ġbilin": 2216,
      "estor": 2217,
      "ĠÃĩevr": 2218,
      "Ġtasarruf": 2219,
      "Ġtorch": 2220,
      "Ġgece": 2221,
      "ÅŁti": 2222,
      "urta": 2223,
      "itab": 2224,
      "Ġmetni": 2225,
      "su": 2226,
      "iner": 2227,
      "arlÄ±": 2228,
      "ĠdÃ¶rt": 2229,
      "Ä±rÄ±": 2230,
      "Ä±rak": 2231,
      "emi": 2232,
      "tÄ±cÄ±": 2233,
      "ĠCÃ¼mle": 2234,
      "malÄ±": 2235,
      "elen": 2236,
      "ĠgÄ±da": 2237,
      "ĠiÃ§eri": 2238,
      "ĠOption": 2239,
      "ĠbÃ¼yÃ¼m": 2240,
      "tokenizer": 2241,
      "ĠÄ°klim": 2242,
      "lacak": 2243,
      "Ġederek": 2244,
      "lÄ±kla": 2245,
      "versation": 2246,
      "ython": 2247,
      "ĠOptional": 2248,
      "dalÄ±": 2249,
      "genin": 2250,
      "ht": 2251,
      "Ġbur": 2252,
      "luÄŁu": 2253,
      "Ġdenk": 2254,
      "ĠkiÅŁinin": 2255,
      "lanmÄ±ÅŁ": 2256,
      "leyen": 2257,
      "Ġaktiv": 2258,
      "Ġonu": 2259,
      "eneksel": 2260,
      "ĠhastalÄ±k": 2261,
      "imizi": 2262,
      "Ġkarbon": 2263,
      "duÄŁ": 2264,
      "ĠWeb": 2265,
      "Ġdenklem": 2266,
      "Â°": 2267,
      "ĠtaÅŁÄ±": 2268,
      "ÅŁte": 2269,
      "Ġarg": 2270,
      "Ġetraf": 2271,
      "ĠtakÄ±m": 2272,
      "Ġmesaj": 2273,
      "ĠEtk": 2274,
      "res": 2275,
      "malarÄ±": 2276,
      "Ġgrup": 2277,
      "ĠÃ§ift": 2278,
      "ĠAv": 2279,
      "ĠAÃ§": 2280,
      "Ġedilir": 2281,
      "ĠGÃ¶r": 2282,
      "Ġbasit": 2283,
      "ĠdÃ¶nÃ¼ÅŁtÃ¼rÃ¼n": 2284,
      "cih": 2285,
      "insel": 2286,
      "Ġbat": 2287,
      "ĠSav": 2288,
      "Ġedebilir": 2289,
      "ĠGel": 2290,
      "ĠÄ°Ã§": 2291,
      "ĠsÄ±nÄ±flandÄ±r": 2292,
      "med": 2293,
      "ĠbÄ±rak": 2294,
      "mal": 2295,
      "Ġdok": 2296,
      "iyaret": 2297,
      "Ġazaltmaya": 2298,
      "Ġtelefon": 2299,
      "ga": 2300,
      "ÅŁtu": 2301,
      "Ġaray": 2302,
      "ĠÅŁehir": 2303,
      "Ġgetirmek": 2304,
      "</": 2305,
      "lek": 2306,
      "anlÄ±k": 2307,
      "Ġand": 2308,
      "Ġbulut": 2309,
      "Ġprof": 2310,
      "ĠseÃ§in": 2311,
      "Ġorganiz": 2312,
      "ĠalÄ±ÅŁveriÅŁ": 2313,
      "ox": 2314,
      "arasÄ±": 2315,
      "Ġfi": 2316,
      "umsuz": 2317,
      "Ġ\"\"\"": 2318,
      "arken": 2319,
      "ĠÃ§alÄ±ÅŁÄ±r": 2320,
      "Ġemisyon": 2321,
      "cr": 2322,
      "Ġku": 2323,
      "ĠbirleÅŁtir": 2324,
      "Ġtoken": 2325,
      "ahtar": 2326,
      "abÄ±": 2327,
      "Ġnedenle": 2328,
      "ĠBilg": 2329,
      "ĠmÃ¼hend": 2330,
      "sak": 2331,
      "ĠhÃ¼kÃ¼met": 2332,
      "ĠrÃ¼zgar": 2333,
      "ĠiÅŁle": 2334,
      "Ġmax": 2335,
      "ĠbaÄŁÄ±m": 2336,
      "ĠtasarÄ±m": 2337,
      "Ġegzersiz": 2338,
      "Ġtercih": 2339,
      "Ġgerektirir": 2340,
      "ĠparÃ§asÄ±": 2341,
      "Ġnelerdir": 2342,
      "Ä±ntÄ±": 2343,
      "Ġpiyas": 2344,
      "ice": 2345,
      "ĠÅŁekl": 2346,
      "Ġtemiz": 2347,
      "Ã¼stÃ¼": 2348,
      "Ġmemnun": 2349,
      "Ġeylem": 2350,
      "pend": 2351,
      "ĠÄ±ÅŁÄ±k": 2352,
      "Ġsad": 2353,
      "asyonu": 2354,
      "uzur": 2355,
      "ocab": 2356,
      "ĠsonuÃ§larÄ±": 2357,
      "dum": 2358,
      "yar": 2359,
      "Ġkelimeleri": 2360,
      "ĠÃ¼zerine": 2361,
      "ĠHayat": 2362,
      "alimat": 2363,
      "ĠgÃ¶nder": 2364,
      "idir": 2365,
      "ĠolmasÄ±": 2366,
      "ĠaracÄ±": 2367,
      "Ġprogramlama": 2368,
      "10": 2369,
      "gÃ¶r": 2370,
      "Ġ_": 2371,
      "Ġpat": 2372,
      "stik": 2373,
      "ĠkullanmanÄ±n": 2374,
      "Ġkork": 2375,
      "ĠkaynaklarÄ±": 2376,
      "Ġkol": 2377,
      "madan": 2378,
      "ĠmÃ¼mkÃ¼n": 2379,
      "ĠFran": 2380,
      "ĠiÃ§erik": 2381,
      "indistan": 2382,
      "ĠAmerik": 2383,
      "Ġderec": 2384,
      "Ġcevap": 2385,
      "tn": 2386,
      "Ġ18": 2387,
      "ĠbaÅŁka": 2388,
      "ĠtanÄ±ma": 2389,
      "ĠÃ¶lÃ§Ã¼": 2390,
      "oÄŁraf": 2391,
      "Ġatmosfer": 2392,
      "fat": 2393,
      "ĠmÃ¼c": 2394,
      "ĠAÄŁ": 2395,
      "ĠyaptÄ±": 2396,
      "ĠÄ°yi": 2397,
      "dÃ¼ÄŁ": 2398,
      "ĠseÃ§enek": 2399,
      "Ġkorumak": 2400,
      "ex": 2401,
      "Ġbes": 2402,
      "ĠkuÅŁ": 2403,
      "onuÃ§": 2404,
      "ĠkullanÄ±labil": 2405,
      "Ġbelirlemek": 2406,
      "type": 2407,
      "ĠkÄ±": 2408,
      "ĠBeÅŁ": 2409,
      "ĠSu": 2410,
      "ĠKonu": 2411,
      "ĠoluÅŁturma": 2412,
      "Ä±yordu": 2413,
      "ĠkatÄ±l": 2414,
      "ĠanlamÄ±na": 2415,
      "cÄ±nÄ±n": 2416,
      "ĠyoÄŁun": 2417,
      "Ġziyaret": 2418,
      "Ġbildirim": 2419,
      "Ġresmi": 2420,
      "Ġmerkez": 2421,
      "Ġkeyif": 2422,
      "luluk": 2423,
      "ĠbÃ¼t": 2424,
      "landÄ±": 2425,
      "ĠmÄ±": 2426,
      "ĠSosyal": 2427,
      "ĠgeliÅŁtirmek": 2428,
      "Ġzorunda": 2429,
      "Ġyenilenebilir": 2430,
      "ĠyavaÅŁ": 2431,
      "ĠÃĸrneÄŁin": 2432,
      "ele": 2433,
      "ork": 2434,
      "ĠDeÄŁ": 2435,
      "Ġolup": 2436,
      "ĠgeliÅŁtirme": 2437,
      "ĠyemeÄŁi": 2438,
      "ĠdÃ¼ÅŁÃ¼nc": 2439,
      "Ġisim": 2440,
      "eyaz": 2441,
      "ĠÄ°ngiliz": 2442,
      "irÃ¼s": 2443,
      "Ġipu": 2444,
      "edd": 2445,
      "Ġ100": 2446,
      "uvar": 2447,
      "ideo": 2448,
      "ĠyeteneÄŁi": 2449,
      "mesini": 2450,
      "lanmasÄ±": 2451,
      "iydi": 2452,
      "ĠnÃ¼f": 2453,
      "Ġcm": 2454,
      "ĠanlaÅŁ": 2455,
      "Ġverilerin": 2456,
      "ĠOn": 2457,
      "liÄŁinin": 2458,
      "ĠÅŀirket": 2459,
      "Ġnokt": 2460,
      "Ġetkinlik": 2461,
      "lor": 2462,
      "ydÄ±": 2463,
      "ĠSonuÃ§": 2464,
      "ĠyakÄ±n": 2465,
      "ĠoluÅŁur": 2466,
      "Ġtehlik": 2467,
      "..": 2468,
      "Ġdiyet": 2469,
      "Ġmek": 2470,
      "Ġverdi": 2471,
      "ĠGÃ¶": 2472,
      "Ġbulunan": 2473,
      "ĠbakÄ±m": 2474,
      "ck": 2475,
      "iri": 2476,
      "Ġted": 2477,
      "emb": 2478,
      "Ġre": 2479,
      "Ġrestor": 2480,
      "Ġelem": 2481,
      "leÅŁtirilmiÅŁ": 2482,
      "ĠdÃ¼nyanÄ±n": 2483,
      "Ġderece": 2484,
      "Ġtoplum": 2485,
      "))": 2486,
      "Ġid": 2487,
      "etr": 2488,
      "Ġmu": 2489,
      "Ġmacer": 2490,
      "ĠPython": 2491,
      "ĠgÃ¼ncel": 2492,
      "Ġyetenek": 2493,
      "Ġasla": 2494,
      "Ġtrend": 2495,
      "Ġvurgu": 2496,
      "haba": 2497,
      "kÄ±": 2498,
      "oks": 2499,
      "Ġelma": 2500,
      "ĠgÃ¼venilir": 2501,
      "ĠkullanÄ±mÄ±nÄ±": 2502,
      "Ġmobil": 2503,
      "Ġsinir": 2504,
      "Ġboyut": 2505,
      "Ġkampan": 2506,
      "ban": 2507,
      "rans": 2508,
      "alet": 2509,
      "Ġbile": 2510,
      "elere": 2511,
      "ĠOk": 2512,
      "Ġetmeye": 2513,
      "Box": 2514,
      "oun": 2515,
      "px": 2516,
      "we": 2517,
      "ard": 2518,
      "larÄ±mÄ±z": 2519,
      "all": 2520,
      "ĠardÄ±ndan": 2521,
      "ĠVe": 2522,
      "Ġayak": 2523,
      "ecektir": 2524,
      "ĠRo": 2525,
      "Ġmakin": 2526,
      "ĠeÄŁlen": 2527,
      "ĠÃ§ekici": 2528,
      "lass": 2529,
      "Ġbecer": 2530,
      "Ġyorum": 2531,
      "Ġof": 2532,
      "Ġmar": 2533,
      "adan": 2534,
      "Ġilgi": 2535,
      "ĠiÅŁbir": 2536,
      "Ġisted": 2537,
      "pro": 2538,
      "Ġdon": 2539,
      "ĠgÃ¼nlÃ¼k": 2540,
      "ĠalanÄ±": 2541,
      "Ġilerlem": 2542,
      "ĠÃ¶dÃ¼l": 2543,
      "ĠÄ±sÄ±n": 2544,
      "akal": 2545,
      "edeki": 2546,
      "ass": 2547,
      "ĠgeÃ§miÅŁ": 2548,
      "Ġhizmeti": 2549,
      "Ġform": 2550,
      "Ġfaaliyet": 2551,
      "his": 2552,
      "kÃ¼r": 2553,
      "Ġgeleneksel": 2554,
      "Ġdost": 2555,
      "Ġbelirt": 2556,
      "Ġdilbil": 2557,
      "logger": 2558,
      "indeki": 2559,
      "ĠÃ§at": 2560,
      "ĠÅŁif": 2561,
      "ĠkullanÄ±l": 2562,
      "ĠiÃ§ermelidir": 2563,
      "Ġkurul": 2564,
      "Ġboz": 2565,
      "olojik": 2566,
      "Ġkararlar": 2567,
      "ĠtartÄ±ÅŁ": 2568,
      "Ġum": 2569,
      "ĠyeÅŁil": 2570,
      "ime": 2571,
      "ĠÃ§aba": 2572,
      "Ġend": 2573,
      "leÅŁtirmek": 2574,
      "ĠÃ¼zere": 2575,
      "ĠBilgisayar": 2576,
      "nÄ±z": 2577,
      "Ġhuzur": 2578,
      "Ġmi": 2579,
      "ĠÃ§ar": 2580,
      "ĠAs": 2581,
      "ĠKon": 2582,
      "tention": 2583,
      "ĠArka": 2584,
      "Ġbenzer": 2585,
      "age": 2586,
      "alog": 2587,
      "ase": 2588,
      "ect": 2589,
      "Ġedici": 2590,
      "ĠTop": 2591,
      "diÄŁini": 2592,
      "Ġtrans": 2593,
      "ĠdeÄŁiÅŁikliÄŁi": 2594,
      "ĠolacaktÄ±r": 2595,
      "gth": 2596,
      "ÅŁam": 2597,
      "alnÄ±z": 2598,
      "Ġyapar": 2599,
      "Ġediyor": 2600,
      "ĠYar": 2601,
      "ĠHindistan": 2602,
      "mana": 2603,
      "ĠkararlÄ±": 2604,
      "Ġmiktarda": 2605,
      "ĠiÃ§eriÄŁ": 2606,
      "\"]": 2607,
      "fi": 2608,
      "Ġlen": 2609,
      "max": 2610,
      "Ġtur": 2611,
      "isine": 2612,
      "layÄ±cÄ±": 2613,
      "append": 2614,
      "ĠÃ¼zerindeki": 2615,
      "Ġgirdi": 2616,
      "Ġzihinsel": 2617,
      "nde": 2618,
      "dev": 2619,
      "ĠYZ": 2620,
      "ĠYÃ¼k": 2621,
      "lÃ¼ÄŁ": 2622,
      "ĠtanÄ±mlamak": 2623,
      "ĠmÃ¼cad": 2624,
      "ĠkayÄ±": 2625,
      "Ġse": 2626,
      "ĠSÄ±": 2627,
      "Ġyapabil": 2628,
      "Ġverme": 2629,
      "Ġgeldi": 2630,
      "length": 2631,
      "Ġuyum": 2632,
      "ĠFark": 2633,
      "checkpoint": 2634,
      "abilirler": 2635,
      "Ġazalta": 2636,
      "ĠyakÄ±t": 2637,
      "ĠaÅŁÄ±rÄ±": 2638,
      "Ġgeze": 2639,
      "Ġoptimize": 2640,
      "ĠKullanÄ±cÄ±": 2641,
      "fo": 2642,
      "pp": 2643,
      "pat": 2644,
      "sin": 2645,
      "Ġdir": 2646,
      "Ġders": 2647,
      "ĠSev": 2648,
      "Ġanahtar": 2649,
      "ĠseÃ§im": 2650,
      "Ġgiderek": 2651,
      "tika": 2652,
      "ĠÄ±ÅŁÄ±": 2653,
      "Ġner": 2654,
      "ilendir": 2655,
      "ĠyaÅŁayan": 2656,
      "yanus": 2657,
      "ĠsÄ±rasÄ±nda": 2658,
      "Ã¼ph": 2659,
      "ĠDoÄŁal": 2660,
      "dÄ±n": 2661,
      "ĠkoÅŁul": 2662,
      "ĠmÃ¼hendis": 2663,
      "ou": 2664,
      "Ġmark": 2665,
      "itim": 2666,
      "Ġyaban": 2667,
      "ĠÃĸn": 2668,
      "ĠtanÄ±t": 2669,
      "Ġfinansal": 2670,
      "arn": 2671,
      "Ġki": 2672,
      "Ġgec": 2673,
      "Ġolumsuz": 2674,
      "ĠÅŁeyi": 2675,
      "azik": 2676,
      "Ġengel": 2677,
      "ĠsÃ¼rekli": 2678,
      "idden": 2679,
      "Ġex": 2680,
      "ĠBaÅŁarÄ±": 2681,
      "Ġelektrik": 2682,
      "ĠÃ¶lÃ§Ã¼de": 2683,
      "hi": 2684,
      "Ġvad": 2685,
      "Ġvideo": 2686,
      "Ä±klÄ±": 2687,
      "ĠTem": 2688,
      "celik": 2689,
      "ĠplanÄ±": 2690,
      "Ġmanz": 2691,
      "Ġheyecan": 2692,
      "ĠÃľrÃ¼n": 2693,
      "line": 2694,
      "engin": 2695,
      "ange": 2696,
      "ĠsÃ¶yle": 2697,
      "Ġtalimat": 2698,
      "ĠKr": 2699,
      "Ġedilm": 2700,
      "Ġmavi": 2701,
      "ĠFalse": 2702,
      "Ġeksik": 2703,
      "acaÄŁ": 2704,
      "Ġkaps": 2705,
      "ĠÃ§Ä±karÄ±n": 2706,
      "ĠpiÅŁirin": 2707,
      "Ġroman": 2708,
      "ct": 2709,
      "meyen": 2710,
      "vocab": 2711,
      "ĠAdÄ±m": 2712,
      "Ġveritab": 2713,
      "ĠakÄ±llÄ±": 2714,
      "Ġbenim": 2715,
      "ĠkeÅŁfed": 2716,
      "ĠArkadaÅŁ": 2717,
      "fen": 2718,
      "ish": 2719,
      "Ġarr": 2720,
      "ĠDÃ¼n": 2721,
      "Ġetkiley": 2722,
      "layabil": 2723,
      "--------": 2724,
      "ĠÃ¶nceden": 2725,
      "Ġlez": 2726,
      "50": 2727,
      "kin": 2728,
      "kanÄ±": 2729,
      "ost": 2730,
      "esiyle": 2731,
      "ĠKiÅŁi": 2732,
      "ĠDoÄŁr": 2733,
      "Ġanlay": 2734,
      "Ġedilen": 2735,
      "ĠkaldÄ±r": 2736,
      "ĠadlandÄ±rÄ±n": 2737,
      "liliÄŁini": 2738,
      "ĠkullanÄ±cÄ±larÄ±n": 2739,
      "uluÄŁu": 2740,
      "tokens": 2741,
      "Ġunsur": 2742,
      "Ġfonk": 2743,
      "]:": 2744,
      "meli": 2745,
      "of": 2746,
      "ola": 2747,
      "Ġ>": 2748,
      "Ġka": 2749,
      "Ġtoz": 2750,
      "Ġaile": 2751,
      "Ġfil": 2752,
      "Ġedil": 2753,
      "ĠTar": 2754,
      "ipar": 2755,
      "Ġsorgu": 2756,
      "ĠiÃ§erebilir": 2757,
      "Ġtext": 2758,
      "cur": 2759,
      "ĠkÃ¼t": 2760,
      "Ġsiyas": 2761,
      "Ġtuz": 2762,
      "iÄŁinde": 2763,
      "Ġetkisi": 2764,
      "ĠolduÄŁundan": 2765,
      "ĠgeliÅŁtirin": 2766,
      "ortakal": 2767,
      "ĠZaman": 2768,
      "ĠiÅŁletmeler": 2769,
      "Ġlezz": 2770,
      "cod": 2771,
      "tu": 2772,
      "erÃ§ek": 2773,
      "Ġbeyaz": 2774,
      "ĠsÃ¼t": 2775,
      "Ġtra": 2776,
      "ĠGP": 2777,
      "ĠYen": 2778,
      "Ġolmadan": 2779,
      "ĠsÄ±fat": 2780,
      "ĠdeÄŁerli": 2781,
      "ĠĠĠĠĠĠĠĠĊ": 2782,
      "ĠfaydalÄ±": 2783,
      "ĠÅŁunlardÄ±r": 2784,
      "ĠAÃ§Ä±k": 2785,
      "ĠsatÄ±r": 2786,
      "Ġout": 2787,
      "langu": 2788,
      "Ġail": 2789,
      "Ġmot": 2790,
      "olor": 2791,
      "ĠÃ¶nlem": 2792,
      "istant": 2793,
      "ebilirler": 2794,
      "elerinin": 2795,
      "ĠdÃ¶ng": 2796,
      "ĠaÄŁÄ±r": 2797,
      "Ġunut": 2798,
      "Ġeski": 2799,
      "Ġperformans": 2800,
      "ĠiÅŁlev": 2801,
      "ĠAmerikan": 2802,
      "Ġtedav": 2803,
      "True": 2804,
      "alarÄ±": 2805,
      "meden": 2806,
      "Ġbiy": 2807,
      "arg": 2808,
      "Ġsih": 2809,
      "eleme": 2810,
      "Ġila": 2811,
      "etay": 2812,
      "Ġtep": 2813,
      "onik": 2814,
      "Ã¼nc": 2815,
      "Ä±lmaz": 2816,
      "ĠKur": 2817,
      "aze": 2818,
      "afor": 2819,
      "lenmiÅŁ": 2820,
      "ĠyazÄ±": 2821,
      "ĠsuÃ§": 2822,
      "Ġ[]": 2823,
      "Ġsanal": 2824,
      "Ä±nÄ±zÄ±": 2825,
      "Ġmilyon": 2826,
      "ĠTeknoloji": 2827,
      "ĠhiÃ§bir": 2828,
      "ach": 2829,
      "ang": 2830,
      "ĠSay": 2831,
      "leyerek": 2832,
      "ĠOyun": 2833,
      "otoÄŁraf": 2834,
      "Ã¼lÃ¼": 2835,
      "ĠÃ§alÄ±ÅŁtÄ±": 2836,
      "ĠÃĩal": 2837,
      "ĠZeka": 2838,
      "conversation": 2839,
      "ĠayÄ±rÄ±n": 2840,
      "ction": 2841,
      "ĠgÃ¼l": 2842,
      "Ġtal": 2843,
      "Ġhip": 2844,
      "Ġav": 2845,
      "ĠÃ§aÄŁ": 2846,
      "Ġ17": 2847,
      "ĠoluÅŁturur": 2848,
      "istik": 2849,
      "ĠdÃ¼zel": 2850,
      "ĠkavramÄ±nÄ±": 2851,
      "loss": 2852,
      "arÄ±msak": 2853,
      "ĠbileÅŁen": 2854,
      "ĠargÃ¼m": 2855,
      "ĠÃ§arp": 2856,
      "manager": 2857,
      "ane": 2858,
      "ilim": 2859,
      "atan": 2860,
      "langÄ±": 2861,
      "ĠaÄŁÄ±": 2862,
      "lit": 2863,
      "Ġmuh": 2864,
      "ĠAf": 2865,
      "eyle": 2866,
      "duÄŁu": 2867,
      "ĠilginÃ§": 2868,
      "ĠÄ°nternet": 2869,
      "ĠkÃ¶pek": 2870,
      "ĠyayÄ±n": 2871,
      "ĠtabanlÄ±": 2872,
      "Ġdesenleri": 2873,
      "gro": 2874,
      "ha": 2875,
      "Ġul": 2876,
      "Ġmin": 2877,
      "Ġnef": 2878,
      "eÄŁini": 2879,
      "ĠaldÄ±": 2880,
      "ĠÃ¶ncelik": 2881,
      "ĠÃĩin": 2882,
      "Ġyerel": 2883,
      "Ġifadeyi": 2884,
      "ĠÃ¶zellikleri": 2885,
      "Ġcesaret": 2886,
      "ĠÃ¶zgÃ¼r": 2887,
      "Ġdevrim": 2888,
      "ekkÃ¼r": 2889,
      "ĠSÃ¼r": 2890,
      "erinin": 2891,
      "Ġrap": 2892,
      "ĠKÃ¼resel": 2893,
      "Ġcan": 2894,
      "abet": 2895,
      "able": 2896,
      "larÄ±nÄ±z": 2897,
      "head": 2898,
      "Ã¼ven": 2899,
      "Ġbor": 2900,
      "ĠÃ¶r": 2901,
      "Ġruh": 2902,
      "idd": 2903,
      "ĠÃĩok": 2904,
      "lÄ±ÄŁÄ±yla": 2905,
      "Ġyenilik": 2906,
      "Ġbeceriler": 2907,
      "iden": 2908,
      "lation": 2909,
      "ins": 2910,
      "anlar": 2911,
      "izin": 2912,
      "ity": 2913,
      "elerle": 2914,
      "ĠÃ¶nemini": 2915,
      "mates": 2916,
      "Ġanalizi": 2917,
      "Ġresim": 2918,
      "Ġdayanarak": 2919,
      "Ġmodern": 2920,
      "ĠkarÄ±ÅŁtÄ±rÄ±n": 2921,
      "ĠSavaÅŁÄ±": 2922,
      "Ġfiil": 2923,
      "tur": 2924,
      "Ġtip": 2925,
      "Ġmad": 2926,
      "ĠÃ§Ã¶zmek": 2927,
      "ĠaltÄ±nda": 2928,
      "Ġoutput": 2929,
      "ren": 2930,
      "Ġhala": 2931,
      "lice": 2932,
      "ĠMar": 2933,
      "lamasÄ±": 2934,
      "ĠsaÄŁlayarak": 2935,
      "Ġgerekiyor": 2936,
      "ohbet": 2937,
      "Ã¼sÃ¼": 2938,
      "Ġmodeli": 2939,
      "ĠElma": 2940,
      "ĠNew": 2941,
      "ov": 2942,
      "vis": 2943,
      "Ġ__": 2944,
      "inst": 2945,
      "encer": 2946,
      "arlar": 2947,
      "Ġday": 2948,
      "atik": 2949,
      "Ġpark": 2950,
      "ĠGeÃ§": 2951,
      "ĠYol": 2952,
      "ĠsaÄŁlayan": 2953,
      "Ġkayd": 2954,
      "Ġverici": 2955,
      "Ġgetirir": 2956,
      "ĠĠĠĠĠĠĠĠĠĠĠĠ": 2957,
      "Ġteknolojinin": 2958,
      "ĠiÅŁletm": 2959,
      "training": 2960,
      "Ġyumurta": 2961,
      "ĠÃ§evirin": 2962,
      "ĠmÃ¼zik": 2963,
      "tim": 2964,
      "ale": 2965,
      "ĠAra": 2966,
      "erinde": 2967,
      "utton": 2968,
      "ĠyÃ¶nlendir": 2969,
      "liliÄŁ": 2970,
      "Ġoyuncu": 2971,
      "diler": 2972,
      "kÄ±n": 2973,
      "ĠyalnÄ±z": 2974,
      "ĠAt": 2975,
      "itap": 2976,
      "ĠÅŁarkÄ±": 2977,
      "ĠMal": 2978,
      "ĠBugÃ¼n": 2979,
      "ĠcÃ¼ml": 2980,
      "masyon": 2981,
      "ĠkadÄ±n": 2982,
      "Ġharf": 2983,
      "leÅŁtirin": 2984,
      "ĠdÃ¶nÃ¼ÅŁ": 2985,
      "ĠyaratÄ±k": 2986,
      "ilerine": 2987,
      "[\"": 2988,
      "iÃ§ek": 2989,
      "Ġ$": 2990,
      "inal": 2991,
      "enc": 2992,
      "ĠdÃ¼ÄŁ": 2993,
      "Ġtad": 2994,
      "Ġkural": 2995,
      "ĠkaynaÄŁÄ±": 2996,
      "Ġkolayca": 2997,
      "ĠkolaylaÅŁtÄ±r": 2998,
      "Ġcesur": 2999,
      "ĠFarklÄ±": 3000,
      "bu": 3001,
      "engi": 3002,
      "Ġgaz": 3003,
      "ore": 3004,
      "lÄ±klarÄ±": 3005,
      "ĠHikay": 3006,
      "Ã¼yÃ¼ÅŁ": 3007,
      "Ġsorumlu": 3008,
      "ĠboÅŁ": 3009,
      "Ġgetirin": 3010,
      "ĠAlman": 3011,
      "Ġtasarrufu": 3012,
      "Ġsihirli": 3013,
      "ĠdayalÄ±": 3014,
      "btn": 3015,
      "dataset": 3016,
      "rika": 3017,
      "yas": 3018,
      "Ã§larÄ±": 3019,
      "are": 3020,
      "Ġsem": 3021,
      "uyun": 3022,
      "ĠÃĩÄ±k": 3023,
      "tand": 3024,
      "ĠÃ§evresel": 3025,
      "ĠÃ¶lÃ§ek": 3026,
      "ĠIn": 3027,
      "ĠsÃ¼rdÃ¼rÃ¼lebilir": 3028,
      "Ġherkes": 3029,
      "sh": 3030,
      "arr": 3031,
      "Ġkan": 3032,
      "atch": 3033,
      "Ġ16": 3034,
      "lÄ±klar": 3035,
      "ĠaÃ§abilir": 3036,
      "Ġbelg": 3037,
      "Ġsistemleri": 3038,
      "ĠÃ§evre": 3039,
      "Ġhayatta": 3040,
      "ĠsatÄ±ÅŁ": 3041,
      "esinden": 3042,
      "ĠyaÄŁmur": 3043,
      "Ġhatta": 3044,
      "ipariÅŁ": 3045,
      "miÅŁtir": 3046,
      "ror": 3047,
      "ĠdaÄŁ": 3048,
      "Ġgiy": 3049,
      "Ġmis": 3050,
      "Ġpu": 3051,
      "Ġpoz": 3052,
      "lenir": 3053,
      "Ä±sÄ±nÄ±": 3054,
      "Ġmetafor": 3055,
      "Ġona": 3056,
      "sizlik": 3057,
      "ĠyansÄ±": 3058,
      "Ġdepolama": 3059,
      "esyonel": 3060,
      "ag": 3061,
      "ham": 3062,
      "jen": 3063,
      "ĠÃ¼y": 3064,
      "Ġevr": 3065,
      "Ġban": 3066,
      "Ġkam": 3067,
      "Ġsek": 3068,
      "essa": 3069,
      "Ġnazik": 3070,
      "ĠKap": 3071,
      "Ġzengin": 3072,
      "ĠDiÄŁer": 3073,
      "avan": 3074,
      "Ġolduk": 3075,
      "Ġhissed": 3076,
      "Ġ</": 3077,
      "ternatif": 3078,
      "ĠOrta": 3079,
      "ĠtatlÄ±": 3080,
      "Ġreklam": 3081,
      "Ġaktivit": 3082,
      "oksit": 3083,
      "anmÄ±ÅŁ": 3084,
      "Ġkil": 3085,
      "Ġdetay": 3086,
      "imini": 3087,
      "asÄ±na": 3088,
      "Ġnet": 3089,
      "Ã¼mÃ¼z": 3090,
      "Ġzek": 3091,
      "ĠTur": 3092,
      "Ġtarz": 3093,
      "usal": 3094,
      "ĠolmadÄ±ÄŁÄ±nÄ±": 3095,
      "Ġonun": 3096,
      "ĠÃ¶lÃ¼m": 3097,
      "ĠbÃ¶lÃ¼m": 3098,
      "bin": 3099,
      "ĠX": 3100,
      "Ġqu": 3101,
      "ery": 3102,
      "Ã§Ä±": 3103,
      "larÄ±m": 3104,
      "Ġbirden": 3105,
      "list": 3106,
      "ĠDerin": 3107,
      "Ġanlamak": 3108,
      "ĠkaranlÄ±k": 3109,
      "leye": 3110,
      "ĠiÅŁe": 3111,
      "ĠgÃ¼nÃ¼": 3112,
      "mask": 3113,
      "ĠJava": 3114,
      "ĠbakÄ±ÅŁ": 3115,
      "ĠÃ¶zelliklerini": 3116,
      "own": 3117,
      "Ġazaltabilir": 3118,
      "elp": 3119,
      "maktan": 3120,
      "ĠÅŁeh": 3121,
      "Ġref": 3122,
      "ĠDÃ¼z": 3123,
      "ĠGerÃ§ek": 3124,
      "ĠThe": 3125,
      "Ġinternet": 3126,
      "ĠHava": 3127,
      "ĠkaldÄ±": 3128,
      "Ġwith": 3129,
      "Ġyandan": 3130,
      "ĠgÃ¶zlem": 3131,
      "rafik": 3132,
      "12": 3133,
      "Ġsunu": 3134,
      "ĠÅŁim": 3135,
      "ĠMil": 3136,
      "Ġveren": 3137,
      "ĠinÅŁ": 3138,
      "lenin": 3139,
      "Ġmate": 3140,
      "ezavan": 3141,
      "leÅŁtirme": 3142,
      "ĠĠĠĠĠĠĠĠĠĠĠĠĠĠĠĠĠĠĠĠĠĠĠ": 3143,
      "Ġbitk": 3144,
      "Ġhasta": 3145,
      "ĠÃ¶deme": 3146,
      "ĠGenellikle": 3147,
      "ĠkÄ±rmÄ±zÄ±": 3148,
      "ĠyolculuÄŁ": 3149,
      "ĠÃ¼nlÃ¼": 3150,
      "lora": 3151,
      "ĠGPT": 3152,
      "ezavantaj": 3153,
      "ĠÃ¼cr": 3154,
      "inler": 3155,
      "Ġkez": 3156,
      "ĠkanÄ±t": 3157,
      "ÄŁÄ±n": 3158,
      "ĠsarÄ±msak": 3159,
      "ĠyÄ±k": 3160,
      "ĠBaÄŁ": 3161,
      "cÄ±lÄ±k": 3162,
      "ĠGo": 3163,
      "Ġ25": 3164,
      "Ġbilgileri": 3165,
      "Ġyaka": 3166,
      "Ġhissi": 3167,
      "Ġtakdir": 3168,
      "ĠCÃ¼mleyi": 3169,
      "Ġdilbilgisi": 3170,
      "ĠendiÅŁ": 3171,
      "ML": 3172,
      "vet": 3173,
      "Ġbuz": 3174,
      "Ġada": 3175,
      "ĠBul": 3176,
      "Ġolsun": 3177,
      "iter": 3178,
      "lamaya": 3179,
      "osil": 3180,
      "ight": 3181,
      "ĠdÃ¼zenlem": 3182,
      "ĠdeÄŁiÅŁtirin": 3183,
      "Ġfonksiyon": 3184,
      "Ġmatematik": 3185,
      "teki": 3186,
      "ĠKedi": 3187,
      "Ġisten": 3188,
      "eceÄŁim": 3189,
      "Ġokyanus": 3190,
      "Ġsakin": 3191,
      "ĠnÃ¼fus": 3192,
      "ĠYÃ¶n": 3193,
      "elerde": 3194,
      "ĠbugÃ¼n": 3195,
      "Ġsonr": 3196,
      "ĠÃ¼rÃ¼nleri": 3197,
      "ĠÃ§Ã¶zme": 3198,
      "ĠgÃ¶revi": 3199,
      "Ġikisi": 3200,
      "Ġdoldur": 3201,
      "ĠÃ§Ã¶zÃ¼mler": 3202,
      "Ġkimlik": 3203,
      "ĠihtiyaÃ§larÄ±nÄ±": 3204,
      "Ġspor": 3205,
      "ĠiÅŁbirliÄŁi": 3206,
      "ser": 3207,
      "Ġla": 3208,
      "Ġbun": 3209,
      "Ġbana": 3210,
      "Ġdiy": 3211,
      "akat": 3212,
      "unk": 3213,
      "ĠÃ§ap": 3214,
      "uydu": 3215,
      "ĠYak": 3216,
      "ĠbaÅŁlat": 3217,
      "Ġkalmak": 3218,
      "Ġkelimeyi": 3219,
      "ĠdoÄŁrudan": 3220,
      "ĠyÃ¶netimi": 3221,
      "Ġprens": 3222,
      "ĠyapÄ±lan": 3223,
      "Ġgizemli": 3224,
      "ĠsavaÅŁ": 3225,
      "Ġplaj": 3226,
      "vur": 3227,
      "Ġesn": 3228,
      "Ġsuyu": 3229,
      "Ġgru": 3230,
      "eci": 3231,
      "ĠkarÄ±ÅŁ": 3232,
      "ĠOto": 3233,
      "arakter": 3234,
      "Ġ50": 3235,
      "Ġuzay": 3236,
      "ĠAny": 3237,
      "ĠuygulamalarÄ±": 3238,
      "ebilen": 3239,
      "ĠaraÃ§lar": 3240,
      "ĠfaydalarÄ±": 3241,
      "ĠaracÄ±lÄ±ÄŁÄ±yla": 3242,
      "ransa": 3243,
      "pple": 3244,
      "Ġsiyasi": 3245,
      "langÄ±Ã§": 3246,
      "'s": 3247,
      "Ġblog": 3248,
      "eniz": 3249,
      "anlarÄ±": 3250,
      "aket": 3251,
      "alue": 3252,
      "ĠDict": 3253,
      "leyebilir": 3254,
      "ĠÃ¶ngÃ¶r": 3255,
      "ĠOl": 3256,
      "ĠzamanÄ±": 3257,
      "ĠFransa": 3258,
      "ĠRobot": 3259,
      "Ġikinci": 3260,
      "Ġasistan": 3261,
      "sÄ±nÄ±z": 3262,
      "Ġdurumu": 3263,
      "Ġkenar": 3264,
      "ĠiliÅŁkili": 3265,
      "ĠpiÅŁir": 3266,
      "ĠkeÅŁfetmek": 3267,
      "ĠYazÄ±lÄ±m": 3268,
      "ĠDoÄŁru": 3269,
      "ĠanlayÄ±ÅŁ": 3270,
      "language": 3271,
      "ĠDÃ¼zen": 3272,
      "rent": 3273,
      "Ġez": 3274,
      "Ġlog": 3275,
      "lardÄ±": 3276,
      "lerdir": 3277,
      "und": 3278,
      "Ġyaparak": 3279,
      "tive": 3280,
      "ĠHÄ±z": 3281,
      "Ġbildir": 3282,
      "Ġ200": 3283,
      "ĠfarkÄ±": 3284,
      "Ġkatman": 3285,
      "Ġhafta": 3286,
      "ĠkiÅŁiselleÅŁtirilmiÅŁ": 3287,
      "manÄ±za": 3288,
      "Ġmemnuniyet": 3289,
      "info": 3290,
      "ÅŁi": 3291,
      "Ġton": 3292,
      "ĠMo": 3293,
      "iÄŁiniz": 3294,
      "Ġuyku": 3295,
      "Ġsonsuz": 3296,
      "ĠinsanlarÄ±": 3297,
      "ĠateÅŁ": 3298,
      "ĠadÄ±nÄ±": 3299,
      "Ġkoruma": 3300,
      "ĠdÃ¼nyayÄ±": 3301,
      "Ġpolitika": 3302,
      "Ġprofesyonel": 3303,
      "Con": 3304,
      "td": 3305,
      "Ġbal": 3306,
      "ĠSE": 3307,
      "Ġrange": 3308,
      "ĠgÃ¶l": 3309,
      "ĠHT": 3310,
      "Ġetkileri": 3311,
      "Ġetkiye": 3312,
      "Ġzamanlarda": 3313,
      "Ġhizmetler": 3314,
      "ents": 3315,
      "ĠtanÄ±mlayan": 3316,
      "Ġokul": 3317,
      "Ġihtiyac": 3318,
      "ample": 3319,
      "ĠÃ¼lke": 3320,
      "rupa": 3321,
      "Ġrekabet": 3322,
      "ĠgÃ¼cÃ¼": 3323,
      "ĠetrafÄ±nda": 3324,
      "atandaÅŁ": 3325,
      "yÄ±l": 3326,
      "Ġkuv": 3327,
      "ats": 3328,
      "ediler": 3329,
      "izm": 3330,
      "Ġolmaya": 3331,
      "step": 3332,
      "ĠKarakter": 3333,
      "ĠCh": 3334,
      "ĠÅŁeker": 3335,
      "ĠonlarÄ±": 3336,
      "ĠsevinÃ§": 3337,
      "ĠgerÃ§ekten": 3338,
      "Ġortak": 3339,
      "ĠteÅŁhis": 3340,
      "ĠdeÄŁiÅŁikliÄŁinin": 3341,
      "spin": 3342,
      "ĠtÃ¼rÃ¼dÃ¼r": 3343,
      "ĠarayÃ¼z": 3344,
      "Ġumut": 3345,
      "cek": 3346,
      "ps": 3347,
      "init": 3348,
      "Ġsol": 3349,
      "ise": 3350,
      "states": 3351,
      "ĠKend": 3352,
      "low": 3353,
      "ĠdoÄŁranmÄ±ÅŁ": 3354,
      "Ġharca": 3355,
      "ilerinin": 3356,
      "Ġdestekli": 3357,
      "ĠHayvan": 3358,
      "Ġburada": 3359,
      "args": 3360,
      "eytin": 3361,
      "Ġalternatif": 3362,
      "ĠtanÄ±y": 3363,
      "ĠbÃ¼yÃ¼": 3364,
      "ĠÃ¶ÄŁrenmek": 3365,
      "ĠatÄ±k": 3366,
      "ĠbaÄŁlam": 3367,
      "ĠtÃ¼rÃ¼nÃ¼": 3368,
      "ĠgiriÅŁ": 3369,
      "ĠiÅŁletme": 3370,
      "Ġenerjisi": 3371,
      "ĠsoÄŁuk": 3372,
      "crip": 3373,
      "Ġsadakat": 3374,
      "ĠÅŁifr": 3375,
      "arning": 3376,
      "ĠMalzem": 3377,
      "Ġesnek": 3378,
      "fet": 3379,
      "ĠĠĊ": 3380,
      "Ġkesin": 3381,
      "ĠsarÄ±": 3382,
      "Ġsohbet": 3383,
      "aklÄ±": 3384,
      "ĠAd": 3385,
      "itle": 3386,
      "itik": 3387,
      "ĠfotoÄŁraf": 3388,
      "Ġnehir": 3389,
      "ĠFÄ±r": 3390,
      "ĠkalÄ±n": 3391,
      "Ġuzman": 3392,
      "ĠgÃ¶sterir": 3393,
      "lÄ±ÄŁÄ±n": 3394,
      "addWidget": 3395,
      "caÄŁÄ±nÄ±": 3396,
      "ĠAvrupa": 3397,
      "Ã¼ncÃ¼": 3398,
      "yasal": 3399,
      "gesi": 3400,
      "oy": 3401,
      "sunuz": 3402,
      "}\")": 3403,
      "Ġdezavantaj": 3404,
      "leS": 3405,
      "ĠacÄ±": 3406,
      "Ġpeyn": 3407,
      "ĠApple": 3408,
      "ĠStr": 3409,
      "ĠKen": 3410,
      "ĠGece": 3411,
      "ĠGÃ¼ven": 3412,
      "ĠsaÄŁladÄ±": 3413,
      "Ġsahibi": 3414,
      "ĠSonunda": 3415,
      "ĠteÅŁekkÃ¼r": 3416,
      "ĠyaklaÅŁÄ±m": 3417,
      "Ġdikkate": 3418,
      "dit": 3419,
      "ext": 3420,
      "sÄ±na": 3421,
      "asÄ±nÄ±n": 3422,
      "umuz": 3423,
      "Ġanla": 3424,
      "Ġyaprak": 3425,
      "ĠTab": 3426,
      "iciler": 3427,
      "Ġetkisini": 3428,
      "tez": 3429,
      "Ġyoluyla": 3430,
      "Ġlider": 3431,
      "alÄ±ÄŁÄ±": 3432,
      "ebilecek": 3433,
      "Ġconfig": 3434,
      "Ġmalzemeler": 3435,
      "Ġmeyve": 3436,
      "ĠMerhaba": 3437,
      "muÅŁtur": 3438,
      "weet": 3439,
      "ĠYÃ¼ksek": 3440,
      "say": 3441,
      "malarÄ±nÄ±": 3442,
      "Ġyat": 3443,
      "Ġtaze": 3444,
      "ĠÃ§iÃ§ek": 3445,
      "Ã¼rÃ¼l": 3446,
      "Ġanlat": 3447,
      "ĠTrue": 3448,
      "lenen": 3449,
      "ings": 3450,
      "ĠÃ¼rÃ¼nler": 3451,
      "ĠÃľz": 3452,
      "layacak": 3453,
      "Ġ2020": 3454,
      "ĠBilim": 3455,
      "ogle": 3456,
      "Ġmesaf": 3457,
      "span": 3458,
      "ĠiyileÅŁtirmek": 3459,
      "Ġyolculuk": 3460,
      "Ġrestoran": 3461,
      "Ġgezegen": 3462,
      "Ġnefes": 3463,
      "Bir": 3464,
      "ucu": 3465,
      "Ä±dÄ±r": 3466,
      "Ġima": 3467,
      "atÄ±n": 3468,
      "attention": 3469,
      "ĠÅŁark": 3470,
      "ĠgÃ¶rÃ¼l": 3471,
      "Ġbuldu": 3472,
      "use": 3473,
      "ĠolmalÄ±": 3474,
      "ĠÃĸte": 3475,
      "ĠalanÄ±nÄ±": 3476,
      "ĠgÃ¶steren": 3477,
      "ĠsaygÄ±": 3478,
      "ĠyÃ¼rÃ¼yÃ¼ÅŁ": 3479,
      "ĠsÄ±ralayÄ±n": 3480,
      "ĠEvet": 3481,
      "ĠmaÄŁazaya": 3482,
      "Ġetiket": 3483,
      "ĠUygu": 3484,
      "Ġvadeli": 3485,
      "ĠYenilenebilir": 3486,
      "<|": 3487,
      "ER": 3488,
      "meleri": 3489,
      "lararasÄ±": 3490,
      "Ġpand": 3491,
      "Ġkullanan": 3492,
      "apon": 3493,
      "lenme": 3494,
      "ĠaydÄ±n": 3495,
      "osu": 3496,
      "Ġkodu": 3497,
      "ĠsayÄ±yÄ±": 3498,
      "Ġyeterli": 3499,
      "Ġteknolojisi": 3500,
      "Ġtamamen": 3501,
      "ĠKÃ¶pek": 3502,
      "False": 3503,
      "hidden": 3504,
      "raman": 3505,
      "Ġsok": 3506,
      "Ġpers": 3507,
      "ĠÅŁaÅŁ": 3508,
      "ĠoluÅŁturul": 3509,
      "Ġdos": 3510,
      "Ġ30": 3511,
      "ĠakÅŁam": 3512,
      "Ġdeneyimi": 3513,
      "liyor": 3514,
      "ĠgiriÅŁim": 3515,
      "setS": 3516,
      "ĠÃ¶ÄŁeleri": 3517,
      "output": 3518,
      "Ġkarakt": 3519,
      "ĠkÃ¼mesi": 3520,
      "Ġmeydan": 3521,
      "ĠÄ°nsanlar": 3522,
      "ĠtaÅŁÄ±ma": 3523,
      "ĠGÃ¶kyÃ¼z": 3524,
      "bar": 3525,
      "lin": 3526,
      "tal": 3527,
      "Ãĩ": 3528,
      "ĠsipariÅŁ": 3529,
      "Ġdata": 3530,
      "Ġty": 3531,
      "Ġters": 3532,
      "iklet": 3533,
      "yalarÄ±": 3534,
      "isiklet": 3535,
      "Ġnor": 3536,
      "Ġclass": 3537,
      "ĠTas": 3538,
      "lenebilir": 3539,
      "ĠCode": 3540,
      "Ġkayb": 3541,
      "ĠhÄ±zla": 3542,
      "Ġdilim": 3543,
      "sion": 3544,
      "Ġsand": 3545,
      "Ġ+=": 3546,
      "Ġtablo": 3547,
      "Ġmutlu": 3548,
      "Ġdalga": 3549,
      "ĠmÃ¼cadele": 3550,
      "tandart": 3551,
      "ĠinÅŁa": 3552,
      "ĠÃ¼cret": 3553,
      "go": 3554,
      "Ġlayout": 3555,
      "emez": 3556,
      "ĠÅŁidd": 3557,
      "ĠbaÅŁlar": 3558,
      "Ġoran": 3559,
      "Ġkalp": 3560,
      "Ġkoy": 3561,
      "ĠdÃ¶ndÃ¼r": 3562,
      "eceÄŁiniz": 3563,
      "Ġkendini": 3564,
      "ĠulaÅŁmak": 3565,
      "Ġbitki": 3566,
      "ĠsÃ¼recini": 3567,
      "ĠEÄŁitim": 3568,
      "Ġplastik": 3569,
      "ĠGiriÅŁ": 3570,
      "ĠÅŁeklinde": 3571,
      "ĠtadÄ±nÄ±": 3572,
      "ĠGoogle": 3573,
      "ain": 3574,
      "ff": 3575,
      "Ġbot": 3576,
      "ence": 3577,
      "ĠvatandaÅŁ": 3578,
      "ÄŁÄ±m": 3579,
      "Ġit": 3580,
      "ĠhoÅŁ": 3581,
      "ĠhÃ¼cr": 3582,
      "yah": 3583,
      "likle": 3584,
      "ĠYork": 3585,
      "Ġetkilerini": 3586,
      "Ġkurmak": 3587,
      "ĠJapon": 3588,
      "Ġetmeyi": 3589,
      "ĠyÃ¼zyÄ±l": 3590,
      "Ġ201": 3591,
      "Ġsessiz": 3592,
      "lasyon": 3593,
      "ĠGenel": 3594,
      "ĠgerektiÄŁini": 3595,
      "Ġorganizasyon": 3596,
      "Ġrapor": 3597,
      "',": 3598,
      "])": 3599,
      "pon": 3600,
      "|>": 3601,
      "Ġdem": 3602,
      "iktir": 3603,
      "ĠAmaz": 3604,
      "state": 3605,
      "ĠKor": 3606,
      "ĠKÃ¼Ã§Ã¼k": 3607,
      "Ġmas": 3608,
      "Ġyaratmak": 3609,
      "ĠsayÄ±sÄ±nÄ±": 3610,
      "Ġikna": 3611,
      "ĠÃ¼retim": 3612,
      "ĠamacÄ±": 3613,
      "Ġhesaplama": 3614,
      "Ġsera": 3615,
      "ĠbÃ¶lÃ¼n": 3616,
      "versit": 3617,
      "Ġtarihi": 3618,
      "Ġnesne": 3619,
      "ĠSaÄŁlÄ±klÄ±": 3620,
      "Ġulus": 3621,
      "ĠAmazon": 3622,
      "dalÄ±k": 3623,
      "top": 3624,
      "Ġitem": 3625,
      "ledi": 3626,
      "ayÄ±n": 3627,
      "Ä±ltÄ±": 3628,
      "dent": 3629,
      "Ġyarar": 3630,
      "ĠdeÄŁeri": 3631,
      "istory": 3632,
      "elif": 3633,
      "ĠfarkÄ±n": 3634,
      "ĠgÃ¶rÃ¼nÃ¼yor": 3635,
      "ĠalgoritmasÄ±": 3636,
      "Ġmodelleri": 3637,
      "Ġyorgun": 3638,
      "assistant": 3639,
      "ĠBaÅŁarÄ±lÄ±": 3640,
      "Mind": 3641,
      "ole": 3642,
      "sÄ±n": 3643,
      "Ġbeni": 3644,
      "ÄŁÄ±ndan": 3645,
      "Ġsize": 3646,
      "malar": 3647,
      "Ġyelp": 3648,
      "Ġoda": 3649,
      "Ġ14": 3650,
      "ĠDÃ¼ÅŁ": 3651,
      "Ġyazar": 3652,
      "Ġuyan": 3653,
      "ĠatÄ±": 3654,
      "Ġistiyorum": 3655,
      "Ġkatk": 3656,
      "Ġhiss": 3657,
      "ĠdÃ¼ÅŁÃ¼nÃ¼yor": 3658,
      "Ġgird": 3659,
      "Ġstrateji": 3660,
      "Ġmalzemeleri": 3661,
      "ĠFransÄ±z": 3662,
      "ĠiÅŁletmelerin": 3663,
      "ĠAlmanya": 3664,
      "Ġyelpaz": 3665,
      "ace": 3666,
      "za": 3667,
      "ĠdaÄŁÄ±": 3668,
      "Ġtic": 3669,
      "iyer": 3670,
      "ĠneÅŁ": 3671,
      "ĠSp": 3672,
      "ĠSadece": 3673,
      "Ġetki": 3674,
      "ĠMem": 3675,
      "ĠÃ¶zellikle": 3676,
      "Ġhayran": 3677,
      "gress": 3678,
      "Ġkelimeler": 3679,
      "ĠUlu": 3680,
      "ĠÃ¶rneÄŁin": 3681,
      "ĠprogramÄ±": 3682,
      "Ġservis": 3683,
      "Ä±mÄ±zÄ±": 3684,
      "Ġkimyasal": 3685,
      "Ġgenelinde": 3686,
      "Ġgizli": 3687,
      "medik": 3688,
      "ĠkullanÄ±labilecek": 3689,
      "kish": 3690,
      "ĠdaÄŁÄ±t": 3691,
      "Ġgar": 3692,
      "Ġolsa": 3693,
      "eyse": 3694,
      "ĠSistem": 3695,
      "Ġ13": 3696,
      "adata": 3697,
      "ĠEr": 3698,
      "ĠPla": 3699,
      "Ġbelirlem": 3700,
      "ĠdÃ¼zey": 3701,
      "Ġzorlu": 3702,
      "ĠÃ¼rÃ¼nÃ¼": 3703,
      "ĠÃ¼rÃ¼nÃ¼n": 3704,
      "Ġstres": 3705,
      "ĠsayÄ±sÄ±": 3706,
      "ĠuygulamasÄ±": 3707,
      "ĠhayatÄ±": 3708,
      "ĠyÃ¼rÃ¼t": 3709,
      "ĠkirliliÄŁi": 3710,
      "Ġsavun": 3711,
      "ĠyumuÅŁ": 3712,
      "ĠbaÄŁÄ±msÄ±z": 3713,
      "essage": 3714,
      "muz": 3715,
      "sas": 3716,
      "lamanÄ±n": 3717,
      "Ġbiber": 3718,
      "Ġkok": 3719,
      "ĠkÃ¶y": 3720,
      "Ġham": 3721,
      "atur": 3722,
      "lanma": 3723,
      "ori": 3724,
      "ĠBit": 3725,
      "Ġmant": 3726,
      "Ġcez": 3727,
      "adi": 3728,
      "ĠMark": 3729,
      "ĠHangi": 3730,
      "dict": 3731,
      "ĠaÃ§Ä±": 3732,
      "Ġgibidir": 3733,
      "ĠÃ¶ÄŁrenci": 3734,
      "ĠolduÄŁunda": 3735,
      "ĠolduÄŁuna": 3736,
      "ĠhayatÄ±n": 3737,
      "abilecek": 3738,
      "ĠdizÃ¼stÃ¼": 3739,
      "Ġzarar": 3740,
      "Ġcheckpoint": 3741,
      "ĠDeÄŁiÅŁ": 3742,
      "Ġkapsam": 3743,
      "//": 3744,
      "EN": 3745,
      "ĠvirÃ¼s": 3746,
      "Ġgrafik": 3747,
      "etme": 3748,
      "ĠAÅŁ": 3749,
      "ĠÅŁu": 3750,
      "Ä±lma": 3751,
      "ĠyazÄ±sÄ±": 3752,
      "ĠbaÅŁvur": 3753,
      "ĠCO": 3754,
      "ĠkullanÄ±larak": 3755,
      "lerinizi": 3756,
      "abilirsiniz": 3757,
      "ĠsonuÃ§larÄ±nÄ±": 3758,
      "ĠdeÄŁildir": 3759,
      "ĠperformansÄ±nÄ±": 3760,
      "memory": 3761,
      "ensor": 3762,
      "ĠÄ±sÄ±tÄ±n": 3763,
      "ĠÄ°ngilizce": 3764,
      "ĠHÄ±zlÄ±": 3765,
      "gili": 3766,
      "mÄ±ÅŁtÄ±": 3767,
      "ry": 3768,
      "yo": 3769,
      "ĠÄ±ÅŁ": 3770,
      "Ġkalan": 3771,
      "ĠyanÄ±": 3772,
      "ayla": 3773,
      "Ġnit": 3774,
      "ĠParkÄ±": 3775,
      "ĠsÃ¼re": 3776,
      "ĠsÃ¼rede": 3777,
      "Ġkurtar": 3778,
      "ĠLe": 3779,
      "landÄ±rma": 3780,
      "Ġsonucu": 3781,
      "read": 3782,
      "ĠyÄ±lÄ±nda": 3783,
      "ĠII": 3784,
      "ĠsayÄ±nÄ±n": 3785,
      "Ġhedefler": 3786,
      "lÄ±ÄŁÄ±na": 3787,
      "Ġbiridir": 3788,
      "Ġbilimsel": 3789,
      "ĠSÄ±cak": 3790,
      "]]": 3791,
      "ciler": 3792,
      "dek": 3793,
      "Ã¼cu": 3794,
      "ÄŁa": 3795,
      "Ġstandart": 3796,
      "ĠÃ§oÄŁ": 3797,
      "ĠSer": 3798,
      "ĠSor": 3799,
      "Ġanda": 3800,
      "Ġindir": 3801,
      "Ġkorun": 3802,
      "heet": 3803,
      "ĠgerÃ§ekleÅŁtir": 3804,
      "ĠÃ¶ÄŁe": 3805,
      "ĠÄ°ÅŁlet": 3806,
      "mÄ±za": 3807,
      "ĠtÃ¼ketim": 3808,
      "ĠsÃ¶yleyin": 3809,
      "Ġmacera": 3810,
      "Ġbol": 3811,
      "Ġdi": 3812,
      "Ġtweet": 3813,
      "asit": 3814,
      "okr": 3815,
      "ĠTak": 3816,
      "ĠtarzÄ±": 3817,
      "osistem": 3818,
      "ĠÃĩocuk": 3819,
      "ĠgÃ¶stermek": 3820,
      "ĠyÃ¼zey": 3821,
      "eyaÄŁÄ±": 3822,
      "ĠÅŁirketin": 3823,
      "value": 3824,
      "ĠEÄŁer": 3825,
      "ĠGÃ¶rev": 3826,
      "Ġtokenizer": 3827,
      "current": 3828,
      "ĠkatkÄ±da": 3829,
      "dat": 3830,
      "geli": 3831,
      "ses": 3832,
      "lah": 3833,
      "Ġbize": 3834,
      "ĠdÃ¶": 3835,
      "alt": 3836,
      "aÄŁa": 3837,
      "ĠSar": 3838,
      "Ã¼ms": 3839,
      "ĠModel": 3840,
      "ĠYÃ¼z": 3841,
      "tic": 3842,
      "ĠbaÅŁa": 3843,
      "laÅŁma": 3844,
      "Ġliste": 3845,
      "ĠkarÅŁÄ±ya": 3846,
      "ĠakÄ±ÅŁ": 3847,
      "__(": 3848,
      "ĠÅŁeyler": 3849,
      "ĠanlamÄ±nÄ±": 3850,
      "ĠaraÃ§larÄ±": 3851,
      "ĠartÄ±ÅŁ": 3852,
      "Ġmutluluk": 3853,
      "ĠTeknoloj": 3854,
      "ĠUzun": 3855,
      "Ġdiyalog": 3856,
      "LE": 3857,
      "rc": 3858,
      "uÃ§": 3859,
      "ww": 3860,
      "Ġl": 3861,
      "Ġsrc": 3862,
      "uncu": 3863,
      "edeyse": 3864,
      "emind": 3865,
      "Ġpath": 3866,
      "amet": 3867,
      "Ġkullanma": 3868,
      "Ġrast": 3869,
      "ĠKitap": 3870,
      "lÄ±klarÄ±nÄ±": 3871,
      "ĠsaÄŁlÄ±ÄŁÄ±": 3872,
      "ĠayrÄ±": 3873,
      "Ġekip": 3874,
      "ĠgÃ¼venliÄŁi": 3875,
      "ĠcÃ¼mlesi": 3876,
      "ĠÃ§Ä±karmak": 3877,
      "antum": 3878,
      "Ġtablos": 3879,
      "Ġhayvanlar": 3880,
      "ĠsÄ±kÄ±": 3881,
      "Ġkendine": 3882,
      "Ġmutf": 3883,
      "unuzu": 3884,
      "ĠoluÅŁan": 3885,
      "ĠkaÃ§Ä±n": 3886,
      "ĠProgram": 3887,
      "ĠavantajlarÄ±": 3888,
      "ĠmÃ¼ÅŁterilerin": 3889,
      "ĠÃ¶ÄŁretmen": 3890,
      "Ġdostu": 3891,
      "ĠkayÄ±t": 3892,
      "ĠargÃ¼man": 3893,
      "eytinya": 3894,
      "?\"": 3895,
      "caÄŁÄ±": 3896,
      "taki": 3897,
      "tarÄ±": 3898,
      "ĠbiÃ§": 3899,
      "ilin": 3900,
      "Ġyapmaya": 3901,
      "Ġdomates": 3902,
      "liÄŁine": 3903,
      "Ġtoprak": 3904,
      "ĠÃ¼Ã§genin": 3905,
      "ĠkatÄ±lÄ±m": 3906,
      "ĠuzunluÄŁ": 3907,
      "uyordu": 3908,
      "gele": 3909,
      "ĠdeÄŁerlendirin": 3910,
      "ĠtartÄ±ÅŁma": 3911,
      "Ġkahraman": 3912,
      "Ġotur": 3913,
      "ĠbaÄŁÄ±mlÄ±": 3914,
      "ĠAfrika": 3915,
      "25": 3916,
      "Ġkedi": 3917,
      "Ġhep": 3918,
      "Ġalabilir": 3919,
      "eÄŁine": 3920,
      "Ġanket": 3921,
      "ĠGÃ¼Ã§": 3922,
      "Ġinput": 3923,
      "Ġbilimi": 3924,
      "loat": 3925,
      "Ġtoplu": 3926,
      "ĠgeÃ§erli": 3927,
      "Ġkorku": 3928,
      "ĠgÃ¶revler": 3929,
      "Ä±ÅŁtÄ±rma": 3930,
      "Ġevcil": 3931,
      "ĠyÃ¶netim": 3932,
      "Ġfikri": 3933,
      "gener": 3934,
      "Ġdavet": 3935,
      "ĠsorunlarÄ±": 3936,
      "ĠeriÅŁilebilir": 3937,
      "Ġifadesi": 3938,
      "ĠheyecanlÄ±": 3939,
      "ĠÃĩalÄ±ÅŁ": 3940,
      "ĠHTML": 3941,
      "leSheet": 3942,
      "mo": 3943,
      "sayÄ±": 3944,
      "siye": 3945,
      "udent": 3946,
      "ĠbÃ¶": 3947,
      "Ä±nav": 3948,
      "ÄŁÄ±na": 3949,
      "Ġslog": 3950,
      "ĠĠĠĠĠ": 3951,
      "lanmÄ±ÅŁtÄ±r": 3952,
      "Ġportakal": 3953,
      "Ġname": 3954,
      "Ä±lmasÄ±nÄ±": 3955,
      "dioksit": 3956,
      "Ġhalinde": 3957,
      "Ġkonum": 3958,
      "Ġhisse": 3959,
      "amples": 3960,
      "rompt": 3961,
      "Ġmaliyeti": 3962,
      "lÄ±ÄŁa": 3963,
      "lasik": 3964,
      "ĠalgoritmalarÄ±": 3965,
      "Ġverilerini": 3966,
      "ĠÄ°kinci": 3967,
      "ĠuÃ§uÅŁ": 3968,
      "ĠmÃ¼ÅŁterilere": 3969,
      "ount": 3970,
      "device": 3971,
      "Ġtozu": 3972,
      "codemind": 3973,
      "Ġhipot": 3974,
      "Ġbanka": 3975,
      "ĠUygulama": 3976,
      "21": 3977,
      "ment": 3978,
      "yum": 3979,
      "orm": 3980,
      "Ġam": 3981,
      "Ġmuz": 3982,
      "Ã¼nden": 3983,
      "Ġpaket": 3984,
      "bilecek": 3985,
      "Ġfosil": 3986,
      "Ġarab": 3987,
      "Ġaraya": 3988,
      "ĠSÄ±nÄ±f": 3989,
      "ĠDo": 3990,
      "Ġverebilir": 3991,
      "duk": 3992,
      "ĠPath": 3993,
      "masÄ±nÄ±n": 3994,
      "ĠbulunmaktadÄ±r": 3995,
      "Ġbilgiler": 3996,
      "ĠsonuÃ§lar": 3997,
      "ĠEner": 3998,
      "Ġdeneyimini": 3999,
      "Ġoyunu": 4000,
      "ĠulaÅŁÄ±m": 4001,
      "Ġkaliteli": 4002,
      "Ġbireysel": 4003,
      "Ġtrendleri": 4004,
      "ĠDÃ¼zenli": 4005,
      "Bu": 4006,
      "ly": 4007,
      "Ãĸ": 4008,
      "Ġsar": 4009,
      "Ġbiraz": 4010,
      "ask": 4011,
      "amik": 4012,
      "olek": 4013,
      "Ġcins": 4014,
      "ĠMon": 4015,
      "ĠHint": 4016,
      "ĠÄ°span": 4017,
      "Ġmah": 4018,
      "Ġmater": 4019,
      "ĠPara": 4020,
      "ĠÃ¶zlÃ¼": 4021,
      "Ġetkilen": 4022,
      "ĠzamanÄ±nda": 4023,
      "Ġekosistem": 4024,
      "Ġyerde": 4025,
      "ĠdoÄŁrulama": 4026,
      "Ġtutk": 4027,
      "ĠaÅŁk": 4028,
      "ĠMakale": 4029,
      "tyleSheet": 4030,
      "Ġhassas": 4031,
      "ĠsÃ¼reci": 4032,
      "Ġkategorize": 4033,
      "ĠÃ¼ni": 4034,
      "ĠMetin": 4035,
      "Ġsabah": 4036,
      "ĠeÄŁlenc": 4037,
      "Ġneredeyse": 4038,
      "Ġlezzetli": 4039,
      "ĠsektÃ¶r": 4040,
      "ĠBulut": 4041,
      "Ġkuvvet": 4042,
      "setStyleSheet": 4043,
      "Ġmateryal": 4044,
      "En": 4045,
      "Tensor": 4046,
      "by": 4047,
      "ool": 4048,
      "prompt": 4049,
      "Ä±labilir": 4050,
      "Ġbisiklet": 4051,
      "ance": 4052,
      "Ġkek": 4053,
      "ĠSayÄ±": 4054,
      "Ġzinc": 4055,
      "ĠyapmayÄ±": 4056,
      "ave": 4057,
      "ĠPer": 4058,
      "ĠtarÄ±m": 4059,
      "Ġsorunu": 4060,
      "diÄŁinde": 4061,
      "igÃ¼r": 4062,
      "ĠÃ¼zerinden": 4063,
      "Ġuygulamalar": 4064,
      "ĠÃ¼retken": 4065,
      "Ġalgoritmalar": 4066,
      "Ġkral": 4067,
      "ektrik": 4068,
      "ĠBenim": 4069,
      "train": 4070,
      "ĠsoÄŁan": 4071,
      "ĠgeliÅŁmiÅŁ": 4072,
      "ĠBelirli": 4073,
      "ĠÄ±ÅŁÄ±ÄŁÄ±": 4074,
      "cÄ±nÄ±": 4075,
      "sÃ¼z": 4076,
      "latÄ±cÄ±": 4077,
      "ina": 4078,
      "Ġyou": 4079,
      "ahar": 4080,
      "ition": 4081,
      "adem": 4082,
      "Ġgeliyor": 4083,
      "otal": 4084,
      "ĠkullanÄ±cÄ±nÄ±n": 4085,
      "Ġinsanlarla": 4086,
      "ĠkarÅŁÄ±laÅŁtÄ±": 4087,
      "Ġhalk": 4088,
      "ĠdeÄŁiÅŁken": 4089,
      "Ġederim": 4090,
      "indow": 4091,
      "Ġtahminler": 4092,
      "ĠiliÅŁkileri": 4093,
      "Ġteslim": 4094,
      "Ġyasa": 4095,
      "ba": 4096,
      "br": 4097,
      "ml": 4098,
      "Ġkaf": 4099,
      "ĠBana": 4100,
      "ĠAdÄ±": 4101,
      "ĠAlice": 4102,
      "its": 4103,
      "Ġilham": 4104,
      "ĠÃ¶nyar": 4105,
      "ĠgÃ¶rdÃ¼": 4106,
      "manÄ±": 4107,
      "ĠaÃ§tÄ±": 4108,
      "Ġprote": 4109,
      "Ġpart": 4110,
      "Ġsorum": 4111,
      "Ġbool": 4112,
      "Ã¼tfen": 4113,
      "Ġsonuc": 4114,
      "Ġformat": 4115,
      "sÄ±zlÄ±k": 4116,
      "ĠbarÄ±n": 4117,
      "ĠAlgorit": 4118,
      "Ġduygusal": 4119,
      "miÅŁti": 4120,
      "Ġproje": 4121,
      "Ġolabilecek": 4122,
      "ĠÃ§izel": 4123,
      "Ġsenary": 4124,
      "Ġmekt": 4125,
      "lÃ¼ÄŁÃ¼": 4126,
      "ĠKral": 4127,
      "Ġborder": 4128,
      "ID": 4129,
      "cat": 4130,
      "color": 4131,
      "jder": 4132,
      "melerini": 4133,
      "mith": 4134,
      "ograf": 4135,
      "sul": 4136,
      "Ġlim": 4137,
      "ĠvÃ¼cu": 4138,
      "Ġpas": 4139,
      "yap": 4140,
      "ĠfigÃ¼r": 4141,
      "ĠKu": 4142,
      "ĠKah": 4143,
      "ĠKana": 4144,
      "larÄ±ndaki": 4145,
      "ĠbiliÅŁim": 4146,
      "Ġbulma": 4147,
      "liÄŁin": 4148,
      "ĠyaÅŁadÄ±": 4149,
      "ĠuÄŁr": 4150,
      "Ġizlemek": 4151,
      "Ġsunmak": 4152,
      "abilen": 4153,
      "ĠimkanÄ±": 4154,
      "Ġtamamlamak": 4155,
      "ĠgÃ¶kyÃ¼zÃ¼": 4156,
      "ĠamaÃ§lÄ±": 4157,
      "ĠHarika": 4158,
      "Ġsoy": 4159,
      "Ġtehlikeli": 4160,
      "Ġtalep": 4161,
      "ĠdÃ¼ÄŁÃ¼m": 4162,
      "LP": 4163,
      "batch": 4164,
      "dar": 4165,
      "eor": 4166,
      "Ġelif": 4167,
      "ĠbalÄ±k": 4168,
      "isinde": 4169,
      "ĠSoÄŁ": 4170,
      "larÄ±nÄ±zÄ±": 4171,
      "ayÄ±f": 4172,
      "ĠFilm": 4173,
      "Ġkelimesinin": 4174,
      "ĠyerleÅŁtirin": 4175,
      "Ġsisteminin": 4176,
      "ĠtasarÄ±mÄ±": 4177,
      "ĠgÃ¼Ã§lendir": 4178,
      "ĠartÄ±rmaya": 4179,
      "ĠkÃ¶k": 4180,
      "ĠÃ¼retin": 4181,
      "ĠeksikliÄŁi": 4182,
      "acher": 4183,
      "ĠÃĩÄ±ktÄ±": 4184,
      "ĠKanada": 4185,
      "io": 4186,
      "pen": 4187,
      "ulan": 4188,
      "yle": 4189,
      "irler": 4190,
      "ĠdiÅŁ": 4191,
      "Ġdans": 4192,
      "ĠgÃ¼rÃ¼l": 4193,
      "aka": 4194,
      "atÄ±": 4195,
      "Ġacil": 4196,
      "ĠÅŁÃ¶yle": 4197,
      "ĠKay": 4198,
      "Ġkarab": 4199,
      "ĠyapÄ±sÄ±": 4200,
      "ĠedilmiÅŁ": 4201,
      "uzey": 4202,
      "ĠPr": 4203,
      "ĠCes": 4204,
      "tegr": 4205,
      "ĠÃ§Ä±kmak": 4206,
      "ĠRÃ¼zgar": 4207,
      "Ġkelimenin": 4208,
      "ĠartÄ±rabilir": 4209,
      "ĠÃ¼lkenin": 4210,
      "Ġdepolamak": 4211,
      "ĠmiktarÄ±nÄ±": 4212,
      "ĠsaldÄ±r": 4213,
      "ĠbÃ¼yÃ¼me": 4214,
      "Ġtranslation": 4215,
      "Ġsembol": 4216,
      "eÅŁte": 4217,
      "ia": 4218,
      "lon": 4219,
      "tÄ±k": 4220,
      "teÅŁ": 4221,
      "tent": 4222,
      "uel": 4223,
      "Ġbey": 4224,
      "Ġdey": 4225,
      "estion": 4226,
      "urt": 4227,
      "ahalÄ±": 4228,
      "ĠSeÃ§": 4229,
      "ĠDil": 4230,
      "ĠMaÄŁ": 4231,
      "Ġedebil": 4232,
      "Ġatom": 4233,
      "ĠkeÅŁif": 4234,
      "ĠtereyaÄŁÄ±": 4235,
      "Ġpratik": 4236,
      "Ġyoksa": 4237,
      "ĠdayanÄ±klÄ±": 4238,
      "Ġgider": 4239,
      "ĠotomatikleÅŁtir": 4240,
      "ĠnoktasÄ±": 4241,
      "ĠyabancÄ±": 4242,
      "ĠTurkish": 4243,
      "ponse": 4244,
      "lok": 4245,
      "ĠkaÄŁÄ±t": 4246,
      "unum": 4247,
      "Ġah": 4248,
      "ulmuÅŁ": 4249,
      "deal": 4250,
      "ĠMic": 4251,
      "ĠTav": 4252,
      "Ġindirim": 4253,
      "ĠsaÄŁlam": 4254,
      "ĠbaÅŁÄ±na": 4255,
      "Ġtekli": 4256,
      "Ġkurgu": 4257,
      "Ġharc": 4258,
      "ĠgeÃ§en": 4259,
      "ĠdÃ¶nem": 4260,
      "():": 4261,
      "ĠZor": 4262,
      "ĠÃ¶zellikler": 4263,
      "Ġmakaleyi": 4264,
      "ĠaltÄ±n": 4265,
      "ĠadÄ±mlarÄ±": 4266,
      "ĠetkileÅŁimli": 4267,
      "ĠeriÅŁimi": 4268,
      "ĠinanÄ±lmaz": 4269,
      "Ġoptimiz": 4270,
      "ĠDÃ¼nyanÄ±n": 4271,
      "Ġetkileyici": 4272,
      "ĠdÃ¼zelt": 4273,
      "ĠMalzemeler": 4274,
      "teÅŁem": 4275,
      "Text": 4276,
      "yol": 4277,
      "yasÄ±": 4278,
      "Ġlanguage": 4279,
      "inize": 4280,
      "ĠhÄ±r": 4281,
      "izyon": 4282,
      "asa": 4283,
      "ĠÅŁef": 4284,
      "ĠKat": 4285,
      "ĠKelim": 4286,
      "ĠanÄ±": 4287,
      "ĠMuz": 4288,
      "Ġyapabilir": 4289,
      "ĠHaz": 4290,
      "ĠbaÅŁlÄ±ÄŁÄ±": 4291,
      "liÄŁe": 4292,
      "ĠgeliÅŁtirilmiÅŁ": 4293,
      "Ġfikr": 4294,
      "Ġbirbirine": 4295,
      "Ġbirbirleriyle": 4296,
      "ĠbahÃ§": 4297,
      "ĠkÃ¼tÃ¼ph": 4298,
      "Ġpuan": 4299,
      "cript": 4300,
      "Ġsokak": 4301,
      "eytinyaÄŁÄ±": 4302,
      "!\"": 4303,
      "Button": 4304,
      "Ġbesin": 4305,
      "Ġdili": 4306,
      "ond": 4307,
      "ĠÃ¶m": 4308,
      "Ġmolek": 4309,
      "ĠAdam": 4310,
      "item": 4311,
      "eveyn": 4312,
      "ĠKÄ±r": 4313,
      "ĠMÃ¼z": 4314,
      "Ġedilmesi": 4315,
      "Ġmasa": 4316,
      "ĠzamanlÄ±": 4317,
      "ĠfarklarÄ±": 4318,
      "ĠolmadÄ±ÄŁÄ±": 4319,
      "Ġbilgiyi": 4320,
      "Ġduyuyor": 4321,
      "ĠkaynaklarÄ±na": 4322,
      "sius": 4323,
      "Ġdurumda": 4324,
      "Ġtraf": 4325,
      "Ġteor": 4326,
      "ĠgeniÅŁlet": 4327,
      "uyucu": 4328,
      "tivasyon": 4329,
      "ĠfÄ±rsatÄ±": 4330,
      "ĠmaÄŁaza": 4331,
      "labels": 4332,
      "Ġsebze": 4333,
      "ĠdÄ±ÅŁarÄ±": 4334,
      "ĠÃĩevrimiÃ§i": 4335,
      "Ġelement": 4336,
      "Ġdiren": 4337,
      "Ġmanzara": 4338,
      "ĠĠĠĠĠĠĠĠĠĠĠĠĊ": 4339,
      "ĠdÃ¶nÃ¼ÅŁÃ¼m": 4340,
      "ownload": 4341,
      "11": 4342,
      "45": 4343,
      "file": 4344,
      "net": 4345,
      "ust": 4346,
      "Ġuser": 4347,
      "mali": 4348,
      "rop": 4349,
      "ĠHedef": 4350,
      "elerden": 4351,
      "Ä±nabilir": 4352,
      "ĠvarlÄ±k": 4353,
      "ĠkarÅŁÄ±laÅŁ": 4354,
      "Ġistek": 4355,
      "ĠyÄ±lda": 4356,
      "ĠkitabÄ±": 4357,
      "ĠsÄ±caklÄ±ÄŁÄ±": 4358,
      "ildiÄŁi": 4359,
      "ĠodaklanÄ±r": 4360,
      "Ġmotive": 4361,
      "prÃ¼": 4362,
      "ĠalÄ±ÅŁkan": 4363,
      "Ġriskini": 4364,
      "ĠfÄ±rsatlarÄ±": 4365,
      "ĠemisyonlarÄ±nÄ±": 4366,
      "ĠsadÄ±k": 4367,
      "ĠAÄŁaÃ§": 4368,
      "embedd": 4369,
      "ĠTarih": 4370,
      "Ġmotor": 4371,
      "Ġsonraki": 4372,
      "ecial": 4373,
      "ĠJaponya": 4374,
      "Ġyararlan": 4375,
      "://": 4376,
      "Lay": 4377,
      "co": 4378,
      "kar": 4379,
      "mini": 4380,
      "era": 4381,
      "ild": 4382,
      "iller": 4383,
      "ete": 4384,
      "izle": 4385,
      "itam": 4386,
      "Ã¼rken": 4387,
      "ĠMa": 4388,
      "lamayÄ±": 4389,
      "ĠÃ¶nlemek": 4390,
      "esidir": 4391,
      "ĠdeÄŁiÅŁim": 4392,
      "eceÄŁine": 4393,
      "ĠdeÄŁerini": 4394,
      "Ã¼cut": 4395,
      "sijen": 4396,
      "ĠÅŁeyin": 4397,
      "ĠyÃ¼zden": 4398,
      "esindeki": 4399,
      "Ġdoluydu": 4400,
      "ĠÃ¶zelliÄŁi": 4401,
      "Ġmaliyetleri": 4402,
      "Ġmilyar": 4403,
      "Ġeser": 4404,
      "Ġkombin": 4405,
      "Ġmeyv": 4406,
      "ĠolabileceÄŁini": 4407,
      "Ġ//": 4408,
      "ĠverimliliÄŁi": 4409,
      "Ġmekan": 4410,
      "ĠYarat": 4411,
      "group": 4412,
      "ĠyenilikÃ§i": 4413,
      "ĠÅŁaÅŁÄ±r": 4414,
      "Ġticaret": 4415,
      "ĠkapsamlÄ±": 4416,
      "AI": 4417,
      "Dict": 4418,
      "dro": 4419,
      "sor": 4420,
      "tÄ±na": 4421,
      "title": 4422,
      "wargs": 4423,
      "Ġbirim": 4424,
      "Ġac": 4425,
      "itasyon": 4426,
      "ĠSoru": 4427,
      "ĠSmith": 4428,
      "cÄ±lar": 4429,
      "ĠYaÅŁ": 4430,
      "ĠÃ¶neriler": 4431,
      "ros": 4432,
      "ĠÄ°tal": 4433,
      "ĠyazdÄ±r": 4434,
      "ick": 4435,
      "Ġnedeni": 4436,
      "ĠcÃ¼mleye": 4437,
      "Ġbelirtin": 4438,
      "masÄ±yla": 4439,
      "ĠkalÄ±r": 4440,
      "ĠtoplantÄ±": 4441,
      "ĠgeÃ§iÅŁ": 4442,
      "ĠtÃ¼rleri": 4443,
      "ĠcÃ¼mles": 4444,
      "ĠalanÄ±nda": 4445,
      "ĠadlÄ±": 4446,
      "ĠdÃ¼ÅŁÃ¼nÃ¼n": 4447,
      "Ġkitab": 4448,
      "Ġsergil": 4449,
      "ĠhazÄ±rlayÄ±n": 4450,
      "torch": 4451,
      "ĠGelecek": 4452,
      "sinim": 4453,
      "ĠgÃ¼lÃ¼ms": 4454,
      "ĠCodeMind": 4455,
      "ĠDeÄŁiÅŁik": 4456,
      "AT": 4457,
      "Ar": 4458,
      "gisel": 4459,
      "mÃ¼ÅŁ": 4460,
      "tok": 4461,
      "erÃ§": 4462,
      "Ġset": 4463,
      "Ġyed": 4464,
      "akit": 4465,
      "itif": 4466,
      "ĠMed": 4467,
      "ĠMac": 4468,
      "Ġkart": 4469,
      "ĠalmaktadÄ±r": 4470,
      "ĠYer": 4471,
      "ĠEm": 4472,
      "ebek": 4473,
      "ĠatÄ±ÅŁtÄ±rma": 4474,
      "elerinde": 4475,
      "ĠkonularÄ±": 4476,
      "ĠazaltÄ±r": 4477,
      "amaz": 4478,
      "Ġaktif": 4479,
      "ĠÃ¶rneÄŁini": 4480,
      "ĠGÃ¼ney": 4481,
      "Ġterim": 4482,
      "ĠkullanÄ±mÄ±nÄ±n": 4483,
      "ĠiliÅŁki": 4484,
      "Ä±ldÄ±z": 4485,
      "imizin": 4486,
      "Ġmanip": 4487,
      "Ġstratejiler": 4488,
      "Ġtehdit": 4489,
      "Ġdenklemi": 4490,
      "ĠÄ°Ã§in": 4491,
      "ĠKonuÅŁ": 4492,
      "Ġmerkezi": 4493,
      "...": 4494,
      "Ġbecerileri": 4495,
      "Ġelektrikli": 4496,
      "Ġistenen": 4497,
      "best": 4498,
      "hone": 4499,
      "Ġuse": 4500,
      "Ġbaz": 4501,
      "anÄ±m": 4502,
      "Ġbiriktir": 4503,
      "ator": 4504,
      "ĠolmasÄ±na": 4505,
      "Ġpan": 4506,
      "Ä±lmÄ±ÅŁtÄ±r": 4507,
      "ĠKeÅŁ": 4508,
      "ĠMevcut": 4509,
      "avi": 4510,
      "ĠÄ°st": 4511,
      "ĠbaÅŁlayÄ±n": 4512,
      "ĠbaÅŁlangÄ±Ã§": 4513,
      "ideki": 4514,
      "Ġkuru": 4515,
      "strip": 4516,
      "Ġazaltma": 4517,
      "ĠÅŀim": 4518,
      "Ġeve": 4519,
      "ĠHerk": 4520,
      "Ġgitti": 4521,
      "ĠdeÄŁerlendirmek": 4522,
      "ĠProj": 4523,
      "Ġkeskin": 4524,
      "Ġbeklenmedik": 4525,
      "Ġkarbondioksit": 4526,
      "ĠsÄ±nÄ±flandÄ±rma": 4527,
      "ĠipuÃ§larÄ±": 4528,
      "ĠOnline": 4529,
      "ĠGÃ¶kyÃ¼zÃ¼": 4530,
      "ĠyumuÅŁak": 4531,
      "\">": 4532,
      "fÄ±r": 4533,
      "iÅŁti": 4534,
      "our": 4535,
      "sÄ±nÄ±n": 4536,
      "Ġsim": 4537,
      "ĠtÄ±r": 4538,
      "ĠBar": 4539,
      "ĠBazÄ±": 4540,
      "ĠpahalÄ±": 4541,
      "eÄŁe": 4542,
      "ĠSÄ±k": 4543,
      "ĠKim": 4544,
      "ĠDiz": 4545,
      "ĠyapmanÄ±n": 4546,
      "ĠPat": 4547,
      "ĠNesn": 4548,
      "ĠyÃ¶nelik": 4549,
      "ĠÃĸÄŁ": 4550,
      "Ġsunum": 4551,
      "ĠÃ¼retmek": 4552,
      "ĠAraba": 4553,
      "ĠsÄ±klÄ±kla": 4554,
      "ĠKarbon": 4555,
      "Ġ199": 4556,
      "ĠÃ¶ÄŁrencilerin": 4557,
      "new": 4558,
      "Ġdikkatli": 4559,
      "combo": 4560,
      "________": 4561,
      "Ġsebzeler": 4562,
      "Ġpatates": 4563,
      "Ġpandem": 4564,
      "\".": 4565,
      "++": 4566,
      "15": 4567,
      "AR": 4568,
      "NA": 4569,
      "YZ": 4570,
      "ai": 4571,
      "amak": 4572,
      "geÃ§": 4573,
      "gatif": 4574,
      "ho": 4575,
      "ie": 4576,
      "mey": 4577,
      "sg": 4578,
      "enizi": 4579,
      "elsius": 4580,
      "etimli": 4581,
      "uru": 4582,
      "ĠiÃ§indeki": 4583,
      "ash": 4584,
      "Ã¼nÃ¼z": 4585,
      "ĠÃ§Ã¶": 4586,
      "Ä±mÄ±nÄ±": 4587,
      "iÅŁimi": 4588,
      "ĠSah": 4589,
      "Ġrad": 4590,
      "ĠKiÅŁ": 4591,
      "utbol": 4592,
      "ĠMary": 4593,
      "Ġentegr": 4594,
      "ĠYum": 4595,
      "ĠÄ°ÅŁte": 4596,
      "lenmesi": 4597,
      "Ġuyar": 4598,
      "iddi": 4599,
      "ĠJu": 4600,
      "ĠJane": 4601,
      "Ġbilgilendir": 4602,
      "ĠAna": 4603,
      "ĠgÃ¶rÃ¼nÃ¼r": 4604,
      "ĠfÄ±rtÄ±n": 4605,
      "verengi": 4606,
      "Ġyenil": 4607,
      "ĠfaydalarÄ±nÄ±": 4608,
      "Ġgitmek": 4609,
      "Ġtavsiye": 4610,
      "keys": 4611,
      "caÄŁÄ±m": 4612,
      "ĠsÄ±nÄ±rlÄ±": 4613,
      "ĠeleÅŁtir": 4614,
      "Ġherkesin": 4615,
      "ĠbÃ¼tÃ§e": 4616,
      "Ġbozul": 4617,
      "ĠveritabanÄ±": 4618,
      "Ġtype": 4619,
      "Layout": 4620,
      "erÃ§ev": 4621,
      "cre": 4622,
      "day": 4623,
      "doc": 4624,
      "har": 4625,
      "kat": 4626,
      "mut": 4627,
      "rek": 4628,
      "Ġduvar": 4629,
      "orni": 4630,
      "urur": 4631,
      "eder": 4632,
      "ĠBr": 4633,
      "Ġpadd": 4634,
      "Ġnes": 4635,
      "stra": 4636,
      "ĠKuÅŁ": 4637,
      "ĠzayÄ±f": 4638,
      "ĠMod": 4639,
      "Ġedilebilir": 4640,
      "ĠTer": 4641,
      "ĠYÄ±l": 4642,
      "ĠEs": 4643,
      "icilerin": 4644,
      "ĠcÃ¼mlenin": 4645,
      "iforni": 4646,
      "Ġkaybol": 4647,
      "evrimi": 4648,
      "ĠhakkÄ±ndaki": 4649,
      "Ġharit": 4650,
      "ĠcÃ¼mledeki": 4651,
      "ĠkaynaklarÄ±n": 4652,
      "ĠkaynaklarÄ±nÄ±": 4653,
      "Ġazaltarak": 4654,
      "Ġsunun": 4655,
      "abileceÄŁi": 4656,
      "ĠanlamÄ±": 4657,
      "Ġsitesinin": 4658,
      "Ä±ldÄ±ÄŁÄ±nda": 4659,
      "ĠyapÄ±landÄ±r": 4660,
      "Ġharekete": 4661,
      "ĠgÃ¶zden": 4662,
      "ĠartÄ±k": 4663,
      "Ġbitir": 4664,
      "inÃ§li": 4665,
      "ĠkÄ±rÄ±k": 4666,
      "acaktÄ±r": 4667,
      "Ġsayfa": 4668,
      "simum": 4669,
      "Ġsiyah": 4670,
      "pattern": 4671,
      "Ġmeydana": 4672,
      "ĠEnerji": 4673,
      "ĠeÄŁlenceli": 4674,
      "Ġkarabiber": 4675,
      "16": 4676,
      "30": 4677,
      "CT": 4678,
      "RO": 4679,
      "iv": 4680,
      "ke": 4681,
      "tiler": 4682,
      "tps": 4683,
      "Ġload": 4684,
      "Ġevrim": 4685,
      "Ġberi": 4686,
      "Ġvb": 4687,
      "alÄ±m": 4688,
      "Ġhed": 4689,
      "Ġhid": 4690,
      "undaki": 4691,
      "ĠBak": 4692,
      "ĠAma": 4693,
      "iyeli": 4694,
      "ĠSam": 4695,
      "ĠÅŁar": 4696,
      "ĠÅŁans": 4697,
      "Ġciddi": 4698,
      "ĠMan": 4699,
      "likleri": 4700,
      "Ġvererek": 4701,
      "Ġedildi": 4702,
      "ape": 4703,
      "tÄ±yor": 4704,
      "ĠbaÅŁlayan": 4705,
      "ĠaÃ§Ä±klayan": 4706,
      "ĠoranÄ±": 4707,
      "osition": 4708,
      "Ġyolunu": 4709,
      "ĠÃĩeÅŁit": 4710,
      "Ġkurun": 4711,
      "ĠgÃ¶sterin": 4712,
      "ĠÅŀehir": 4713,
      "Ġkapat": 4714,
      "Ġ{\"": 4715,
      "Ġsayesinde": 4716,
      "ĠÃ¶zelliklere": 4717,
      "Ä±ldÄ±ÄŁÄ±": 4718,
      "ĠalÄ±ntÄ±": 4719,
      "ĠiliÅŁkiler": 4720,
      "Ġgerektiren": 4721,
      "Ġseviyeleri": 4722,
      "ĠotomatikleÅŁtirmek": 4723,
      "Ġotonom": 4724,
      "ĠÃĸÄŁrenimi": 4725,
      "ĠSanal": 4726,
      "ĠUzak": 4727,
      "ĠyavaÅŁÃ§a": 4728,
      "ĠSarah": 4729,
      "100": 4730,
      "yÄ±n": 4731,
      "Ãľ": 4732,
      "irken": 4733,
      "Ġklasik": 4734,
      "ĠyaÄŁÄ±": 4735,
      "ĠiP": 4736,
      "Ġbirini": 4737,
      "Ã¶val": 4738,
      "ahren": 4739,
      "ĠSat": 4740,
      "ĠKÄ±z": 4741,
      "ĠKuzey": 4742,
      "ĠDÃ¶n": 4743,
      "Ġuyumlu": 4744,
      "Ä±sÄ±r": 4745,
      "ĠdoÄŁruluk": 4746,
      "ĠÃ§alÄ±ÅŁmak": 4747,
      "Ġhizmetlerini": 4748,
      "Ġseviyorum": 4749,
      "Ġgetirdi": 4750,
      "Ġ[\"": 4751,
      "ĠsayÄ±larÄ±": 4752,
      "Ġejder": 4753,
      "ĠgerÃ§ekleÅŁ": 4754,
      "tÃ¼s": 4755,
      "ĠartÄ±rÄ±r": 4756,
      "Ġbenzetme": 4757,
      "Ġotomasyon": 4758,
      "Ġverilerden": 4759,
      "ĠyazÄ±lÄ±mÄ±": 4760,
      "ĠOrman": 4761,
      "ĠgÃ¼cÃ¼nÃ¼": 4762,
      "Ġstratejisi": 4763,
      "Ġbireylerin": 4764,
      "ĠÃ§evir": 4765,
      "ĠAkÄ±llÄ±": 4766,
      "ĠsayfasÄ±": 4767,
      "Ġsilah": 4768,
      "Ġkolek": 4769,
      "dÃ¼ÄŁÃ¼": 4770,
      "Ġipucu": 4771,
      "oft": 4772,
      "heads": 4773,
      "steps": 4774,
      "ĠTasarÄ±m": 4775,
      "|>\",": 4776,
      "ĠuluslararasÄ±": 4777,
      "ĠmolekÃ¼l": 4778,
      ");": 4779,
      "80": 4780,
      "Model": 4781,
      "QL": 4782,
      "VID": 4783,
      "acÄ±": 4784,
      "her": 4785,
      "kwargs": 4786,
      "eks": 4787,
      "ikler": 4788,
      "Ġalarak": 4789,
      "Ġpencer": 4790,
      "iyim": 4791,
      "ametr": 4792,
      "ĠDem": 4793,
      "ĠMey": 4794,
      "ĠGÃ¶z": 4795,
      "Ġalmaya": 4796,
      "ĠYaÄŁ": 4797,
      "ĠEx": 4798,
      "ĠbaÅŁken": 4799,
      "ĠormanÄ±n": 4800,
      "ilmesine": 4801,
      "Ġkurma": 4802,
      "Ġmetnin": 4803,
      "Ġisteyen": 4804,
      "ÄŁÄ±nÄ±z": 4805,
      "string": 4806,
      "Ġetmelerine": 4807,
      "Ġplanlama": 4808,
      "ĠQP": 4809,
      "Ġmanuel": 4810,
      "Ġsenedi": 4811,
      "Ġgelecekteki": 4812,
      "muÅŁtu": 4813,
      "Ġincelem": 4814,
      "Ġmaruz": 4815,
      "ĠÄ±sÄ±nma": 4816,
      "ĠiÃ§eriÄŁi": 4817,
      "ndex": 4818,
      "Ġmotoru": 4819,
      "ĠÃ§aÄŁrÄ±": 4820,
      "ĠHikaye": 4821,
      "Ġlogo": 4822,
      "Ġhipotez": 4823,
      "75": 4824,
      "do": 4825,
      "dÃ¼k": 4826,
      "rin": 4827,
      "uya": 4828,
      "Ġeb": 4829,
      "error": 4830,
      "ilki": 4831,
      "Ġvitam": 4832,
      "Ġdataset": 4833,
      "onlar": 4834,
      "Ä±lmak": 4835,
      "ĠMut": 4836,
      "aban": 4837,
      "Ġverg": 4838,
      "Ġvergi": 4839,
      "ĠinÃ§": 4840,
      "ĠHizmet": 4841,
      "Ġ24": 4842,
      "lemeyi": 4843,
      "ĠCon": 4844,
      "Ġgenetik": 4845,
      "Ġsona": 4846,
      "tere": 4847,
      "Ġgereksinim": 4848,
      "ĠLÃ¼tfen": 4849,
      "Ġuygulamak": 4850,
      "ĠyarattÄ±": 4851,
      "Ġsunan": 4852,
      "heit": 4853,
      "logits": 4854,
      "ĠHerhangi": 4855,
      "ĠÃ§ekir": 4856,
      "Ġresult": 4857,
      "ĠodaklÄ±": 4858,
      "Ġduygus": 4859,
      "Ġrenkli": 4860,
      "Ġseviyelerini": 4861,
      "ĠperformansÄ±": 4862,
      "Ġcihazlar": 4863,
      "Ġormanda": 4864,
      "ĠgÃ¶kyÃ¼zÃ¼nde": 4865,
      "ĠmÃ¼ÅŁterileri": 4866,
      "ĠbÃ¼tÃ§": 4867,
      "Ġfiltr": 4868,
      "ĠSaygÄ±": 4869,
      "Config": 4870,
      "ĠTeknolojinin": 4871,
      "Ġslogan": 4872,
      "ĠMaÄŁaz": 4873,
      "ahrenheit": 4874,
      "('": 4875,
      "ela": 4876,
      "history": 4877,
      "mÄ±": 4878,
      "now": 4879,
      "erken": 4880,
      "anÄ±z": 4881,
      "ĠvÃ¼cut": 4882,
      "Ä±rlar": 4883,
      "emey": 4884,
      "ĠolmanÄ±n": 4885,
      "ĠÃ§ub": 4886,
      "ĠSen": 4887,
      "ĠKÄ±s": 4888,
      "ĠDur": 4889,
      "dÄ±ÄŁÄ±nda": 4890,
      "iÄŁin": 4891,
      "ĠoluÅŁturmaya": 4892,
      "ĠgeliÅŁim": 4893,
      "Ġorij": 4894,
      "Ġ500": 4895,
      "Ä±ydÄ±": 4896,
      "Ġekran": 4897,
      "Ġkalma": 4898,
      "ĠRes": 4899,
      "lÃ¼t": 4900,
      "ĠyaÅŁlÄ±": 4901,
      "Ġistik": 4902,
      "ĠÃ¼Ã§Ã¼ncÃ¼": 4903,
      "Ġerken": 4904,
      "ĠhÄ±zlÄ±ca": 4905,
      "Ġolursa": 4906,
      "ĠtutarlÄ±": 4907,
      "ĠbasÄ±n": 4908,
      "split": 4909,
      "ĠsÃ¼recidir": 4910,
      "Ġtopluluk": 4911,
      "ĠdeÄŁiÅŁiklikler": 4912,
      "pati": 4913,
      "ĠzekanÄ±n": 4914,
      "ĠÅŁimdi": 4915,
      "ĠMobil": 4916,
      "ĠtanÄ±yan": 4917,
      "ĠKendi": 4918,
      "Ġteklif": 4919,
      "ĠJuli": 4920,
      "The": 4921,
      "].": 4922,
      "col": 4923,
      "core": 4924,
      "sÄ±nda": 4925,
      "Ġ@": 4926,
      "Ġback": 4927,
      "anÄ±ÅŁ": 4928,
      "ilya": 4929,
      "ĠkÄ±yÄ±": 4930,
      "Ġbirine": 4931,
      "Ä±rken": 4932,
      "Ġalabil": 4933,
      "ĠÃ¶t": 4934,
      "Ġmev": 4935,
      "ĠolmuÅŁtur": 4936,
      "Ġfit": 4937,
      "ado": 4938,
      "ĠyapÄ±lÄ±r": 4939,
      "ĠalgÄ±": 4940,
      "ĠHem": 4941,
      "ĠyarÄ±": 4942,
      "lendi": 4943,
      "ĠkarÅŁÄ±lÄ±k": 4944,
      "ĠuygulayÄ±n": 4945,
      "ĠdoÄŁum": 4946,
      "Ġmakalenin": 4947,
      "ĠÃ§Ä±ktÄ±sÄ±": 4948,
      "quenc": 4949,
      "labalÄ±k": 4950,
      "Ġmutl": 4951,
      "Ġnesnenin": 4952,
      "Ġproblemi": 4953,
      "dÄ±ÄŁÄ±nÄ±z": 4954,
      "Ġkasaba": 4955,
      "ĠtoplamÄ±nÄ±": 4956,
      "Ġkahve": 4957,
      "ĠayrÄ±ntÄ±": 4958,
      "Ġhissetti": 4959,
      "ĠkayÄ±p": 4960,
      "ground": 4961,
      "ĠdetaylÄ±": 4962,
      "larÄ±mla": 4963,
      "ĠMilli": 4964,
      "atsby": 4965,
      "Ġorijinal": 4966,
      "iÅŁt": 4967,
      "save": 4968,
      "ende": 4969,
      "ari": 4970,
      "Ġkop": 4971,
      "ĠsaÃ§": 4972,
      "Ġsez": 4973,
      "Ġbirinin": 4974,
      "ĠÅŁÃ¼ph": 4975,
      "Ã¼kle": 4976,
      "Ġrut": 4977,
      "Ġrengi": 4978,
      "ĠDik": 4979,
      "dÄ±lar": 4980,
      "ĠGatsby": 4981,
      "ĠsaÄŁlayabil": 4982,
      "ĠyazÄ±m": 4983,
      "otos": 4984,
      "ĠCelsius": 4985,
      "Ã¼lÃ¼r": 4986,
      "ĠsÃ¼rÃ¼ÅŁ": 4987,
      "Ġinsanlara": 4988,
      "Ġdepr": 4989,
      "Ġkurum": 4990,
      "Ġtoplama": 4991,
      "ĠmÃ¼ÅŁterinin": 4992,
      "Ġuzan": 4993,
      "Ġalanlarda": 4994,
      "ĠyÄ±llÄ±k": 4995,
      "Ġhikayesi": 4996,
      "ĠkÃ¶p": 4997,
      "ĠfÄ±rÄ±n": 4998,
      "ĠfaydasÄ±": 4999,
      "Ġ196": 5000,
      "ĠyÃ¶ntemleri": 5001,
      "ĠcihazlarÄ±": 5002,
      "Ġkahverengi": 5003,
      "ĠverimliliÄŁini": 5004,
      "ĠsabÄ±r": 5005,
      "ĠÅŁunlarÄ±": 5006,
      "ĠparÃ§asÄ±dÄ±r": 5007,
      "ĠÃ¶dÃ¼llendir": 5008,
      "ĠSevgili": 5009,
      "ĠAraÅŁtÄ±r": 5010,
      "Ġsunucu": 5011,
      "ĠGÃ¼Ã§lÃ¼": 5012,
      "Index": 5013,
      "SS": 5014,
      "bit": 5015,
      "part": 5016,
      "âķ": 5017,
      "Ġblok": 5018,
      "Ġsel": 5019,
      "larca": 5020,
      "ĠgazÄ±": 5021,
      "lex": 5022,
      "leÄŁ": 5023,
      "ikola": 5024,
      "ĠBob": 5025,
      "asÃ¶z": 5026,
      "ĠzeytinyaÄŁÄ±": 5027,
      "ĠMes": 5028,
      "Ġyapan": 5029,
      "ĠaldÄ±m": 5030,
      "ĠYemek": 5031,
      "Ġince": 5032,
      "icileri": 5033,
      "ĠCev": 5034,
      "tanÄ±n": 5035,
      "ĠdÃ¶ndÃ¼": 5036,
      "ĠgeliÅŁtirilmesi": 5037,
      "Ġaktar": 5038,
      "ehri": 5039,
      "Ġistiyor": 5040,
      "Ä±lÄ±ÅŁÄ±": 5041,
      "Ġkaynaklar": 5042,
      "ĠÃ§Ã¶zÃ¼n": 5043,
      "ĠdeÄŁiÅŁen": 5044,
      "().": 5045,
      "ĠGÃ¼nlÃ¼k": 5046,
      "Ġhesaplamak": 5047,
      "ĠaraÅŁtÄ±rÄ±n": 5048,
      "ĠOrgan": 5049,
      "ĠkirliliÄŁini": 5050,
      "ĠyeteneÄŁine": 5051,
      "ĠeÅŁittir": 5052,
      "ĠGirdi": 5053,
      "Ġdoktor": 5054,
      "ĠkÄ±v": 5055,
      "ĠÃ§atÄ±ÅŁma": 5056,
      "ĠkuruluÅŁ": 5057,
      "Ġturuncu": 5058,
      "Ġpozisyon": 5059,
      "ĠYÃ¶net": 5060,
      "ĠOtomatik": 5061,
      "Ġdosya": 5062,
      "ROM": 5063,
      "ĠiPhone": 5064,
      "Script": 5065,
      "ault": 5066,
      "cisi": 5067,
      "code": 5068,
      "from": 5069,
      "uma": 5070,
      "viÃ§": 5071,
      "Ġef": 5072,
      "Ã¼lasyon": 5073,
      "Ġsos": 5074,
      "Ġideal": 5075,
      "atus": 5076,
      "ĠAP": 5077,
      "Ġfloat": 5078,
      "Ġ\"\"": 5079,
      "ĠTat": 5080,
      "ĠTÃ¼r": 5081,
      "ĠÃ¶nÃ¼nde": 5082,
      "ĠHÃ¼kÃ¼met": 5083,
      "ilerden": 5084,
      "ĠFiz": 5085,
      "ĠparlÄ±yor": 5086,
      "landÄ±rÄ±cÄ±": 5087,
      "Ġtasla": 5088,
      "Ġonlara": 5089,
      "Ġdurdur": 5090,
      "ĠseÃ§en": 5091,
      "iyeti": 5092,
      "ĠazaltmanÄ±n": 5093,
      "ĠhayatÄ±mÄ±z": 5094,
      "ĠiletiÅŁimi": 5095,
      "Ġbenzeri": 5096,
      "ĠdÃ¼nyada": 5097,
      "Ġtatil": 5098,
      "Ġgezin": 5099,
      "Ġeyalet": 5100,
      "ĠadamÄ±": 5101,
      "ĠparagrafÄ±": 5102,
      "ĠtÃ¼ketici": 5103,
      "Ġbilinen": 5104,
      "Ġeleman": 5105,
      "Ġtraining": 5106,
      "conversations": 5107,
      "Ġbecerilerini": 5108,
      "Ġkayded": 5109,
      "Ġsonsuza": 5110,
      "ĠÅŁiddet": 5111,
      "ĠCOVID": 5112,
      "Ġtablosu": 5113,
      "Ġebeveyn": 5114,
      "Message": 5115,
      "OK": 5116,
      "tiÄŁi": 5117,
      "vir": 5118,
      "yÄ±z": 5119,
      "irv": 5120,
      "aklar": 5121,
      "ĠtÃ¼y": 5122,
      "url": 5123,
      "ĠaÄŁr": 5124,
      "dah": 5125,
      "deÅŁ": 5126,
      "ĠSt": 5127,
      "Ã¼mÃ¼": 5128,
      "ĠzÄ±t": 5129,
      "ĠDav": 5130,
      "ĠyapÄ±sÄ±nÄ±": 5131,
      "ilerle": 5132,
      "ĠiÅŁi": 5133,
      "ĠOt": 5134,
      "ĠayÄ±": 5135,
      "ĠÅŁekli": 5136,
      "ĠFahrenheit": 5137,
      "sanÄ±z": 5138,
      "ĠÅŁekillendir": 5139,
      "ĠÃ§alÄ±ÅŁtÄ±r": 5140,
      "ĠateÅŁte": 5141,
      "Ġyere": 5142,
      "Ġmaksimum": 5143,
      "ĠyaratÄ±r": 5144,
      "ĠalanlarÄ±": 5145,
      "())": 5146,
      "Ġasist": 5147,
      "ĠprogramlarÄ±": 5148,
      "ĠyÃ¶netmek": 5149,
      "Ġtutmak": 5150,
      "ĠQL": 5151,
      "query": 5152,
      "siyonu": 5153,
      "ĠyÃ¼rÃ¼": 5154,
      "memiÅŁ": 5155,
      "ĠyÃ¼kselen": 5156,
      "Ġteknikleri": 5157,
      "Ġelektronik": 5158,
      "Ġverimlilik": 5159,
      "ĠÄ°ngiltere": 5160,
      "ĠettiÄŁi": 5161,
      "ineral": 5162,
      "duÄŁunda": 5163,
      "Ġderecede": 5164,
      "Ġhuzurlu": 5165,
      "ĠmÃ¼hendisliÄŁi": 5166,
      "Ġmadd": 5167,
      "ĠJavaScript": 5168,
      "Ġsandal": 5169,
      "ĠUlusal": 5170,
      "Ġgarip": 5171,
      "Ġsenaryo": 5172,
      "back": 5173,
      "base": 5174,
      "ts": 5175,
      "})": 5176,
      "ðŁ": 5177,
      "Ġ:": 5178,
      "eng": 5179,
      "ansÄ±": 5180,
      "ĠkÄ±ÅŁ": 5181,
      "ĠkÄ±y": 5182,
      "ĠsÄ±nav": 5183,
      "Ġdize": 5184,
      "els": 5185,
      "ĠtÄ±k": 5186,
      "lesi": 5187,
      "attr": 5188,
      "izim": 5189,
      "izden": 5190,
      "Ġmus": 5191,
      "Ġpast": 5192,
      "ĠÃ§oÄŁun": 5193,
      "Ġreh": 5194,
      "ĠBirÃ§ok": 5195,
      "ĠGiz": 5196,
      "ĠGeri": 5197,
      "ĠGerek": 5198,
      "Ã¼ye": 5199,
      "Ã¼yle": 5200,
      "ĠPortakal": 5201,
      "Ġolana": 5202,
      "ĠFinans": 5203,
      "Ġkalb": 5204,
      "Ġ40": 5205,
      "ĠatasÃ¶z": 5206,
      "ĠJack": 5207,
      "ĠÃ§alÄ±ÅŁÄ±yor": 5208,
      "ĠgeliÅŁtirmeye": 5209,
      "ĠkaynaklarÄ±nÄ±n": 5210,
      "Ġadil": 5211,
      "Ġanalitik": 5212,
      "ĠdÃ¼ÅŁÃ¼nme": 5213,
      "ĠfÄ±rtÄ±na": 5214,
      "Ġaltyap": 5215,
      "Ġmotivasyon": 5216,
      "Ġduygusu": 5217,
      "Ġkredi": 5218,
      "Ġrenkler": 5219,
      "Ġbeceri": 5220,
      "Ġdinamik": 5221,
      "Ġfikirler": 5222,
      "ĠaÃ§Ä±klamasÄ±nÄ±": 5223,
      "Ġkutu": 5224,
      "Ġtool": 5225,
      "Ġokuma": 5226,
      "Ġpolitik": 5227,
      "ĠCÃ¼mledeki": 5228,
      "larÄ±mÄ±zÄ±": 5229,
      "Ġmanzar": 5230,
      "Ġmisiniz": 5231,
      "Ġrefah": 5232,
      "ĠÃ§izelgesi": 5233,
      "ĠdirenÃ§": 5234,
      "Ã¶valye": 5235,
      "18": 5236,
      "Mer": 5237,
      "button": 5238,
      "ndeki": 5239,
      "ret": 5240,
      "sw": 5241,
      "uc": 5242,
      "lal": 5243,
      "enler": 5244,
      "ĠkÃ¼p": 5245,
      "Ġyeri": 5246,
      "ÅŁtÄ±k": 5247,
      "ĠSh": 5248,
      "ĠÅŁah": 5249,
      "Ä±lmasÄ±na": 5250,
      "ĠKom": 5251,
      "ĠDevrimi": 5252,
      "Ġdolay": 5253,
      "Ġmaden": 5254,
      "ĠPot": 5255,
      "ĠbuluÅŁ": 5256,
      "ĠFROM": 5257,
      "ĠÃ§Ä±kÄ±ÅŁ": 5258,
      "ĠRe": 5259,
      "inizin": 5260,
      "ĠtasarlanmÄ±ÅŁtÄ±r": 5261,
      "ĠaÄŁlarÄ±": 5262,
      "Ġetmenin": 5263,
      "ĠÃľni": 5264,
      "Ġederken": 5265,
      "ĠÃ§ekmek": 5266,
      "ĠBaÅŁka": 5267,
      "Ã¼yordu": 5268,
      "Ġyoksul": 5269,
      "Ġfilmi": 5270,
      "ĠElektrik": 5271,
      "ategori": 5272,
      "ĠmÃ¼dah": 5273,
      "Ġtavsiy": 5274,
      "dikÃ§e": 5275,
      "ĠÅŁiiri": 5276,
      "ĠnoktalarÄ±nÄ±": 5277,
      "ĠsÃ¼reÃ§tir": 5278,
      "Ġatmosf": 5279,
      "ĠÃ¶zgÃ¼": 5280,
      "ĠgerektiÄŁi": 5281,
      "ĠsÃ¶yledi": 5282,
      "ĠcÃ¼mlelik": 5283,
      "ĠarayÃ¼zÃ¼": 5284,
      "ĠAÅŁk": 5285,
      "Ġprotein": 5286,
      "ĠAlgoritma": 5287,
      "maliz": 5288,
      "OKEN": 5289,
      "dun": 5290,
      "kek": 5291,
      "medi": 5292,
      "pin": 5293,
      "radi": 5294,
      "test": 5295,
      "led": 5296,
      "emeye": 5297,
      "ahÅŁi": 5298,
      "eyerek": 5299,
      "Ã¼rÃ¼st": 5300,
      "Ġarz": 5301,
      "ĠKediler": 5302,
      "Ġ\"<|": 5303,
      "abel": 5304,
      "ĠTw": 5305,
      "ĠTel": 5306,
      "ĠbaÅŁla": 5307,
      "ĠaÃ§Ä±klamak": 5308,
      "ĠFil": 5309,
      "poch": 5310,
      "Ġonay": 5311,
      "ĠAnal": 5312,
      "Ġadr": 5313,
      "Ġaday": 5314,
      "Ġokun": 5315,
      "Ġoksijen": 5316,
      "ĠyetiÅŁ": 5317,
      "ĠkullanÄ±cÄ±lar": 5318,
      "ĠeÄŁitimi": 5319,
      "ĠbarÄ±ÅŁ": 5320,
      "Ġbardak": 5321,
      "Ġoyna": 5322,
      "ĠKarÅŁÄ±": 5323,
      "Ġtesli": 5324,
      "ĠolasÄ±lÄ±ÄŁÄ±": 5325,
      "pektif": 5326,
      "Ġtavuk": 5327,
      "Ġproblemleri": 5328,
      "dikleri": 5329,
      "ĠtoplamÄ±": 5330,
      "ĠavantajÄ±": 5331,
      "Ġstil": 5332,
      "ĠgerektiÄŁinde": 5333,
      "sure": 5334,
      "Ġbilinir": 5335,
      "Ġaktivite": 5336,
      "ĠmÃ¼cadel": 5337,
      "Ġseg": 5338,
      "Ġveritaban": 5339,
      "Ġtedavi": 5340,
      "ĠÃ¶nceliklendir": 5341,
      "ĠÃ¶zgÃ¼rlÃ¼k": 5342,
      "instance": 5343,
      "Ġquery": 5344,
      "Ġprensip": 5345,
      "Ġpeynir": 5346,
      "Ġkarakteri": 5347,
      "ĠuyandÄ±r": 5348,
      "ĠtÃ¼ketimini": 5349,
      "ĠÄ°spanyol": 5350,
      "ĠYaratÄ±cÄ±": 5351,
      "lÃ¼tfen": 5352,
      "Ġbackground": 5353,
      "aik": 5354,
      "dÃ¼m": 5355,
      "date": 5356,
      "ocu": 5357,
      "ron": 5358,
      "tÄ±m": 5359,
      "taÅŁ": 5360,
      "ardÄ±": 5361,
      "ĠsÃ¼z": 5362,
      "esÃ¶r": 5363,
      "Ġmineral": 5364,
      "ĠÃ§erÃ§ev": 5365,
      "oll": 5366,
      "ader": 5367,
      "ĠDon": 5368,
      "ĠDÃ¶rt": 5369,
      "Ġencod": 5370,
      "ĠYaban": 5371,
      "ĠHaf": 5372,
      "ayÄ±cÄ±": 5373,
      "ush": 5374,
      "lob": 5375,
      "ĠgeÃ§mek": 5376,
      "diÄŁiniz": 5377,
      "ĠtÃ¼rlerin": 5378,
      "Ġseviyor": 5379,
      "ĠsayÄ±da": 5380,
      "ĠyÄ±ldÄ±r": 5381,
      "Ġadalet": 5382,
      "Ġasal": 5383,
      "ĠkÃ¶ÅŁ": 5384,
      "liydi": 5385,
      ".\"\"\"": 5386,
      "ĠYapÄ±lÄ±ÅŁÄ±": 5387,
      "ĠÃ¶ÄŁeyi": 5388,
      "Ġserbest": 5389,
      "ĠÃ¼lkeler": 5390,
      "ĠsÄ±ralama": 5391,
      "Ġhemen": 5392,
      "special": 5393,
      "Ġkirlet": 5394,
      "ĠgÃ¼zelliÄŁi": 5395,
      "Ġenerjinin": 5396,
      "Ġyoludur": 5397,
      "uluÄŁunu": 5398,
      "ĠsÄ±caklÄ±klar": 5399,
      "Ġbahar": 5400,
      "paramet": 5401,
      "BoxLayout": 5402,
      "weight": 5403,
      "ĠTemel": 5404,
      "Ġbiyolojik": 5405,
      "ĠilaÃ§": 5406,
      "ĠdÃ¼zeltin": 5407,
      "ĠmuhteÅŁem": 5408,
      "Ġsorumludur": 5409,
      "ĠfarkÄ±ndalÄ±k": 5410,
      "ĠmantÄ±k": 5411,
      "Ġrastgele": 5412,
      "ĠÃ¶nyargÄ±": 5413,
      "Ġistikrar": 5414,
      ".)": 5415,
      "bahar": 5416,
      "diniz": 5417,
      "download": 5418,
      "erler": 5419,
      "Ġbunu": 5420,
      "Ġbizi": 5421,
      "Ġdedi": 5422,
      "Ġhe": 5423,
      "ĠBur": 5424,
      "ĠAÅŁaÄŁÄ±": 5425,
      "deÄŁ": 5426,
      "Ä±lmalÄ±dÄ±r": 5427,
      "ĠKo": 5428,
      "ĠKab": 5429,
      "ĠgÃ¶v": 5430,
      "mekte": 5431,
      "Ġkariyer": 5432,
      "tren": 5433,
      "masÄ±z": 5434,
      "ĠgÃ¼nÃ¼n": 5435,
      "ezer": 5436,
      "ĠAynÄ±": 5437,
      "Ġattention": 5438,
      "chunk": 5439,
      "ĠÃ¼zgÃ¼n": 5440,
      "Ġolabilirler": 5441,
      "ĠkiÅŁiyi": 5442,
      "Ġsistemler": 5443,
      "ĠdÃ¼zenleme": 5444,
      "Ġizley": 5445,
      "Ġaramak": 5446,
      "dÃ¼rÃ¼lebilir": 5447,
      "ĠkapÄ±": 5448,
      "ĠÃ¼retimi": 5449,
      "ĠkullanÄ±cÄ±lara": 5450,
      "Ġbilgisayarlar": 5451,
      "ĠamacÄ±nÄ±": 5452,
      "ĠBaÅŁkan": 5453,
      "Ġverilere": 5454,
      "ĠihtiyaÃ§larÄ±na": 5455,
      "ĠyÃ¶ntemi": 5456,
      "ĠinanÃ§": 5457,
      "valtÄ±": 5458,
      "Ġ**": 5459,
      "ĠsÃ¼reÃ§leri": 5460,
      "ĠhatalarÄ±": 5461,
      "Ġkuantum": 5462,
      "Ġpiyasa": 5463,
      "Ġkeyifli": 5464,
      "Ġayakk": 5465,
      "ĠeÄŁlence": 5466,
      "ĠdÃ¶ngÃ¼": 5467,
      "ĠYerel": 5468,
      "elsef": 5469,
      "40": 5470,
      "aw": 5471,
      "yayÄ±": 5472,
      "Ġĉ": 5473,
      "Ġlan": 5474,
      "Ġbuna": 5475,
      "Ã§ap": 5476,
      "ileÅŁ": 5477,
      "ĠkÃ¼r": 5478,
      "eld": 5479,
      "lardaki": 5480,
      "Ġyuvar": 5481,
      "Ġgurur": 5482,
      "ated": 5483,
      "olum": 5484,
      "ĠSebz": 5485,
      "Ġettik": 5486,
      "azi": 5487,
      "Ġensure": 5488,
      "ĠolacaÄŁÄ±nÄ±": 5489,
      "cept": 5490,
      "Ġekstra": 5491,
      "masÄ±dÄ±r": 5492,
      "ĠÃ§alÄ±": 5493,
      "ukarÄ±": 5494,
      "Ġkoyun": 5495,
      "ĠkoÅŁtu": 5496,
      "Ġkelimeyle": 5497,
      "ĠtoplayÄ±n": 5498,
      "ĠJo": 5499,
      "ĠLos": 5500,
      "ĠÃĸd": 5501,
      "ĠÃĸl": 5502,
      "ĠtÃ¼rlerini": 5503,
      "act": 5504,
      "ĠkiÅŁilik": 5505,
      "Ġkoruy": 5506,
      "Ġstresi": 5507,
      "Ġwh": 5508,
      "Ġask": 5509,
      "ĠihtiyacÄ±": 5510,
      "ĠÃ¶ÄŁelerin": 5511,
      "artma": 5512,
      "ĠfaydasÄ±nÄ±": 5513,
      "ĠÃ§Ã¶zÃ¼mÃ¼": 5514,
      "uhaf": 5515,
      "Ġdesteklemek": 5516,
      "ĠBenz": 5517,
      "manÄ±zÄ±": 5518,
      "ĠaÃ§Ä±klamasÄ±": 5519,
      "ĠsaÄŁlamaya": 5520,
      "Ġfont": 5521,
      "Ġgereklidir": 5522,
      "ĠEtkili": 5523,
      "Ġbatch": 5524,
      "ĠkatÄ±lmak": 5525,
      "Ġkampanya": 5526,
      "acaÄŁÄ±m": 5527,
      "Ġtaleb": 5528,
      "Ġkamu": 5529,
      "ĠPlastik": 5530,
      "ĠÃ¼niversit": 5531,
      "ĠHerkes": 5532,
      "ikolata": 5533,
      "\"],": 5534,
      "Qt": 5535,
      "Str": 5536,
      "cli": 5537,
      "mede": 5538,
      "word": 5539,
      "yÄ±m": 5540,
      "ĠlÃ¼tfen": 5541,
      "Ã¼b": 5542,
      "ÄŁÄ±mÄ±z": 5543,
      "ĠsÄ±z": 5544,
      "Ġsiber": 5545,
      "etler": 5546,
      "etleri": 5547,
      "akende": 5548,
      "Ġht": 5549,
      "Ġhan": 5550,
      "aten": 5551,
      "imde": 5552,
      "Ġmon": 5553,
      "bilen": 5554,
      "sta": 5555,
      "ster": 5556,
      "Ġare": 5557,
      "ĠSes": 5558,
      "ĠÅŁiÅŁ": 5559,
      "ĠYanlÄ±ÅŁ": 5560,
      "ĠYÄ±ldÄ±z": 5561,
      "ĠEd": 5562,
      "ĠEy": 5563,
      "ĠaÃ§Ä±lÄ±": 5564,
      "ĠiÅŁler": 5565,
      "ĠÃ§Ä±kan": 5566,
      "Ġkelimelerin": 5567,
      "Ġbilgiye": 5568,
      "Ġtasvir": 5569,
      "ĠulaÅŁtÄ±": 5570,
      "ĠAngel": 5571,
      "Ġkonuyu": 5572,
      "Ġkaynaklanan": 5573,
      "Ġilgilen": 5574,
      "tensor": 5575,
      "ĠÅŁeyleri": 5576,
      "Ġasit": 5577,
      "ĠAraÃ§": 5578,
      "Ġtutum": 5579,
      "otansiyel": 5580,
      "ebileceÄŁi": 5581,
      "ĠoyunlarÄ±": 5582,
      "ĠaltÄ±ndaki": 5583,
      "ĠarkadaÅŁlar": 5584,
      "ĠdesteÄŁi": 5585,
      "ĠEkonom": 5586,
      "Ġmaliyetini": 5587,
      "Ġotob": 5588,
      "Ġdizisi": 5589,
      "ĠÃ¶lÃ§mek": 5590,
      "Ġekonomi": 5591,
      "ĠÃ¶dem": 5592,
      "Ġderinlik": 5593,
      "ĠkÃ¼ltÃ¼rel": 5594,
      "Ġrobotik": 5595,
      "Ġdondur": 5596,
      "ĠÄ±sÄ±nmanÄ±n": 5597,
      "ĠkalabalÄ±k": 5598,
      "ĠSELE": 5599,
      "ĠTablo": 5600,
      "ĠaydÄ±nlat": 5601,
      "Ġperson": 5602,
      "ĠTakÄ±m": 5603,
      "Ġmektup": 5604,
      "Merhaba": 5605,
      "ĠPotter": 5606,
      "ĠAngeles": 5607,
      "ĠSELECT": 5608,
      ".\")": 5609,
      "amaya": 5610,
      "ges": 5611,
      "geler": 5612,
      "lav": 5613,
      "ÅŁan": 5614,
      "main": 5615,
      "Ġtoh": 5616,
      "ayi": 5617,
      "Ä±rp": 5618,
      "ĠiÃ§ecek": 5619,
      "Ġmen": 5620,
      "ĠAlex": 5621,
      "Ã¼rÃ¼z": 5622,
      "ĠnÃ¶r": 5623,
      "larÄ±dÄ±r": 5624,
      "ĠDuy": 5625,
      "cÄ±larÄ±n": 5626,
      "ĠoluÅŁturmayÄ±": 5627,
      "ĠTes": 5628,
      "Ġ21": 5629,
      "Ġ22": 5630,
      "ĠÄ°sim": 5631,
      "ĠgÃ¶rmek": 5632,
      "ĠuyarÄ±": 5633,
      "Ġbellek": 5634,
      "ebilirsiniz": 5635,
      "Ġparti": 5636,
      "masÄ±nda": 5637,
      "lamb": 5638,
      "ĠfarkÄ±nda": 5639,
      "ĠinsanÄ±n": 5640,
      "Ġkelimesini": 5641,
      "Ä±yoruz": 5642,
      "Ġistat": 5643,
      "Ġalanda": 5644,
      "ĠkatÄ±": 5645,
      "ĠkatkÄ±": 5646,
      "ĠgerÃ§ekÃ§i": 5647,
      "ĠIf": 5648,
      "ĠgÃ¶stermektedir": 5649,
      "ĠbaktÄ±": 5650,
      "Ġdurumunu": 5651,
      "ĠÃ¶ÄŁeler": 5652,
      "Ġsert": 5653,
      "Ġpotansiyeli": 5654,
      "ĠdeÄŁiÅŁtirdi": 5655,
      "ĠÃ¶zetleyen": 5656,
      "ĠkontrolÃ¼": 5657,
      "ĠadÄ±mlar": 5658,
      "ference": 5659,
      "Ġsave": 5660,
      "ĠProf": 5661,
      "Ġkasede": 5662,
      "dÄ±klarÄ±": 5663,
      "Ġstratejileri": 5664,
      "ĠÃ§izg": 5665,
      "Ġtarifi": 5666,
      "Ġtekrarlayan": 5667,
      "ĠHarry": 5668,
      "ĠÃĩevre": 5669,
      "Ġids": 5670,
      "Ġyetenekleri": 5671,
      "Ġmakinelerin": 5672,
      "progress": 5673,
      "ĠÃĩalÄ±ÅŁma": 5674,
      "ĠdevrimleÅŁtir": 5675,
      "Ġgrub": 5676,
      "ĠatÄ±f": 5677,
      "ĠbiÃ§im": 5678,
      "ĠkÃ¼tÃ¼phan": 5679,
      "Ġtrafik": 5680,
      "eksika": 5681,
      "Ad": 5682,
      "cis": 5683,
      "fun": 5684,
      "json": 5685,
      "nect": 5686,
      "ula": 5687,
      "yn": 5688,
      "iran": 5689,
      "entez": 5690,
      "arch": 5691,
      "Ġvalue": 5692,
      "Ã¶tr": 5693,
      "Ġtotal": 5694,
      "Ġhac": 5695,
      "unÃ§": 5696,
      "ikal": 5697,
      "land": 5698,
      "ĠBay": 5699,
      "ĠBÃ¶l": 5700,
      "ĠiÃ§inden": 5701,
      "ĠolmasÄ±nÄ±": 5702,
      "isim": 5703,
      "ever": 5704,
      "ĠSin": 5705,
      "ĠSab": 5706,
      "ĠgÃ¶Ã§": 5707,
      "ĠgÃ¶tÃ¼r": 5708,
      "Ġzirv": 5709,
      "ĠBirkaÃ§": 5710,
      "Ġileri": 5711,
      "ĠMuh": 5712,
      "lamaz": 5713,
      "abase": 5714,
      "ĠTr": 5715,
      "ĠTuz": 5716,
      "ĠHav": 5717,
      "ĠbilinÃ§li": 5718,
      "ote": 5719,
      "ĠPazar": 5720,
      "Ġetkiler": 5721,
      "ometr": 5722,
      "Ġazalan": 5723,
      "ĠNeden": 5724,
      "ĠhayÄ±r": 5725,
      "letiÅŁim": 5726,
      "ĠÃ§alÄ±ÅŁmasÄ±": 5727,
      "ĠLo": 5728,
      "metadata": 5729,
      "Ġmetre": 5730,
      "ĠkaynaklÄ±": 5731,
      "ĠazaltÄ±n": 5732,
      "ĠhayatÄ±nÄ±": 5733,
      "Ġhikayeler": 5734,
      "ĠgÃ¶rÃ¼nÃ¼m": 5735,
      "ĠÃ¶ÄŁle": 5736,
      "ĠtemasÄ±": 5737,
      "ĠarkadaÅŁlÄ±k": 5738,
      "Ġkendinizi": 5739,
      "ĠÅŁirketler": 5740,
      "lable": 5741,
      "Ġmeslek": 5742,
      "dÄ±ktan": 5743,
      "ĠhastalÄ±ÄŁÄ±": 5744,
      "Ġyasal": 5745,
      "Ġdalg": 5746,
      "Ġyiyecekler": 5747,
      "ĠParis": 5748,
      "Ġpiyasaya": 5749,
      "Ġbeslenme": 5750,
      "ĠnÃ¼fusu": 5751,
      "ĠyakÄ±tlarÄ±n": 5752,
      "ĠtanÄ±tmak": 5753,
      "ĠÃ§alÄ±ÅŁtÄ±ÄŁÄ±nÄ±": 5754,
      "Ġmuhtem": 5755,
      "ĠÃ¶lÃ§eklenebilir": 5756,
      "Ġkombinasyon": 5757,
      "tokol": 5758,
      "otosentez": 5759,
      "aiku": 5760,
      "200": 5761,
      "33": 5762,
      "84": 5763,
      "can": 5764,
      "dÃ¶rt": 5765,
      "fek": 5766,
      "lum": 5767,
      "samples": 5768,
      "Ġ____": 5769,
      "Ã¼len": 5770,
      "ene": 5771,
      "Ġkans": 5772,
      "Ġsh": 5773,
      "Ġsil": 5774,
      "mayÄ±n": 5775,
      "Ġidi": 5776,
      "aklarÄ±": 5777,
      "atlarÄ±": 5778,
      "imin": 5779,
      "Ġailen": 5780,
      "ĠiÃ§ine": 5781,
      "asÄ±yla": 5782,
      "Ġmim": 5783,
      "Ġfutbol": 5784,
      "ĠSi": 5785,
      "ĠKas": 5786,
      "Ġ\"\")": 5787,
      "ĠDÄ±ÅŁ": 5788,
      "ĠDijital": 5789,
      "uto": 5790,
      "ĠBirliÄŁi": 5791,
      "ĠMeksika": 5792,
      "meo": 5793,
      "eleriyle": 5794,
      "Ġyazma": 5795,
      "ĠyazÄ±lan": 5796,
      "Ġbelirtir": 5797,
      "usunu": 5798,
      "omm": 5799,
      "ilmesini": 5800,
      "ĠkalÄ±cÄ±": 5801,
      "Ġvarsa": 5802,
      "ĠRob": 5803,
      "raw": 5804,
      "Ġkelimesi": 5805,
      "ĠhÄ±zÄ±": 5806,
      "ĠÃ¼Ã§gen": 5807,
      "Ġsunabilir": 5808,
      "Ġokuyucu": 5809,
      "Ġhedeflerine": 5810,
      "uple": 5811,
      "ĠyapÄ±lacak": 5812,
      "lÄ±ÄŁÄ±nÄ±n": 5813,
      "Ġkorumaya": 5814,
      "Ġbekliyor": 5815,
      "ĠÃ¶rneÄŁidir": 5816,
      "ĠkazandÄ±": 5817,
      "Ġkasab": 5818,
      "ĠtamsayÄ±": 5819,
      "ĠyolculuÄŁu": 5820,
      "ĠÃ¶nceki": 5821,
      "Ġstudent": 5822,
      "ĠdÃ¼nyaya": 5823,
      "ĠtaÅŁÄ±n": 5824,
      "Ġgelecekte": 5825,
      "Ġbeklent": 5826,
      "Ġsabit": 5827,
      "ĠSavaÅŁ": 5828,
      "Ġdokun": 5829,
      "ĠÃ§alÄ±ÅŁÄ±rken": 5830,
      "Ġbenims": 5831,
      "ĠcÃ¼mleleri": 5832,
      "ĠihtiyacÄ±nÄ±z": 5833,
      "Ġkesinlikle": 5834,
      "Ġperspektif": 5835,
      "ĠneÅŁeli": 5836,
      "nettar": 5837,
      "ĠmanipÃ¼le": 5838,
      "ĠEski": 5839,
      "ĠYaÄŁmur": 5840,
      "ĠKÄ±sa": 5841,
      "ĠAPI": 5842,
      "Ġteslimat": 5843,
      "An": 5844,
      "bot": 5845,
      "nik": 5846,
      "red": 5847,
      "uÄŁ": 5848,
      "vil": 5849,
      "Ġber": 5850,
      "Ġkala": 5851,
      "ĠdÃ¼rÃ¼st": 5852,
      "ell": 5853,
      "Ġhidden": 5854,
      "asasÄ±": 5855,
      "ĠÃ§Ä±": 5856,
      "iski": 5857,
      "Ã¼zellik": 5858,
      "util": 5859,
      "Ġedeb": 5860,
      "ĠYet": 5861,
      "ĠYun": 5862,
      "ĠÄ°letiÅŁim": 5863,
      "ĠgeldiÄŁini": 5864,
      "ĠaÃ§ar": 5865,
      "ĠPotansiyel": 5866,
      "lemeye": 5867,
      "Ġzamanla": 5868,
      "ĠsÃ¼rÃ¼cÃ¼": 5869,
      "Ġparlayan": 5870,
      "ĠyollarÄ±": 5871,
      "Ġdenetim": 5872,
      "Ã¶rler": 5873,
      "lock": 5874,
      "letler": 5875,
      "ĠgÃ¼vende": 5876,
      "ketbol": 5877,
      "Ġokuyun": 5878,
      "Ġortadan": 5879,
      "connect": 5880,
      "Ġisinstance": 5881,
      "Ġteknolojik": 5882,
      "Ġdeneyimler": 5883,
      "ĠkullanÄ±mlÄ±k": 5884,
      "Ġsorular": 5885,
      "ĠarkadaÅŁlarÄ±": 5886,
      "Ġsesle": 5887,
      "ĠKaranlÄ±k": 5888,
      "Ġmola": 5889,
      "ĠkÄ±rsal": 5890,
      "Ġdoludur": 5891,
      "ĠÃ¶ÄŁrenciler": 5892,
      "ĠÃ¶ÄŁrencilere": 5893,
      "trainer": 5894,
      "Ġkomik": 5895,
      "Ġhabit": 5896,
      "Ġkalitesini": 5897,
      "ĠayrÄ±m": 5898,
      "Ġhissettir": 5899,
      "ĠdeÄŁiÅŁiklikleri": 5900,
      "ĠseÃ§enekleri": 5901,
      "ĠÅŁifre": 5902,
      "Ġadapt": 5903,
      "ĠdezavantajlarÄ±": 5904,
      "Ġtersine": 5905,
      "Ġsorumluluk": 5906,
      "ĠbarÄ±ndÄ±r": 5907,
      "ĠHaziran": 5908,
      "ondra": 5909,
      "embeddings": 5910,
      "ĠÄ°talyan": 5911,
      "ĠJuliet": 5912,
      "ĠatÄ±fta": 5913,
      "kel": 5914,
      "msg": 5915,
      "ood": 5916,
      "ray": 5917,
      "ues": 5918,
      "uÄŁu": 5919,
      "âĸ": 5920,
      "ert": 5921,
      "ire": 5922,
      "ill": 5923,
      "Ġvan": 5924,
      "Ġseni": 5925,
      "mayan": 5926,
      "Ġdat": 5927,
      "ĠdiÄŁ": 5928,
      "Ġdevr": 5929,
      "Ġicat": 5930,
      "Ġtuhaf": 5931,
      "ikleri": 5932,
      "lanÄ±yor": 5933,
      "ĠÃ§ocu": 5934,
      "iyiz": 5935,
      "iÅŁsel": 5936,
      "stem": 5937,
      "evizyon": 5938,
      "ĠgÃ¶k": 5939,
      "Ġyaparken": 5940,
      "ĠÃ¶ne": 5941,
      "row": 5942,
      "ĠÄ°s": 5943,
      "ĠiÅŁÃ§": 5944,
      "ception": 5945,
      "ĠÃ¶nemi": 5946,
      "chat": 5947,
      "ĠgeÃ§ti": 5948,
      "acÄ±n": 5949,
      "ĠdÃ¼zenlemek": 5950,
      "ĠgerÃ§": 5951,
      "Ġkonuyla": 5952,
      "ĠsÄ±v": 5953,
      "ĠsÄ±raya": 5954,
      "ĠsÄ±rayla": 5955,
      "ĠÃľlk": 5956,
      "meniz": 5957,
      "lukla": 5958,
      "ĠbilgisayarÄ±n": 5959,
      "Ġdurumunda": 5960,
      "Ġpotansiyeline": 5961,
      "ĠÅŁirketlerin": 5962,
      "ĠyÃ¼rÃ¼rken": 5963,
      "ĠiliÅŁkilendir": 5964,
      "ĠGenÃ§": 5965,
      "ĠÃ¶rnekleri": 5966,
      "ĠDoÄŁanÄ±n": 5967,
      "Ġkalitesi": 5968,
      "ĠnoktalarÄ±": 5969,
      "Ġoynama": 5970,
      "ĠKÃ¶prÃ¼": 5971,
      "ĠdavranÄ±ÅŁlarÄ±nÄ±": 5972,
      "ĠÅŁehirde": 5973,
      "Ġbeslen": 5974,
      "ĠdonanÄ±m": 5975,
      "Ġfaaliyetleri": 5976,
      "ĠunsurlarÄ±": 5977,
      "Ġlezzet": 5978,
      "Ġesneklik": 5979,
      "ĠdÃ¶kÃ¼n": 5980,
      "Ġcinsiyet": 5981,
      "ĠKayn": 5982,
      "Ġindirimler": 5983,
      "ĠÃĩeÅŁitli": 5984,
      "ĠSaygÄ±larÄ±mla": 5985,
      "Ġmevsim": 5986,
      "Ch": 5987,
      "ix": 5988,
      "ris": 5989,
      "widget": 5990,
      "ino": 5991,
      "anan": 5992,
      "Ġvir": 5993,
      "Ġsk": 5994,
      "ĠyoÄŁ": 5995,
      "ĠĠĠĠĊ": 5996,
      "Ġthat": 5997,
      "alya": 5998,
      "urken": 5999,
      "ĠBasit": 6000,
      "ull": 6001,
      "izza": 6002,
      "Ã¼ntÃ¼": 6003,
      "Ġfes": 6004,
      "Ġarayan": 6005,
      "ĠSe": 6006,
      "ĠSal": 6007,
      "ĠÅŁÃ¶valye": 6008,
      "ĠKam": 6009,
      "Ġzaten": 6010,
      "ĠDal": 6011,
      "ĠDah": 6012,
      "ĠDNA": 6013,
      "Ġantren": 6014,
      "ĠMÃ¼": 6015,
      "Ġedecek": 6016,
      "ĠalÄ±m": 6017,
      "ĠTom": 6018,
      "ĠHam": 6019,
      "Ġbiliyordu": 6020,
      "ĠsaÄŁlayacak": 6021,
      "ĠCal": 6022,
      "liÄŁinde": 6023,
      "ĠÃ¶ÄŁrenmenin": 6024,
      "Ġyollar": 6025,
      "ĠhaklarÄ±": 6026,
      "Ġnedenini": 6027,
      "Ġbulunabilir": 6028,
      "grad": 6029,
      "ĠattÄ±": 6030,
      "ĠÃĸÄŁret": 6031,
      "ĠonlarÄ±n": 6032,
      "ĠsayÄ±sal": 6033,
      "Ä±sÄ±t": 6034,
      "menize": 6035,
      "ĠbaskÄ±": 6036,
      "ĠaÅŁa": 6037,
      "ĠKarar": 6038,
      "Ġmoda": 6039,
      "oga": 6040,
      "Ġkriter": 6041,
      "ĠkirliliÄŁ": 6042,
      "ĠtÃ¼ken": 6043,
      "Ġgizlilik": 6044,
      "Ġnesneleri": 6045,
      "ĠgÃ¼zelliÄŁini": 6046,
      "ĠfiyatÄ±": 6047,
      "ĠfÄ±rsatlar": 6048,
      "Ġkategoriye": 6049,
      "ĠDeney": 6050,
      "ĠolaylarÄ±": 6051,
      "Ġettim": 6052,
      "ĠfaktÃ¶rler": 6053,
      "ĠmesajÄ±": 6054,
      "Ġatmosfere": 6055,
      "embe": 6056,
      "Ġreak": 6057,
      "ĠkampanyasÄ±": 6058,
      "ound": 6059,
      "ĠkullanÄ±lmaktadÄ±r": 6060,
      "lower": 6061,
      "ĠbÃ¼yÃ¼leyici": 6062,
      "ĠdÃ¼ÅŁÃ¼nÃ¼yorum": 6063,
      "ĠÄ±ÅŁÄ±n": 6064,
      "Ġnitelik": 6065,
      "ĠÃ§oÄŁu": 6066,
      "Ġlimon": 6067,
      "ĠtÄ±rman": 6068,
      "ĠÃľniversit": 6069,
      "ĠElektrikli": 6070,
      "ushButton": 6071,
      "âĸģ": 6072,
      "([": 6073,
      "14": 6074,
      "29": 6075,
      "cal": 6076,
      "gÃ¼": 6077,
      "pter": 6078,
      "sistant": 6079,
      "veri": 6080,
      "Ã¼ya": 6081,
      "enn": 6082,
      "ilmez": 6083,
      "ĠkÄ±t": 6084,
      "Ġsens": 6085,
      "Ġdar": 6086,
      "Ġyedi": 6087,
      "learning": 6088,
      "Ġhang": 6089,
      "imler": 6090,
      "aseb": 6091,
      "Ã¼ndeki": 6092,
      "Ġpsik": 6093,
      "ĠAlÄ±": 6094,
      "bileceÄŁi": 6095,
      "start": 6096,
      "ĠaradÄ±": 6097,
      "evi": 6098,
      "ĠKan": 6099,
      "adÄ±k": 6100,
      "ĠMavi": 6101,
      "uzu": 6102,
      "Ä°sim": 6103,
      "Ġ23": 6104,
      "try": 6105,
      "Ġ32": 6106,
      "ĠÃ¶zen": 6107,
      "ĠtanÄ±n": 6108,
      "eliÅŁtir": 6109,
      "ĠFi": 6110,
      "ĠsÃ¼rpr": 6111,
      "ilmiÅŁtir": 6112,
      "Ġkalmaya": 6113,
      "ĠgÃ¼nler": 6114,
      "gresyon": 6115,
      "ĠsahipliÄŁi": 6116,
      "ĠdoÄŁruluÄŁunu": 6117,
      "elerinden": 6118,
      "Ġkurak": 6119,
      "ĠbaÄŁlÄ±dÄ±r": 6120,
      "ĠLa": 6121,
      "ĠyaÅŁÄ±nda": 6122,
      "acy": 6123,
      "ĠyakÄ±ndaki": 6124,
      "ruction": 6125,
      "Ġyaratabilir": 6126,
      "Ġistem": 6127,
      "Ġsevgi": 6128,
      "ĠtasarlanmÄ±ÅŁ": 6129,
      "ĠtanÄ±mÄ±nÄ±": 6130,
      "Ġkaynaklara": 6131,
      "Ġadd": 6132,
      "ĠadlandÄ±r": 6133,
      "ĠgerÃ§eklik": 6134,
      "Ġhikayesini": 6135,
      "okenizer": 6136,
      "Ġevde": 6137,
      "Ġarkada": 6138,
      "ĠÃ§Ä±karma": 6139,
      "ĠÃ§Ä±kardÄ±": 6140,
      "indedir": 6141,
      "Ġdurumlarda": 6142,
      "Ġimkan": 6143,
      "mesidir": 6144,
      "ĠaltÄ±na": 6145,
      "ĠbaÅŁarÄ±sÄ±z": 6146,
      "ĠÃ¶zetini": 6147,
      "ĠMÃ¼ÅŁteriler": 6148,
      "ĠarttÄ±r": 6149,
      "ĠcihazÄ±": 6150,
      "ĠiyileÅŁtirmeye": 6151,
      "Ġifadenin": 6152,
      "Ġmemeli": 6153,
      "tory": 6154,
      "diki": 6155,
      "Ġsinyal": 6156,
      "Ġuzaktan": 6157,
      "ĠkÃ¼ltÃ¼rÃ¼": 6158,
      "Ġrahatlama": 6159,
      "ĠSanat": 6160,
      "ĠhafifÃ§e": 6161,
      "ĠdavranÄ±ÅŁlarÄ±": 6162,
      "elendir": 6163,
      "elenmiÅŁ": 6164,
      "ĠÅŁeklini": 6165,
      "Ġtrain": 6166,
      "Ġmadde": 6167,
      "Ġgrubu": 6168,
      "ĠÃ¶ngÃ¶rÃ¼": 6169,
      "Ġezmesi": 6170,
      "Ġnormal": 6171,
      "Ġnormaliz": 6172,
      "ĠÃ¼cretsiz": 6173,
      "ĠMemnun": 6174,
      "okras": 6175,
      "ĠbÃ¶cek": 6176,
      "Ġzinciri": 6177,
      "Ġyedek": 6178,
      "ĠKiÅŁisel": 6179,
      "ĠYumurta": 6180,
      "ĠQPushButton": 6181,
      "quences": 6182,
      "Ġsezgisel": 6183,
      "ĠCevap": 6184,
      "ĠYunan": 6185,
      "76": 6186,
      "89": 6187,
      "99": 6188,
      "AB": 6189,
      "Code": 6190,
      "Er": 6191,
      "[:": 6192,
      "ein": 6193,
      "eos": 6194,
      "gÃ¼t": 6195,
      "guyu": 6196,
      "tab": 6197,
      "ys": 6198,
      "ystem": 6199,
      "zeme": 6200,
      "incil": 6201,
      "Ġbin": 6202,
      "ilek": 6203,
      "illi": 6204,
      "Ġvaz": 6205,
      "Ġkul": 6206,
      "Ġkum": 6207,
      "ĠkÄ±sÄ±t": 6208,
      "Ġdra": 6209,
      "elem": 6210,
      "ayda": 6211,
      "onav": 6212,
      "esiz": 6213,
      "iminin": 6214,
      "Ġait": 6215,
      "yafet": 6216,
      "isinden": 6217,
      "ĠMÃ¼mkÃ¼n": 6218,
      "ĠGeor": 6219,
      "ĠTah": 6220,
      "ĠTra": 6221,
      "ĠTama": 6222,
      "avig": 6223,
      "avori": 6224,
      "ĠÄ°y": 6225,
      "ĠÄ°z": 6226,
      "ĠEgzersiz": 6227,
      "ĠiÅŁlemek": 6228,
      "ĠyazÄ±yorum": 6229,
      "icisi": 6230,
      "Ġsahipti": 6231,
      "Ġlistedeki": 6232,
      "Ġtopu": 6233,
      "Ġtoplamak": 6234,
      "ĠLondra": 6235,
      "ĠyerleÅŁtir": 6236,
      "Ġtemp": 6237,
      "Ġmetal": 6238,
      "Ġuc": 6239,
      "Ġduydu": 6240,
      "ĠtanÄ±mÄ±": 6241,
      "Ġadet": 6242,
      "ĠĠĠĠĠĠĠĠĠ": 6243,
      "ĠaÄŁacÄ±": 6244,
      "Ġikili": 6245,
      "Ġolurdu": 6246,
      "Ġmodelin": 6247,
      "Ġteknolojiler": 6248,
      "Ġoyunc": 6249,
      "Ġmakalesi": 6250,
      "Ġteacher": 6251,
      "ĠÃ¶zelleÅŁtir": 6252,
      "ĠiÅŁletim": 6253,
      "ĠhayvanÄ±n": 6254,
      "Ä±nÄ±zÄ±n": 6255,
      "ĠMakal": 6256,
      "versite": 6257,
      "Ġgittim": 6258,
      "ĠdayanÄ±r": 6259,
      "Ġkitaplar": 6260,
      "ĠinanÄ±yorum": 6261,
      "ĠendÃ¼stri": 6262,
      "ĠalÄ±ÅŁveriÅŁi": 6263,
      "Ġzorluklarla": 6264,
      "Ġayarlama": 6265,
      "ĠparÃ§alarÄ±": 6266,
      "ĠUygun": 6267,
      "ĠbaÅŁardÄ±": 6268,
      "ĠBelir": 6269,
      "ĠhastalÄ±klarÄ±n": 6270,
      "Ġorganizma": 6271,
      "ĠbÃ¼tÃ¼n": 6272,
      "ĠRomeo": 6273,
      "proj": 6274,
      "ĠAsya": 6275,
      "ĠkararlÄ±ydÄ±": 6276,
      "Ġmarka": 6277,
      "Ġmarket": 6278,
      "ĠaÄŁÄ±rlÄ±k": 6279,
      "Ġminnettar": 6280,
      "ĠYolc": 6281,
      "Ġpozitif": 6282,
      "ĠoldukÃ§a": 6283,
      "ĠHayvanlar": 6284,
      "ĠGÃ¼venlik": 6285,
      "ĠDÃ¼ÅŁÃ¼k": 6286,
      "ature": 6287,
      "Ġdiya": 6288,
      "session": 6289,
      "ĠDomates": 6290,
      "Ġentegre": 6291,
      "docum": 6292,
      "Ġpadding": 6293,
      "Ġhidro": 6294,
      "Ã¼kleer": 6295,
      "OKENS": 6296,
      "Ġsegment": 6297,
      "Ġhttps": 6298,
      ".'": 6299,
      "Item": 6300,
      "ft": 6301,
      "ks": 6302,
      "pa": 6303,
      "rat": 6304,
      "ustr": 6305,
      "čĊ": 6306,
      "Ġ\\": 6307,
      "anta": 6308,
      "ĠvahÅŁi": 6309,
      "Ġsizi": 6310,
      "ĠsÃ¼s": 6311,
      "Ġdek": 6312,
      "Ġopen": 6313,
      "leÅŁti": 6314,
      "ayet": 6315,
      "ĠiÃ§gÃ¶r": 6316,
      "ulmaz": 6317,
      "Ġmor": 6318,
      "ĠÃ§Ä±rp": 6319,
      "ĠAz": 6320,
      "ĠSÄ±r": 6321,
      "Ġettir": 6322,
      "Ġkullanabilir": 6323,
      "Ġrec": 6324,
      "ĠKategori": 6325,
      "ĠgÃ¶m": 6326,
      "Ġzaf": 6327,
      "ĠyapÄ±yor": 6328,
      "dule": 6329,
      "ĠGez": 6330,
      "ĠGÃ¼zel": 6331,
      "ĠGeliÅŁtir": 6332,
      "ĠTh": 6333,
      "Ġbilm": 6334,
      "cach": 6335,
      "Ġmay": 6336,
      "ĠPas": 6337,
      "Ġbulur": 6338,
      "ĠÅŁeklim": 6339,
      "santr": 6340,
      "Ġprotokol": 6341,
      "ĠNo": 6342,
      "Ġsahib": 6343,
      "ilmelidir": 6344,
      "Ġkaybet": 6345,
      "chain": 6346,
      "Ġbilgilerini": 6347,
      "ĠyaÅŁÄ±ndaki": 6348,
      "pout": 6349,
      "ington": 6350,
      "ĠkiÅŁiye": 6351,
      "Ġduyur": 6352,
      "ĠÃ§evreye": 6353,
      "ĠUÃ§": 6354,
      "ĠeÄŁilim": 6355,
      "ĠadÄ±nda": 6356,
      "Ġnew": 6357,
      "Ġyetk": 6358,
      "ĠyetiÅŁtir": 6359,
      "ĠbakÄ±mÄ±": 6360,
      "ĠyÃ¼zleÅŁ": 6361,
      "ĠWH": 6362,
      "Ġteknolojileri": 6363,
      "Ġsitesini": 6364,
      "Ġ2019": 6365,
      "ĠalÄ±nan": 6366,
      "Ġtamamlan": 6367,
      "Ġilerle": 6368,
      "Ġilerleme": 6369,
      "ĠgÃ¼neÅŁin": 6370,
      "ĠEvde": 6371,
      "values": 6372,
      "Ġfikirleri": 6373,
      "dikten": 6374,
      "Ġkomut": 6375,
      "ĠavantajlarÄ±nÄ±": 6376,
      "ĠolabileceÄŁi": 6377,
      "ĠDeniz": 6378,
      "Ġjson": 6379,
      "ĠyÄ±ldÄ±zlar": 6380,
      "ĠFrancis": 6381,
      "ĠistediÄŁiniz": 6382,
      "ĠiÃ§eriÄŁini": 6383,
      "ĠAÃ§Ä±klama": 6384,
      "Ġparkta": 6385,
      "Ġaktiviteler": 6386,
      "Ã¼mÃ¼zdeki": 6387,
      "Ġmatematiksel": 6388,
      "ĠOlumlu": 6389,
      "ĠBitk": 6390,
      "Ġceza": 6391,
      "Ġnitel": 6392,
      "ticaret": 6393,
      "Ġmutfak": 6394,
      "ĠÃ¶mr": 6395,
      "ĠKÄ±rmÄ±zÄ±": 6396,
      "ĠÅŀimdi": 6397,
      "ezerv": 6398,
      "ĠayakkabÄ±": 6399,
      "ĠJoe": 6400,
      ")\",": 6401,
      "44": 6402,
      "EÄŁ": 6403,
      "NN": 6404,
      "count": 6405,
      "gara": 6406,
      "jet": 6407,
      "ness": 6408,
      "rem": 6409,
      "sam": 6410,
      "yerinde": 6411,
      "Ġ!": 6412,
      "Ġesin": 6413,
      "Ä±ma": 6414,
      "erans": 6415,
      "Ä±ndÄ±k": 6416,
      "iliÄŁi": 6417,
      "Ġsesi": 6418,
      "ĠsÃ¼p": 6419,
      "Ġsuyun": 6420,
      "matÄ±": 6421,
      "ĠbirleÅŁ": 6422,
      "Ġta": 6423,
      "Ġtencer": 6424,
      "Ġab": 6425,
      "ĠBunun": 6426,
      "emeyen": 6427,
      "isy": 6428,
      "ĠÅŁe": 6429,
      "ump": 6430,
      "Ġrakip": 6431,
      "Ġriski": 6432,
      "ĠKad": 6433,
      "ĠMad": 6434,
      "ĠMÃ¼kemmel": 6435,
      "ĠaltÄ±": 6436,
      "Ġinst": 6437,
      "ĠdolaÅŁ": 6438,
      "Ġdomuz": 6439,
      "Ã¼ydÃ¼": 6440,
      "ĠyazÄ±lmÄ±ÅŁ": 6441,
      "ĠbaÅŁkan": 6442,
      "Ġparametr": 6443,
      "Ġhayv": 6444,
      "Ġeklemek": 6445,
      "Ġ45": 6446,
      "Ã¶rn": 6447,
      "estek": 6448,
      "ĠgeÃ§irin": 6449,
      "Ġuf": 6450,
      "Ġsistemlerinin": 6451,
      "Ġduyul": 6452,
      "Ġhizmetlerine": 6453,
      "Ġ60": 6454,
      "Ġolmaktan": 6455,
      "ĠdoÄŁa": 6456,
      "Ġtahmini": 6457,
      "ĠtanÄ±mak": 6458,
      "Ġteknolojisinin": 6459,
      "Ġyemekler": 6460,
      "ĠyapÄ±labilir": 6461,
      "Ġodaklanan": 6462,
      "question": 6463,
      "irinÃ§": 6464,
      "ĠkazandÄ±r": 6465,
      "ĠbaÄŁlantÄ±lÄ±": 6466,
      "memize": 6467,
      "Ġkodlama": 6468,
      "ĠkavramÄ±": 6469,
      "ĠgÃ¶rÃ¼ÅŁÃ¼": 6470,
      "ĠortamÄ±": 6471,
      "ĠÃĸÄŁrenme": 6472,
      "ĠzararlÄ±": 6473,
      "ĠÃ¶nerir": 6474,
      "Ġzorluklar": 6475,
      "Ġplatformu": 6476,
      "ĠAvustr": 6477,
      "ĠbirleÅŁtirin": 6478,
      "curacy": 6479,
      "Ġbitkiler": 6480,
      "ĠÅŁarkÄ±sÄ±": 6481,
      "ĠuzunluÄŁunda": 6482,
      "ĠÃĩalÄ±ÅŁan": 6483,
      "Ġsoyut": 6484,
      "ĠSoÄŁuk": 6485,
      "rosoft": 6486,
      "ĠcÃ¼mlesini": 6487,
      "ĠatÄ±ÅŁtÄ±rmalÄ±k": 6488,
      "create": 6489,
      "ĠÅŁarj": 6490,
      "ĠFiziksel": 6491,
      "Ġrehber": 6492,
      "ĠFinansal": 6493,
      "olumn": 6494,
      "Ã¼rÃ¼zsÃ¼z": 6495,
      "lockchain": 6496,
      "onavirÃ¼s": 6497,
      "jetary": 6498,
      ":\",": 6499,
      "AS": 6500,
      "RL": 6501,
      "alat": 6502,
      "fin": 6503,
      "fil": 6504,
      "fre": 6505,
      "gÄ±lÄ±": 6506,
      "ive": 6507,
      "pan": 6508,
      "slar": 6509,
      "ted": 6510,
      "Ġbest": 6511,
      "Ġkuy": 6512,
      "Ġdis": 6513,
      "ĠdanÄ±ÅŁ": 6514,
      "Ġvek": 6515,
      "Ġyerinde": 6516,
      "Ġiti": 6517,
      "ĠgÃ¼zellik": 6518,
      "etre": 6519,
      "lanmalÄ±dÄ±r": 6520,
      "ĠBoÅŁ": 6521,
      "iss": 6522,
      "Ġfam": 6523,
      "Ã¼rlÃ¼k": 6524,
      "olon": 6525,
      "ĠSand": 6526,
      "Ġrep": 6527,
      "ĠGÃ¼l": 6528,
      "ĠalmayÄ±": 6529,
      "ĠTeÅŁ": 6530,
      "ĠTrans": 6531,
      "ĠbiliÅŁsel": 6532,
      "tag": 6533,
      "ibon": 6534,
      "ĠgeleceÄŁ": 6535,
      "ĠgeleceÄŁi": 6536,
      "ĠsaÄŁlÄ±ÄŁÄ±nÄ±": 6537,
      "ĠgÃ¶rÃ¼lebilir": 6538,
      "oter": 6539,
      "ĠPand": 6540,
      "ĠayÄ±k": 6541,
      "ĠCum": 6542,
      "ĠsÃ¼resi": 6543,
      "Ä±sÄ±na": 6544,
      "ĠdoÄŁrusal": 6545,
      "ĠatladÄ±": 6546,
      "ĠÃĩÃ¶z": 6547,
      "ended": 6548,
      "Ġkurt": 6549,
      "Ġyerden": 6550,
      "acÄ±k": 6551,
      "ĠAniden": 6552,
      "lendirme": 6553,
      "ĠyÄ±llarda": 6554,
      "Ġassistant": 6555,
      "Ġemir": 6556,
      "ĠArtan": 6557,
      "luklarÄ±": 6558,
      "thread": 6559,
      "Ġterap": 6560,
      "ĠsorularÄ±": 6561,
      "uyorum": 6562,
      "ĠÃ¶zeti": 6563,
      "ĠiÅŁlemleri": 6564,
      "Ġperakende": 6565,
      "ĠarttÄ±": 6566,
      "ĠOrt": 6567,
      "Ġmalzemelerin": 6568,
      "Ġtatmin": 6569,
      "ĠgÃ¼cÃ¼ne": 6570,
      "ĠÃ§ocuklar": 6571,
      "ĠÃ§izgi": 6572,
      "Ġbireyler": 6573,
      "ĠkullanÄ±rken": 6574,
      "ĠhatÄ±rlat": 6575,
      "ĠAkÅŁam": 6576,
      "Ġrobotlar": 6577,
      "duÄŁunu": 6578,
      "ĠkorkunÃ§": 6579,
      "Ġgecesi": 6580,
      "Ġsorgusu": 6581,
      "ĠÅŁehri": 6582,
      "ĠrekabetÃ§i": 6583,
      "Ġkarakterin": 6584,
      "ĠkaybÄ±": 6585,
      "ĠSpor": 6586,
      "ĠdÃ¼zeyde": 6587,
      "Ġtutkulu": 6588,
      "ĠÃ§ekirdek": 6589,
      "Ġduygusunu": 6590,
      "nowled": 6591,
      "ĠsabÄ±rsÄ±z": 6592,
      "ĠAraÅŁtÄ±rma": 6593,
      "ĠÄ°spanyolca": 6594,
      "Ġyuvarlak": 6595,
      "Ġpersonel": 6596,
      "nowledge": 6597,
      ",\"": 6598,
      "ON": 6599,
      "Res": 6600,
      "adir": 6601,
      "aise": 6602,
      "ble": 6603,
      "bur": 6604,
      "faf": 6605,
      "ph": 6606,
      "ruk": 6607,
      "ĠÂ": 6608,
      "lasÄ±": 6609,
      "latÄ±r": 6610,
      "Ġbunun": 6611,
      "Ġkediler": 6612,
      "Ġsosu": 6613,
      "Ġbireyin": 6614,
      "ald": 6615,
      "lerken": 6616,
      "Ġhap": 6617,
      "unlar": 6618,
      "Ġalacak": 6619,
      "lic": 6620,
      "ĠÃ¶f": 6621,
      "Ġpost": 6622,
      "ĠAg": 6623,
      "isiyle": 6624,
      "Ġniyet": 6625,
      "ĠKir": 6626,
      "ĠKÄ±ÅŁ": 6627,
      "Ġcaz": 6628,
      "Ġzam": 6629,
      "Ġaniden": 6630,
      "utucu": 6631,
      "ĠMÄ±sÄ±r": 6632,
      "iÄŁine": 6633,
      "ĠyapÄ±lmÄ±ÅŁ": 6634,
      "abrika": 6635,
      "Ġall": 6636,
      "ĠalÄ±yor": 6637,
      "ĠTÄ±bbi": 6638,
      "ĠYÃ¼r": 6639,
      "ĠYeÅŁil": 6640,
      "ĠÃ¶neri": 6641,
      "ĠHip": 6642,
      "ĠÄ°l": 6643,
      "ĠyarÄ±ÅŁ": 6644,
      "Ġyazmak": 6645,
      "Ġmat": 6646,
      "ĠPark": 6647,
      "odik": 6648,
      "ĠCSS": 6649,
      "ĠbÃ¼yÃ¼y": 6650,
      "Ġprom": 6651,
      "Ġsahn": 6652,
      "Ġbulunmak": 6653,
      "Ġgereksiz": 6654,
      "ĠdoÄŁruluÄŁu": 6655,
      "sequences": 6656,
      "ĠÃ§alÄ±ÅŁÄ±n": 6657,
      "ĠbaÄŁÄ±ÅŁ": 6658,
      "Ġyerler": 6659,
      "diÄŁim": 6660,
      "ĠdÃ¼ÅŁÃ¼r": 6661,
      "Ġmetinde": 6662,
      "Ġmetadata": 6663,
      "ĠÃ§evreyi": 6664,
      "Ġkonsantr": 6665,
      "ĠUn": 6666,
      "Ġsunarak": 6667,
      "ĠartÄ±rarak": 6668,
      "Ġhikayenin": 6669,
      "ĠIÅŁÄ±k": 6670,
      "Ġederler": 6671,
      "Ġtry": 6672,
      "Ġhedefleri": 6673,
      "Ġtema": 6674,
      "ĠÃ¶zelliÄŁini": 6675,
      "Ä±nÄ±za": 6676,
      "Ġsession": 6677,
      "ĠQMessage": 6678,
      "ĠhazÄ±rlan": 6679,
      "ĠyaÄŁÄ±ÅŁ": 6680,
      "ĠkeÅŁfetmeye": 6681,
      "ĠetkinliÄŁi": 6682,
      "Ġtelevizyon": 6683,
      "Ġorganik": 6684,
      "Ġdakik": 6685,
      "Ġnoktalama": 6686,
      "ĠÃĸÄŁrenci": 6687,
      "Ġettiler": 6688,
      "ĠdeÄŁiÅŁikliklere": 6689,
      "ĠmÃ¼ÅŁterilerle": 6690,
      "ĠemisyonlarÄ±": 6691,
      "ĠiÃ§erikler": 6692,
      "ĠkampanyalarÄ±": 6693,
      "ĠOkul": 6694,
      "ĠRoma": 6695,
      "ĠÃ§apÄ±nda": 6696,
      "ERE": 6697,
      "ĠSistemi": 6698,
      "ĠsaldÄ±rÄ±": 6699,
      "ĠMax": 6700,
      "Ġaccuracy": 6701,
      "ifornia": 6702,
      "Ġdepresyon": 6703,
      "ĠyÃ¼rÃ¼dÃ¼": 6704,
      "Ġencoding": 6705,
      "ĠDuygu": 6706,
      "ĠGeorge": 6707,
      "ĠAvustralya": 6708,
      "ĠvektÃ¶r": 6709,
      "ĠQMessageBox": 6710,
      "CÃ¼m": 6711,
      "gul": 6712,
      "ging": 6713,
      "hur": 6714,
      "ping": 6715,
      "position": 6716,
      "window": 6717,
      "Ġ.": 6718,
      "Ġsilin": 6719,
      "ĠyayÄ±": 6720,
      "Ġtit": 6721,
      "Ġtilki": 6722,
      "ĠhÃ¼kÃ¼m": 6723,
      "aydÄ±": 6724,
      "ayri": 6725,
      "ormal": 6726,
      "lÄ±m": 6727,
      "asul": 6728,
      "ĠÃ§Ã¶l": 6729,
      "eydi": 6730,
      "iyecek": 6731,
      "Ġfen": 6732,
      "Ġfinc": 6733,
      "olu": 6734,
      "Ġraise": 6735,
      "Ġcom": 6736,
      "ĠBirey": 6737,
      "okado": 6738,
      "iÄŁe": 6739,
      "ĠkartÄ±": 6740,
      "ĠkardeÅŁ": 6741,
      "ĠoluÅŁturarak": 6742,
      "lÄ±kta": 6743,
      "ĠTeh": 6744,
      "ĠEtik": 6745,
      "ĠiÅŁley": 6746,
      "ĠPlan": 6747,
      "ich": 6748,
      "ĠsÃ¼rÃ¼n": 6749,
      "ĠÃ¶ÄŁrenmeye": 6750,
      "ĠNet": 6751,
      "ĠNok": 6752,
      "ĠNasÄ±l": 6753,
      "ĠNLP": 6754,
      "Ġekmek": 6755,
      "ĠyollarÄ±nÄ±": 6756,
      "ĠÃ¶nemine": 6757,
      "ĠolduÄŁun": 6758,
      "Ġiyidir": 6759,
      "Ġtopr": 6760,
      "ĠolmayÄ±": 6761,
      "ĠbaÄŁlan": 6762,
      "ĠdÃ¼ÅŁÃ¼ÅŁ": 6763,
      "Ġboya": 6764,
      "ĠakÄ±l": 6765,
      "Ġyaratmaya": 6766,
      "Ġizleme": 6767,
      "ĠsayÄ±larÄ±n": 6768,
      "ĠyÄ±llar": 6769,
      "ĠdeÄŁerleri": 6770,
      "Ġdeneyin": 6771,
      "ĠartÄ±rÄ±n": 6772,
      "Ġkapasit": 6773,
      "leÅŁme": 6774,
      "Ġterk": 6775,
      "Ġsiteleri": 6776,
      "Ġyenilen": 6777,
      "ĠsorularÄ±na": 6778,
      "ĠsÄ±kÄ±cÄ±": 6779,
      "Ġmalzeme": 6780,
      "ĠalÄ±nmasÄ±": 6781,
      "Ġyoktur": 6782,
      "ĠdeÄŁildi": 6783,
      "Ġnesneyi": 6784,
      "ĠayÄ±rt": 6785,
      "perature": 6786,
      "Ġfikirlerini": 6787,
      "caÄŁÄ±na": 6788,
      "Ġsplit": 6789,
      "Ġzarf": 6790,
      "ĠDengeli": 6791,
      "ĠolayÄ±": 6792,
      "ĠgÃ¶rselleÅŁtirme": 6793,
      "ĠUzay": 6794,
      "html": 6795,
      "ĠhastalÄ±klarÄ±": 6796,
      "Ġargs": 6797,
      "response": 6798,
      "ĠkuÅŁlar": 6799,
      "allback": 6800,
      "ĠRoman": 6801,
      "Ġexcept": 6802,
      "ĠÃ¶nlemler": 6803,
      "ĠkÃ¶pekler": 6804,
      "ĠSEO": 6805,
      "ĠgÃ¶lg": 6806,
      "Ġmesafe": 6807,
      "ĠCesur": 6808,
      "ĠCesaret": 6809,
      "Ġhediye": 6810,
      "ĠAÅŁaÄŁÄ±dak": 6811,
      "ĠsÄ±vÄ±": 6812,
      "ĠvazgeÃ§": 6813,
      "Ġ!=": 6814,
      "Ġprompt": 6815,
      "\"{": 6816,
      "->": 6817,
      "60": 6818,
      "AN": 6819,
      "ED": 6820,
      "ET": 6821,
      "GB": 6822,
      "IN": 6823,
      "kÃ¼t": 6824,
      "mesiyle": 6825,
      "obil": 6826,
      "Ã¢": 6827,
      "Ġked": 6828,
      "Ġkem": 6829,
      "Ġseti": 6830,
      "Ġsizin": 6831,
      "larken": 6832,
      "Ġyana": 6833,
      "Ġgem": 6834,
      "lang": 6835,
      "ÅŁta": 6836,
      "ure": 6837,
      "lib": 6838,
      "ĠÃ§ikolata": 6839,
      "isiz": 6840,
      "ĠÅŁaka": 6841,
      "ĠkullanmayÄ±": 6842,
      "Ġredd": 6843,
      "adaki": 6844,
      "Ġ\"âĸģ": 6845,
      "sÄ±dÄ±r": 6846,
      "Ä°n": 6847,
      "ĠHep": 6848,
      "ĠÄ°h": 6849,
      "ĠyargÄ±": 6850,
      "Ġdoc": 6851,
      "Ġbulmaya": 6852,
      "ĠtarayÄ±cÄ±": 6853,
      "Ġbelge": 6854,
      "ĠparÄ±l": 6855,
      "ĠÃ¶ÄŁrenmeyi": 6856,
      "isidir": 6857,
      "Ġekm": 6858,
      "ersiniz": 6859,
      "iliar": 6860,
      "Ġyollarla": 6861,
      "Ġmetr": 6862,
      "ĠhÄ±zÄ±nÄ±": 6863,
      "Ġzorb": 6864,
      "ĠAnt": 6865,
      "Ġsever": 6866,
      "Ġkonfer": 6867,
      "ĠsayÄ±lar": 6868,
      "ĠseÃ§imi": 6869,
      "ĠÅŀiir": 6870,
      "Ġetkileyen": 6871,
      "ĠÃ¼retir": 6872,
      "menizi": 6873,
      "ĠArdÄ±ndan": 6874,
      "Ġihlal": 6875,
      "ĠalgoritmanÄ±n": 6876,
      "Ġtutar": 6877,
      "ĠfÄ±rÃ§a": 6878,
      "ĠhayvanlarÄ±": 6879,
      "Ġresponse": 6880,
      "ĠBilgi": 6881,
      "Ġ90": 6882,
      "Ġsesli": 6883,
      "ĠiliÅŁkiyi": 6884,
      "Ġdevice": 6885,
      "ĠyaklaÅŁÄ±mÄ±": 6886,
      "ations": 6887,
      "Ġmeditasyon": 6888,
      "ĠyÃ¶ntemler": 6889,
      "Ġconv": 6890,
      "Ġconversation": 6891,
      "Ġriskleri": 6892,
      "ĠetkileÅŁimde": 6893,
      "ĠaÄŁaÃ§lar": 6894,
      "ĠaÄŁaÃ§larÄ±n": 6895,
      "sedÃ¼r": 6896,
      "ĠÃĸzel": 6897,
      "ĠEtkisi": 6898,
      "mediÄŁi": 6899,
      "Ġfiili": 6900,
      "Ġkulak": 6901,
      "Ġtokens": 6902,
      "Ġregresyon": 6903,
      "ĠformÃ¼le": 6904,
      "Ġhiper": 6905,
      "ĠÃ¶ncelikle": 6906,
      "ĠSÃ¼rdÃ¼rÃ¼lebilir": 6907,
      "Ġtipik": 6908,
      "ĠGeÃ§en": 6909,
      "Ġtakdirde": 6910,
      "ĠbaÅŁlatÄ±n": 6911,
      "Ġsolunum": 6912,
      "ĠÅŁifreleme": 6913,
      "Ġpeyniri": 6914,
      "ĠfarkÄ±ndalÄ±": 6915,
      "ĠyÃ¼rÃ¼tme": 6916,
      "ĠmantÄ±klÄ±": 6917,
      "ĠkaÃ§Ä±nmak": 6918,
      "Ġoptimizasyon": 6919,
      "dropout": 6920,
      "ĠNesne": 6921,
      "ĠseÃ§eneÄŁi": 6922,
      "ĠÃ§oÄŁunlukla": 6923,
      "ĠdolayÄ±": 6924,
      "ĠyetiÅŁkin": 6925,
      "Ġkoruyarak": 6926,
      "Ġkanser": 6927,
      "ĠsÃ¼rpriz": 6928,
      "Error": 6929,
      "ĠWHERE": 6930,
      "Ġfamiliar": 6931,
      "17": 6932,
      "VBoxLayout": 6933,
      "][": 6934,
      "ew": 6935,
      "kal": 6936,
      "raz": 6937,
      "laÅŁtÄ±k": 6938,
      "Ġsum": 6939,
      "Ġsom": 6940,
      "Ġdiye": 6941,
      "Ġgal": 6942,
      "aklama": 6943,
      "lerdi": 6944,
      "leÅŁt": 6945,
      "imum": 6946,
      "ĠBek": 6947,
      "ĠBÃ¼t": 6948,
      "Ġmez": 6949,
      "Ġpik": 6950,
      "Ġfile": 6951,
      "Ġnih": 6952,
      "Ġnavig": 6953,
      "student": 6954,
      "ĠSaat": 6955,
      "erindeki": 6956,
      "Ġrend": 6957,
      "Ġcolor": 6958,
      "ĠDaÄŁ": 6959,
      "utf": 6960,
      "ĠMate": 6961,
      "iÄŁim": 6962,
      "ĠyapmasÄ±": 6963,
      "ĠverdiÄŁi": 6964,
      "ĠGr": 6965,
      "ĠÄ°m": 6966,
      "ĠsaÄŁlayÄ±cÄ±": 6967,
      "ĠiÅŁg": 6968,
      "ĠmaaÅŁ": 6969,
      "option": 6970,
      "ĠkullanÄ±yor": 6971,
      "Ġetkilere": 6972,
      "ĠFiyat": 6973,
      "liÄŁiyle": 6974,
      "ĠprosedÃ¼r": 6975,
      "ĠÃ¶ÄŁrenmesi": 6976,
      "Ġdengeli": 6977,
      "Ġnedenleri": 6978,
      "Ġvarsay": 6979,
      "Ġetmektir": 6980,
      "ĠyerÃ§ek": 6981,
      "ĠyaÅŁama": 6982,
      "---": 6983,
      "igh": 6984,
      "ĠAnay": 6985,
      "ĠAnket": 6986,
      "ĠÃ¼rÃ¼nlerin": 6987,
      "Ġizleyin": 6988,
      "stron": 6989,
      "ĠfarklÄ±lÄ±k": 6990,
      "Ġdefault": 6991,
      "Ġilgilidir": 6992,
      "abilme": 6993,
      "Ġhesab": 6994,
      "ĠEndÃ¼str": 6995,
      "Ġ2021": 6996,
      "Ġtaban": 6997,
      "ĠQVBoxLayout": 6998,
      "ĠKarmaÅŁÄ±k": 6999,
      "ĠteÅŁvikler": 7000,
      "ĠihtiyaÃ§larÄ±": 7001,
      "Ġkazanmak": 7002,
      "Ġkarakterleri": 7003,
      "Ġcontent": 7004,
      "ĠkeÅŁfetme": 7005,
      "ĠkeÅŁfetti": 7006,
      "Ġdinlen": 7007,
      "ĠgeÃ§irmek": 7008,
      "ĠparÃ§acÄ±k": 7009,
      "Ġlistele": 7010,
      "ĠsÃ¶zd": 7011,
      "texts": 7012,
      "ĠsÃ¼rdÃ¼rmek": 7013,
      "Ġhafiflet": 7014,
      "ĠMetni": 7015,
      "ĠparÃ§alara": 7016,
      "ĠkÄ±yafet": 7017,
      "Ġmobilya": 7018,
      "Ġtipi": 7019,
      "ĠkolaylaÅŁtÄ±rÄ±r": 7020,
      "ĠyolculuÄŁa": 7021,
      "ĠBaÄŁÄ±m": 7022,
      "Ġbuzul": 7023,
      "ĠbunlarÄ±": 7024,
      "ĠpiÅŁirme": 7025,
      "ĠPlaj": 7026,
      "ĠÄ°ÅŁletmeler": 7027,
      "Ġefsan": 7028,
      "radius": 7029,
      "ĠTwit": 7030,
      "ĠTelefon": 7031,
      "function": 7032,
      "Ġmimar": 7033,
      "ommended": 7034,
      "ĠDahasÄ±": 7035,
      "Ġzafer": 7036,
      "ĠTehlik": 7037,
      ")}": 7038,
      "AM": 7039,
      "TP": 7040,
      "Tra": 7041,
      "Tool": 7042,
      "baÄŁa": 7043,
      "ema": 7044,
      "past": 7045,
      "rit": 7046,
      "wer": 7047,
      "Ã¼dÃ¼r": 7048,
      "anÃ¼stÃ¼": 7049,
      "ÄŁanÃ¼stÃ¼": 7050,
      "ĠdalÄ±": 7051,
      "Ġvegan": 7052,
      "altÄ±": 7053,
      "imser": 7054,
      "ÅŁten": 7055,
      "ediÄŁi": 7056,
      "ĠBal": 7057,
      "ĠBor": 7058,
      "ĠBalÄ±k": 7059,
      "ĠÃ¶v": 7060,
      "ĠÃ§im": 7061,
      "yacak": 7062,
      "iyodik": 7063,
      "Ġfatur": 7064,
      "stack": 7065,
      "ĠSol": 7066,
      "ĠSÄ±nÄ±r": 7067,
      "Ġreli": 7068,
      "ĠKoÅŁ": 7069,
      "Ġanti": 7070,
      "Ġverilir": 7071,
      "ĠoluÅŁturan": 7072,
      "ĠalmanÄ±n": 7073,
      "ĠYav": 7074,
      "ĠYiyecek": 7075,
      "ĠHol": 7076,
      "ĠHiÃ§": 7077,
      "Ã¼yÃ¼": 7078,
      "ĠOlu": 7079,
      "ĠOnun": 7080,
      "ĠPan": 7081,
      "lemesine": 7082,
      "ĠÃ¶zn": 7083,
      "ĠtanÄ±nÄ±r": 7084,
      "ĠFace": 7085,
      "Ġiyimser": 7086,
      "Ġprogress": 7087,
      "iyorlar": 7088,
      "ĠÃ¼rkÃ¼t": 7089,
      "Ġlif": 7090,
      "ĠarasÄ±ndan": 7091,
      "ĠkarÅŁÄ±lamak": 7092,
      "ĠÃ§alÄ±ÅŁarak": 7093,
      "ĠÃ§alÄ±ÅŁmaya": 7094,
      "Ġhalka": 7095,
      "ĠkaynatÄ±n": 7096,
      "ĠtekniÄŁi": 7097,
      "Ġuygulan": 7098,
      "acci": 7099,
      "Ġistekli": 7100,
      "yanusu": 7101,
      "ĠfazlasÄ±": 7102,
      "Ġkonfor": 7103,
      "Ġstring": 7104,
      "Ġerkek": 7105,
      "Ġgetirerek": 7106,
      "Ġkaynaklardan": 7107,
      "ĠURL": 7108,
      "ĠsÄ±fÄ±r": 7109,
      "rep": 7110,
      "(),": 7111,
      "Ġokur": 7112,
      "ĠartÄ±rma": 7113,
      "ĠdÃ¼ÅŁÃ¼nce": 7114,
      "Ġgirin": 7115,
      "setV": 7116,
      "Ġiletmek": 7117,
      "ĠuzunluÄŁu": 7118,
      "ĠÃ§eÅŁitlilik": 7119,
      "Ġyani": 7120,
      "Ġhavada": 7121,
      "ĠtemasÄ±nÄ±": 7122,
      "ĠiÅŁletmenin": 7123,
      "ĠhayvanlarÄ±n": 7124,
      "ĠbaÅŁarÄ±ya": 7125,
      "Ġmaliyetlerini": 7126,
      "ĠyÃ¼rÃ¼m": 7127,
      "ĠMÃ¼ÅŁter": 7128,
      "Ġverilerdeki": 7129,
      "ĠartmasÄ±": 7130,
      "Ġkimse": 7131,
      "ĠeÅŁya": 7132,
      "Ġkarakterler": 7133,
      "ĠayÄ±rmak": 7134,
      "ĠkaÃ§Ä±nÄ±n": 7135,
      "Ġmerak": 7136,
      "ĠÃ¶ÄŁrencinin": 7137,
      "Ġkompost": 7138,
      "ĠkullanmaktÄ±r": 7139,
      "ĠhatÄ±rlatÄ±cÄ±": 7140,
      "ĠSanayi": 7141,
      "ĠhatasÄ±": 7142,
      "ĠbileÅŁik": 7143,
      "ĠnumarasÄ±": 7144,
      "Ġzihn": 7145,
      "ĠayarlayÄ±n": 7146,
      "ĠUyku": 7147,
      "Ġchar": 7148,
      "ĠMerkez": 7149,
      "ĠbirleÅŁtirerek": 7150,
      "ĠyaptÄ±ÄŁÄ±": 7151,
      "acaÄŁÄ±nÄ±": 7152,
      "----------------": 7153,
      "ĠÃ¶nlemleri": 7154,
      "ĠdÃ¶ngÃ¼sÃ¼": 7155,
      "Ġunutulmaz": 7156,
      "ĠAfiyet": 7157,
      "ĠkarÄ±ÅŁÄ±mÄ±": 7158,
      "ĠOtomasyon": 7159,
      "Ġyelpazesi": 7160,
      "duklarÄ±": 7161,
      "Ġfikrini": 7162,
      "ashington": 7163,
      "ĠModern": 7164,
      "Ġejderha": 7165,
      "Ġkopya": 7166,
      "ĠDikkat": 7167,
      "ĠOrganik": 7168,
      "ĠQLabel": 7169,
      "Ġhangisi": 7170,
      "ĠotobÃ¼s": 7171,
      "Ġtohum": 7172,
      "ulaf": 7173,
      "Ġmuhtemelen": 7174,
      "Ġhabitat": 7175,
      "Ġadapted": 7176,
      "ĠÃĸÄŁretmen": 7177,
      "ĠÄ°yileÅŁtir": 7178,
      "Ġrecommended": 7179,
      "ĠFrancisco": 7180,
      "Ã¶rneÄŁin": 7181,
      "jetaryen": 7182,
      "ibonacci": 7183,
      "ĠTwitter": 7184,
      "Ġreliable": 7185,
      "':": 7186,
      "32": 7187,
      "65": 7188,
      "Lo": 7189,
      "NLP": 7190,
      "cÄ±k": 7191,
      "epoch": 7192,
      "fab": 7193,
      "pul": 7194,
      "sample": 7195,
      "va": 7196,
      "yasyon": 7197,
      "ĠlÃ¼k": 7198,
      "Ġvocab": 7199,
      "Ġkre": 7200,
      "Ġyola": 7201,
      "atÃ¶r": 7202,
      "emizi": 7203,
      "asÄ±ndaki": 7204,
      "Ġmel": 7205,
      "Ġolgun": 7206,
      "ĠpÃ¼rÃ¼zsÃ¼z": 7207,
      "ĠÃ§anta": 7208,
      "iti": 7209,
      "ĠfÄ±ndÄ±k": 7210,
      "amÄ±z": 7211,
      "stop": 7212,
      "ĠSc": 7213,
      "ĠkullanÄ±ldÄ±": 7214,
      "ĠKut": 7215,
      "ĠcoÅŁ": 7216,
      "ĠDenk": 7217,
      "Ġani": 7218,
      "ĠTan": 7219,
      "ĠTok": 7220,
      "Ġinfo": 7221,
      "esif": 7222,
      "ĠdolandÄ±rÄ±cÄ±": 7223,
      "ĠaÃ§Ä±sÄ±": 7224,
      "ĠyazÄ±lÄ±": 7225,
      "ĠOku": 7226,
      "ody": 7227,
      "ĠCar": 7228,
      "answer": 7229,
      "erse": 7230,
      "Ġyoldur": 7231,
      "ezz": 7232,
      "Ġsorusu": 7233,
      "ĠÃĩÃ¼nkÃ¼": 7234,
      "ĠgÃ¼venliÄŁini": 7235,
      "Ġsistemin": 7236,
      "cular": 7237,
      "ĠyÄ±lÄ±n": 7238,
      "ĠgÃ¶revde": 7239,
      "Ã¼cre": 7240,
      "Ġnegatif": 7241,
      "Ġetmesine": 7242,
      "Ġhikayeyi": 7243,
      "ĠgÃ¶steriyor": 7244,
      "content": 7245,
      "ĠyayÄ±lmasÄ±nÄ±": 7246,
      "Ġtren": 7247,
      "ebileceÄŁini": 7248,
      "ĠkÄ±sm": 7249,
      "ĠdeÄŁiÅŁtirmek": 7250,
      "ĠdeÄŁiÅŁtirerek": 7251,
      "Ġkabartma": 7252,
      "ĠkullanÄ±mÄ±yla": 7253,
      "uyoruz": 7254,
      "Ġkendilerini": 7255,
      "Ġdizinin": 7256,
      "ĠBaÅŁlangÄ±Ã§": 7257,
      "ĠduygularÄ±": 7258,
      "ĠÃ§Ã¶zÃ¼mleri": 7259,
      "ĠartmasÄ±na": 7260,
      "ĠtamamlayÄ±n": 7261,
      "ĠHayÄ±r": 7262,
      "ĠpaylaÅŁtÄ±": 7263,
      "ĠyapmalarÄ±na": 7264,
      "ĠendÃ¼strisinde": 7265,
      "Ġteknikler": 7266,
      "ĠgÃ¶rÃ¼ntÃ¼leri": 7267,
      "ĠaÄŁaÃ§larÄ±": 7268,
      "ĠtaÅŁÄ±y": 7269,
      "Ġarabalar": 7270,
      "ĠKÃ¶tÃ¼": 7271,
      "luÄŁun": 7272,
      "book": 7273,
      "Ġbilinmeyen": 7274,
      "ĠEtkin": 7275,
      "ĠÃ§iftÃ§i": 7276,
      "ĠsÄ±nÄ±flandÄ±rmak": 7277,
      "croll": 7278,
      "ĠHayatÄ±n": 7279,
      "ĠAmerikalÄ±": 7280,
      "exper": 7281,
      "ĠkatÄ±lÄ±n": 7282,
      "ĠToplam": 7283,
      "Ġseq": 7284,
      "Ġedilmelidir": 7285,
      "ĠsatÄ±rlÄ±k": 7286,
      "shape": 7287,
      "Ġevren": 7288,
      "ĠMilletler": 7289,
      "ĠendiÅŁe": 7290,
      "ĠRobotlar": 7291,
      "ĠFÄ±rÄ±nÄ±": 7292,
      "Ġbotu": 7293,
      "Ġdioksit": 7294,
      "ĠÃĩocuklar": 7295,
      "Ġzincir": 7296,
      "ademik": 7297,
      "ografik": 7298,
      "ĠMicrosoft": 7299,
      "ĠTavuk": 7300,
      "ĠÅŁaÅŁÄ±rtÄ±cÄ±": 7301,
      "ĠProje": 7302,
      "Ġpandemisi": 7303,
      "ĠException": 7304,
      "ĠbaÅŁkenti": 7305,
      "ĠÃ§ubuk": 7306,
      "ĠaÄŁrÄ±sÄ±": 7307,
      "Ġmadencil": 7308,
      "parameters": 7309,
      "utils": 7310,
      "ĠarkadaÅŁÄ±": 7311,
      "Ġucuz": 7312,
      "cache": 7313,
      "ĠlÃ¼ks": 7314,
      "ĠDenklem": 7315,
      "In": 7316,
      "Tokenizer": 7317,
      "derin": 7318,
      "mes": 7319,
      "oT": 7320,
      "tiÄŁini": 7321,
      "Ġlabels": 7322,
      "laki": 7323,
      "late": 7324,
      "Ã§ak": 7325,
      "Ġval": 7326,
      "Ġsuy": 7327,
      "ĠyukarÄ±": 7328,
      "ĠĠĠĠĠĠ": 7329,
      "ake": 7330,
      "Ġhistory": 7331,
      "ÅŁtÄ±m": 7332,
      "ĠaÅŁaÄŁÄ±": 7333,
      "ĠBan": 7334,
      "ĠBec": 7335,
      "ĠBuna": 7336,
      "ĠBÃ¶yle": 7337,
      "asta": 7338,
      "ĠmeÅŁ": 7339,
      "Ġpes": 7340,
      "Ä±mda": 7341,
      "ĠSQL": 7342,
      "Ġrot": 7343,
      "ĠDestek": 7344,
      "uter": 7345,
      "ĠBirlikte": 7346,
      "Ġveriyi": 7347,
      "Ġenfek": 7348,
      "ĠTool": 7349,
      "ĠHab": 7350,
      "otik": 7351,
      "ĠVar": 7352,
      "ĠChat": 7353,
      "ĠCity": 7354,
      "ĠFosil": 7355,
      "ĠFayda": 7356,
      "Ġkalem": 7357,
      "ĠÃ§Ä±kmaya": 7358,
      "Ġbulundur": 7359,
      "ĠinsanÄ±": 7360,
      "ĠRahat": 7361,
      "Ġkonuda": 7362,
      "ĠLog": 7363,
      "ĠLezz": 7364,
      "pool": 7365,
      "oÄŁu": 7366,
      "ĠakÄ±ÅŁÄ±": 7367,
      "cuda": 7368,
      "ilerinizi": 7369,
      "Ġhizmetlerin": 7370,
      "Ġhizmetlerinin": 7371,
      "Ġgerilim": 7372,
      "ĠUmut": 7373,
      "ilebilecek": 7374,
      "ĠgerÃ§ekleÅŁtirmek": 7375,
      "ĠÃľn": 7376,
      "ĠkÃ¶t": 7377,
      "Ġevi": 7378,
      "Ġtutun": 7379,
      "Ġterimi": 7380,
      "ĠkÄ±salt": 7381,
      "Ġtabak": 7382,
      "Ġbasketbol": 7383,
      "ĠQWidget": 7384,
      "Ġrenkleri": 7385,
      "ĠCÃ¼mlenin": 7386,
      "Ġyoktu": 7387,
      "ĠbaÄŁlantÄ±lar": 7388,
      "ĠsÃ¼recinde": 7389,
      "Ġfizik": 7390,
      "Ġifadeleri": 7391,
      "etime": 7392,
      "Ä±ÅŁÄ±klÄ±k": 7393,
      "ĠendÃ¼striyel": 7394,
      "Ġdairenin": 7395,
      "Ġspam": 7396,
      "Ġtekniklerini": 7397,
      "ĠgÃ¶kyÃ¼zÃ¼ne": 7398,
      "ĠortamÄ±nda": 7399,
      "ĠbileÅŁeni": 7400,
      "ĠtaÅŁÄ±nabilir": 7401,
      "ĠmÃ¼ÅŁteriye": 7402,
      "ĠgÃ¶rselleÅŁtir": 7403,
      "Ġsivil": 7404,
      "parator": 7405,
      "ĠGeleneksel": 7406,
      "Ġprofil": 7407,
      "example": 7408,
      "ĠanlaÅŁÄ±lmasÄ±": 7409,
      "ĠgÃ¼ncellem": 7410,
      "Ġboyutu": 7411,
      "ĠOkyanus": 7412,
      "ĠÃ§atÄ±ÅŁ": 7413,
      "ĠYÃ¼ksel": 7414,
      "Ġgezegenin": 7415,
      "ĠkeÅŁfeder": 7416,
      "ĠYolda": 7417,
      "ĠArama": 7418,
      "Ġmisin": 7419,
      "Ġevrenin": 7420,
      "ĠolduklarÄ±": 7421,
      "ĠuzaylÄ±": 7422,
      "ĠChar": 7423,
      "oyut": 7424,
      "Ġpandemi": 7425,
      "ĠsandviÃ§": 7426,
      "ĠÅŁiddetli": 7427,
      "Ġhissini": 7428,
      "database": 7429,
      "Ġpartisi": 7430,
      "ĠhÄ±rs": 7431,
      "ĠKelime": 7432,
      "ĠdÄ±ÅŁarÄ±da": 7433,
      "ĠPatates": 7434,
      "ĠÃĸÄŁle": 7435,
      "meyecek": 7436,
      "ederal": 7437,
      "ĠUzaktan": 7438,
      "tÃ¼sÃ¼": 7439,
      "ĠtaslaÄŁÄ±": 7440,
      "ĠmÃ¼dahal": 7441,
      "Ġbaharat": 7442,
      "Ġwhile": 7443,
      "ĠmeslektaÅŁ": 7444,
      "Ġitibar": 7445,
      "Ġkonferans": 7446,
      "ĠyerÃ§ekimi": 7447,
      "ĠFacebook": 7448,
      "24": 7449,
      "90": 7450,
      "LM": 7451,
      "TOKENS": 7452,
      "baÅŁ": 7453,
      "des": 7454,
      "gn": 7455,
      "lÃ¼l": 7456,
      "ous": 7457,
      "slararasÄ±": 7458,
      "sever": 7459,
      "zar": 7460,
      "Ġ&": 7461,
      "Ġ]": 7462,
      "Ġline": 7463,
      "Ĳâķ": 7464,
      "erik": 7465,
      "ÅŁap": 7466,
      "Ġbe": 7467,
      "arik": 7468,
      "Ġsap": 7469,
      "ĠdÃ¼ÅŁt": 7470,
      "elebek": 7471,
      "Ġilan": 7472,
      "Ġtava": 7473,
      "ĠtÄ±p": 7474,
      "lerimiz": 7475,
      "ona": 7476,
      "Ġafet": 7477,
      "ĠmÃ¼lk": 7478,
      "Ġfasul": 7479,
      "Ġark": 7480,
      "lamalarÄ±": 7481,
      "ĠoluÅŁturabilir": 7482,
      "Ġalk": 7483,
      "ĠTip": 7484,
      "ĠTalimat": 7485,
      "apka": 7486,
      "ĠYan": 7487,
      "ĠEÅŁ": 7488,
      "ĠaÃ§an": 7489,
      "othi": 7490,
      "ĠPoli": 7491,
      "ĠÃ¶zÃ¼r": 7492,
      "ĠCanlÄ±": 7493,
      "ĠkullanÄ±lÄ±yor": 7494,
      "ĠaÃ§Ä±kÃ§a": 7495,
      "Ã¼lmÃ¼ÅŁ": 7496,
      "Ġbelirgin": 7497,
      "Ġbuhar": 7498,
      "ĠÃ¶ÄŁrenir": 7499,
      "ĠkalÄ±b": 7500,
      "Ġgerekmektedir": 7501,
      "ĠÃĩift": 7502,
      "ĠhakkÄ±": 7503,
      "ĠRenk": 7504,
      "ĠgeÃ§er": 7505,
      "ĠÃĸr": 7506,
      "ĠkaynaÄŁ": 7507,
      "ĠdÃ¶ner": 7508,
      "Ġsuya": 7509,
      "ĠalanÄ±ndaki": 7510,
      "ĠtanÄ±mlama": 7511,
      "ĠsÄ±Ã§": 7512,
      "eceÄŁinden": 7513,
      "ĠsÄ±radan": 7514,
      "ĠĠĠĠĠĠĠĠĠĠĠĠĠĠĠĠĊ": 7515,
      "Ġyetersiz": 7516,
      "ĠuygulamalarÄ±nÄ±": 7517,
      "(\"ðŁ": 7518,
      "ĠhayatÄ±mÄ±zÄ±": 7519,
      "ĠortasÄ±nda": 7520,
      "ĠdoÄŁanÄ±n": 7521,
      "ĠZar": 7522,
      "Ġevine": 7523,
      "Ġ{}": 7524,
      "ĠsonuÃ§lara": 7525,
      "Ġmodelinin": 7526,
      "anager": 7527,
      "ildiÄŁini": 7528,
      "ĠaraÃ§larÄ±n": 7529,
      "ĠkullanÄ±mÄ±na": 7530,
      "ĠkarÅŁÄ±laÅŁtÄ±rma": 7531,
      "ĠkarÅŁÄ±laÅŁtÄ±rmak": 7532,
      "ĠaÅŁama": 7533,
      "ĠAlt": 7534,
      "ĠAltÄ±n": 7535,
      "ĠmiktarÄ±": 7536,
      "ĠgÃ¼neÅŁli": 7537,
      "ĠkavramlarÄ±": 7538,
      "ĠBirleÅŁmiÅŁ": 7539,
      "ĠÄ°nsanlarÄ±n": 7540,
      "ĠsÃ¶zc": 7541,
      "ĠÃ§ocuklarÄ±n": 7542,
      "ĠhatalarÄ±nÄ±": 7543,
      "oruma": 7544,
      "ĠortalamasÄ±nÄ±": 7545,
      "ĠÃ§alÄ±ÅŁanlarÄ±n": 7546,
      "ĠÄ±sÄ±t": 7547,
      "Ġyiyecekleri": 7548,
      "Ġsigor": 7549,
      "ĠhavuÃ§": 7550,
      "Ġsof": 7551,
      "Ġbesleyici": 7552,
      "Ġiddi": 7553,
      "Ġistedim": 7554,
      "ĠmÃ¼hendislik": 7555,
      "Ġkalabilir": 7556,
      "Ġteps": 7557,
      "ĠMars": 7558,
      "instruction": 7559,
      "ĠOrtalama": 7560,
      "Ġkilo": 7561,
      "ĠbÃ¶lÃ¼mÃ¼": 7562,
      "Ġreferans": 7563,
      "inlerce": 7564,
      "Ġharcama": 7565,
      "ĠyapraklarÄ±": 7566,
      "ĠKoro": 7567,
      "Ġmask": 7568,
      "ĠdaÄŁÄ±tÄ±cÄ±": 7569,
      "ĠÄ±ÅŁÄ±ltÄ±": 7570,
      "Ġkurtarmak": 7571,
      "www": 7572,
      "Ġhepsi": 7573,
      "moothi": 7574,
      "ĠKrallÄ±k": 7575,
      "Ġahlaki": 7576,
      "ĠÅŁÃ¼pheli": 7577,
      "Ġrutin": 7578,
      "Ġsandaly": 7579,
      "ĠatasÃ¶zÃ¼": 7580,
      "lobal": 7581,
      "ĠSinir": 7582,
      "ĠÃ¶lÃ§eklenebilirlik": 7583,
      "ĠAlÄ±ÅŁ": 7584,
      "ĠFiil": 7585,
      "ĠMatematik": 7586,
      "ĠÃ¼rkÃ¼tÃ¼cÃ¼": 7587,
      "ĠTokyo": 7588,
      "SatÄ±r": 7589,
      "body": 7590,
      "cilerin": 7591,
      "eet": 7592,
      "gÄ±yÄ±": 7593,
      "mik": 7594,
      "mesinin": 7595,
      "ota": 7596,
      "pi": 7597,
      "veya": 7598,
      "Ġir": 7599,
      "Ä±st": 7600,
      "inference": 7601,
      "Ġbay": 7602,
      "Ġsenin": 7603,
      "ĠdÃ¼k": 7604,
      "Ġotor": 7605,
      "orb": 7606,
      "Ġpil": 7607,
      "Ġpal": 7608,
      "ĠÃ§ant": 7609,
      "ĠAlan": 7610,
      "yabilir": 7611,
      "isyonu": 7612,
      "bileceÄŁini": 7613,
      "Ġfrek": 7614,
      "Ġnadir": 7615,
      "ĠSenin": 7616,
      "ĠSÃ¶z": 7617,
      "Ġrak": 7618,
      "Ġcre": 7619,
      "ĠDin": 7620,
      "ĠDok": 7621,
      "ĠyapÄ±ldÄ±": 7622,
      "ĠoluÅŁturulan": 7623,
      "ĠGÄ±da": 7624,
      "ĠTaze": 7625,
      "afa": 7626,
      "ĠaÃ§Ä±n": 7627,
      "Ġmain": 7628,
      "ics": 7629,
      "Ġortan": 7630,
      "ĠFotoÄŁraf": 7631,
      "Ġbelirler": 7632,
      "ĠsÃ¼redir": 7633,
      "Ġekib": 7634,
      "ĠkaygÄ±": 7635,
      "masÄ±ndan": 7636,
      "ĠVeritab": 7637,
      "ukuk": 7638,
      "ihdam": 7639,
      "Ä±sÄ±nÄ±n": 7640,
      "Ġinsanlardan": 7641,
      "elerinizi": 7642,
      "ĠRisk": 7643,
      "Ġuygulanabilir": 7644,
      "ĠuygulanmasÄ±": 7645,
      "ĠtÃ¼rÃ¼ne": 7646,
      "acaÄŁÄ±": 7647,
      "Ġakar": 7648,
      "ign": 7649,
      "Ġistedi": 7650,
      "ĠAnahtar": 7651,
      "Ġduyguyu": 7652,
      "Ġizle": 7653,
      "Ġizlen": 7654,
      "ĠgÃ¶revlerin": 7655,
      "rand": 7656,
      "Ġyeme": 7657,
      "ĠSonra": 7658,
      "ladÄ±lar": 7659,
      "ĠZih": 7660,
      "Ġederiz": 7661,
      "abileceÄŁini": 7662,
      "Ġisraf": 7663,
      "Ġdurumun": 7664,
      "ĠWashington": 7665,
      "ĠÃ¶zelliklerine": 7666,
      "ĠeÄŁitmek": 7667,
      "ĠyangÄ±n": 7668,
      "Ġyemekleri": 7669,
      "Ġfaydalan": 7670,
      "ĠduygularÄ±nÄ±": 7671,
      "Ġkonusu": 7672,
      "ĠiÅŁlemlerini": 7673,
      "ĠÄ°ÅŁleme": 7674,
      "ĠdÃ¶nÃ¼ÅŁtÃ¼rmek": 7675,
      "ĠGenetik": 7676,
      "ĠfiyatlÄ±": 7677,
      "ĠfiyatlarÄ±": 7678,
      "ĠÃ¶ÄŁrencileri": 7679,
      "tinue": 7680,
      "ĠDoÄŁu": 7681,
      "Ġtamir": 7682,
      "Ġyapmadan": 7683,
      "ĠÃ§eviri": 7684,
      "ĠamaÃ§lar": 7685,
      "ĠÃĸÄŁrenciler": 7686,
      "Ġbeklenen": 7687,
      "ĠÃĸrnek": 7688,
      "parent": 7689,
      "result": 7690,
      "dÃ¼ÄŁÃ¼nÃ¼": 7691,
      "ĠzorundadÄ±r": 7692,
      "ĠyeteneÄŁidir": 7693,
      "ĠÃ§atÄ±": 7694,
      "Ġbenzerlik": 7695,
      "Ġselam": 7696,
      "Ġtepki": 7697,
      "istike": 7698,
      "ĠbileÅŁenleri": 7699,
      "ĠborÃ§": 7700,
      "ovid": 7701,
      "cription": 7702,
      "Ġsadakatini": 7703,
      "ĠKÃ¶pekler": 7704,
      "ĠProgramlama": 7705,
      "Ġdavetkar": 7706,
      "ĠheyecanlÄ±yÄ±m": 7707,
      "Ġampul": 7708,
      "Ġsoruml": 7709,
      "ĠÅŁeffaf": 7710,
      "Ġduyuyoruz": 7711,
      "ĠTarihi": 7712,
      "droid": 7713,
      "ĠKonuÅŁma": 7714,
      "ĠbazlÄ±": 7715,
      "ource": 7716,
      "Ġkolektif": 7717,
      "ĠMeyve": 7718,
      "Ġvitamin": 7719,
      "Ġatmosferi": 7720,
      "Ġnormalized": 7721,
      "ĠTamam": 7722,
      "ĠÅŁeklimizi": 7723,
      "ĠÃ¶mrÃ¼": 7724,
      "Ġesinti": 7725,
      "ĠÄ°htiya": 7726,
      "ĠOluÅŁtur": 7727,
      "setValue": 7728,
      "experts": 7729,
      "Ben": 7730,
      "Dataset": 7731,
      "Row": 7732,
      "YÄ°": 7733,
      "cinin": 7734,
      "class": 7735,
      "dayan": 7736,
      "ling": 7737,
      "nda": 7738,
      "pha": 7739,
      "tiÄŁiniz": 7740,
      "ulabilir": 7741,
      "}\\": 7742,
      "enÃ¼z": 7743,
      "enize": 7744,
      "andev": 7745,
      "antez": 7746,
      "ilemez": 7747,
      "Ġserin": 7748,
      "Ġstar": 7749,
      "Ġsoli": 7750,
      "Ġdiler": 7751,
      "Ġyerin": 7752,
      "lerim": 7753,
      "ĠhÃ¼cre": 7754,
      "Ä±rdÄ±": 7755,
      "Ġaj": 7756,
      "ulty": 7757,
      "emiz": 7758,
      "ĠÃ¶dev": 7759,
      "ĠÃ¶yle": 7760,
      "Ġment": 7761,
      "Ġpizza": 7762,
      "ĠpirinÃ§": 7763,
      "ĠAile": 7764,
      "ahtarÄ±": 7765,
      "Ġfind": 7766,
      "ames": 7767,
      "stats": 7768,
      "evk": 7769,
      "erince": 7770,
      "Ġkullanmaya": 7771,
      "layer": 7772,
      "layers": 7773,
      "Ġrezerv": 7774,
      "ĠKamp": 7775,
      "ĠDa": 7776,
      "ĠDayan": 7777,
      "cÄ±lÄ±ÄŁÄ±": 7778,
      "Ġantik": 7779,
      "ĠMas": 7780,
      "ÄŁretim": 7781,
      "Ġveriyor": 7782,
      "Ġediyorum": 7783,
      "ĠGec": 7784,
      "ĠGre": 7785,
      "ĠalÄ±cÄ±": 7786,
      "router": 7787,
      "Ġgeldiniz": 7788,
      "ĠEver": 7789,
      "ĠiÅŁleri": 7790,
      "ĠiÅŁver": 7791,
      "ĠOlay": 7792,
      "ĠbaÅŁlayarak": 7793,
      "iculty": 7794,
      "ĠCan": 7795,
      "Ġorada": 7796,
      "ĠFotosentez": 7797,
      "Ġbelirleme": 7798,
      "ĠsÃ¼rdÃ¼": 7799,
      "teacher": 7800,
      "Ġaza": 7801,
      "ĠNehri": 7802,
      "ĠkalÄ±p": 7803,
      "Ġdenem": 7804,
      "Ġdenge": 7805,
      "Ġbilgilere": 7806,
      "ĠLin": 7807,
      "ĠyerleÅŁ": 7808,
      "meta": 7809,
      "aclass": 7810,
      "ĠyakÄ±nda": 7811,
      "ĠyakÄ±lmasÄ±": 7812,
      "ĠkiÅŁiler": 7813,
      "Ġsistemlerini": 7814,
      "ĠAnlam": 7815,
      "ĠtarafÄ±": 7816,
      "Ġword": 7817,
      "Ġgetirebilir": 7818,
      "eceÄŁimiz": 7819,
      "ĠgÃ¶revlerini": 7820,
      "Ġadres": 7821,
      "ĠĠĠĠĠĠĠĠĠĠĠĠĠĠĠĠĠĠĠĠĠĠĠĠĠĠĠ": 7822,
      "ĠyÃ¼ksekliÄŁi": 7823,
      "\"))": 7824,
      "astgele": 7825,
      "ĠArk": 7826,
      "Ġileten": 7827,
      "ĠbilgisayarlarÄ±n": 7828,
      "ĠkolaylÄ±k": 7829,
      "ĠtahÄ±l": 7830,
      "Ġkitle": 7831,
      "ĠÃ§ekin": 7832,
      "update": 7833,
      "lakat": 7834,
      "ĠaraÃ§tÄ±r": 7835,
      "ĠsaÄŁlarlar": 7836,
      "Ġbask": 7837,
      "Ġmaliyetli": 7838,
      "ĠQF": 7839,
      "ĠÅŁirketi": 7840,
      "Ã¼yorum": 7841,
      "ĠartÄ±ÅŁÄ±": 7842,
      "ĠyaratÄ±cÄ±lÄ±k": 7843,
      "Ġmikro": 7844,
      "addItem": 7845,
      "ĠABC": 7846,
      "labilecek": 7847,
      "ĠEvcil": 7848,
      "Ġcontext": 7849,
      "ĠyaÄŁlÄ±": 7850,
      "Ġ},": 7851,
      "Ġifadesini": 7852,
      "ĠDoÄŁa": 7853,
      "Ġmedyada": 7854,
      "Ġstat": 7855,
      "Ġbirbirlerine": 7856,
      "ĠrahatsÄ±z": 7857,
      "ĠkullanÄ±rlar": 7858,
      "Ġkutup": 7859,
      "lÄ±yorum": 7860,
      "ĠrobotlarÄ±n": 7861,
      "luÄŁa": 7862,
      "resh": 7863,
      "Ġkeyifle": 7864,
      "etrol": 7865,
      "ĠÃ¶dÃ¼ller": 7866,
      "Ġbozuk": 7867,
      "field": 7868,
      "ĠSevinÃ§": 7869,
      "Ġtalimatlar": 7870,
      "Ġromantik": 7871,
      "ĠSayÄ±n": 7872,
      "Ġavokado": 7873,
      "ĠĠĠĠĠĠĠĠĠĠĠĠĠ": 7874,
      "Ġkanal": 7875,
      "ĠyansÄ±t": 7876,
      "ĠÅŁehrin": 7877,
      "ĠdÃ¼zenlemeler": 7878,
      "ĠYaklaÅŁ": 7879,
      "Ġmemnuniyetini": 7880,
      "ĠharcamalarÄ±": 7881,
      "ĠtanÄ±yarak": 7882,
      "Ġimalat": 7883,
      "Ġtyping": 7884,
      "ĠyazarÄ±n": 7885,
      "ĠUluslararasÄ±": 7886,
      "ĠBitki": 7887,
      "Ġekipman": 7888,
      "ĠÃ¼niversite": 7889,
      "Ġdeyim": 7890,
      "ĠÃ¶mÃ¼r": 7891,
      "Ġmeyveler": 7892,
      "ĠÃ§Ã¶k": 7893,
      "elaket": 7894,
      "ĠTatlÄ±": 7895,
      "ĠasistanÄ±": 7896,
      "engine": 7897,
      "ĠaltyapÄ±": 7898,
      "click": 7899,
      "ĠTesla": 7900,
      "Ġkalacak": 7901,
      "inoa": 7902,
      "ĠorganizmalarÄ±n": 7903,
      "Result": 7904,
      "ĠÄ°yileÅŁtirilmiÅŁ": 7905,
      "ĠÃľnlÃ¼": 7906,
      "22": 7907,
      "RA": 7908,
      "cm": 7909,
      "cusu": 7910,
      "cess": 7911,
      "eam": 7912,
      "fa": 7913,
      "gÃ¼l": 7914,
      "mesinde": 7915,
      "ner": 7916,
      "raki": 7917,
      "tasÄ±": 7918,
      "ui": 7919,
      "Ä±cÄ±nÄ±n": 7920,
      "arÄ±nda": 7921,
      "iliyor": 7922,
      "Ġsaf": 7923,
      "madÄ±": 7924,
      "Ġyin": 7925,
      "eter": 7926,
      "Ã¶mer": 7927,
      "Ġtaki": 7928,
      "lerimizi": 7929,
      "lear": 7930,
      "ikip": 7931,
      "ayarak": 7932,
      "oni": 7933,
      "ater": 7934,
      "org": 7935,
      "ĠBer": 7936,
      "ĠBah": 7937,
      "Ġoluyor": 7938,
      "ĠÃ§ab": 7939,
      "ahh": 7940,
      "iyon": 7941,
      "Ġfavori": 7942,
      "old": 7943,
      "ĠÅŁeye": 7944,
      "ĠÅŁikay": 7945,
      "ĠKod": 7946,
      "ĠcoÄŁraf": 7947,
      "lamalÄ±": 7948,
      "lÄ±klÄ±": 7949,
      "Ġalfab": 7950,
      "ĠTam": 7951,
      "ĠTÃ¼k": 7952,
      "Ġinc": 7953,
      "Ġ28": 7954,
      "ĠgÃ¶rÃ¼r": 7955,
      "ĠOy": 7956,
      "ĠOda": 7957,
      "ĠValue": 7958,
      "ĠaylÄ±k": 7959,
      "ical": 7960,
      "ĠsÃ¼rer": 7961,
      "Ġpromos": 7962,
      "Ġbulan": 7963,
      "Ġekleyerek": 7964,
      "lerinize": 7965,
      "ĠkaldÄ±m": 7966,
      "Ġdenetimli": 7967,
      "ĠolduÄŁunuz": 7968,
      "ĠiÃ§erecektir": 7969,
      "Ġkole": 7970,
      "ĠRek": 7971,
      "ĠRus": 7972,
      "ĠRastgele": 7973,
      "ĠLis": 7974,
      "ĠhakkÄ±ndadÄ±r": 7975,
      "Ġyerli": 7976,
      "ĠgeÃ§in": 7977,
      "ĠyÃ¼klen": 7978,
      "ĠgeliÅŁtirmelerine": 7979,
      "Ġyaratma": 7980,
      "Ġsistemini": 7981,
      "Ġsuper": 7982,
      "Ġseven": 7983,
      "ĠsayÄ±sÄ±z": 7984,
      "Ġarada": 7985,
      "Ġdeneyimli": 7986,
      "edia": 7987,
      "sÄ±zÄ±n": 7988,
      "ĠÅŀek": 7989,
      "ĠdÃ¼ÅŁÃ¼nmek": 7990,
      "ĠgÃ¶sterdi": 7991,
      "setup": 7992,
      "ĠÃ¼retilen": 7993,
      "ĠkolaydÄ±r": 7994,
      "ĠEnd": 7995,
      "ĠkeÅŁfi": 7996,
      "Ġhedeflere": 7997,
      "Ġdeneyimleri": 7998,
      "ĠiÅŁlemi": 7999,
      "Ġtesti": 8000,
      "ĠdeÄŁerlendirme": 8001,
      "ĠpiÅŁmiÅŁ": 8002,
      "ĠolasÄ±lÄ±ÄŁÄ±nÄ±": 8003,
      "ĠkoÅŁu": 8004,
      "ĠkiÅŁidir": 8005,
      "losuz": 8006,
      "ubu": 8007,
      "ĠkahvaltÄ±": 8008,
      "ĠgÃ¶rÃ¼ntÃ¼leme": 8009,
      "ĠormansÄ±z": 8010,
      "ĠdÃ¼nyasÄ±nda": 8011,
      "ĠadamlarÄ±": 8012,
      "ĠdavranÄ±ÅŁÄ±nÄ±": 8013,
      "Ġinceleme": 8014,
      "ĠkarÄ±ÅŁtÄ±rarak": 8015,
      "ĠÃĸzg": 8016,
      "ĠCÃ¼mlede": 8017,
      "ĠÃ§iftÃ§": 8018,
      "Ġkucak": 8019,
      "ĠtalimatlarÄ±": 8020,
      "ĠanlayÄ±ÅŁÄ±": 8021,
      "ĠiÅŁletmelere": 8022,
      "ĠdÃ¶ngÃ¼s": 8023,
      "Ġcanav": 8024,
      "abled": 8025,
      "ĠÃ¶rgÃ¼t": 8026,
      "ĠkaynaÄŁÄ±dÄ±r": 8027,
      "Ġgiyim": 8028,
      "ĠÃ¼yeleri": 8029,
      "Ġsunulan": 8030,
      "ĠYakÄ±n": 8031,
      "Ġbildirin": 8032,
      "ĠgÃ¶rÃ¼lmemiÅŁ": 8033,
      "ĠyÃ¼rÃ¼yÃ¼ÅŁe": 8034,
      "ĠhayranlÄ±kla": 8035,
      "Ġkokusu": 8036,
      "ĠIII": 8037,
      "generate": 8038,
      "Ġmahk": 8039,
      "ĠParagraf": 8040,
      "Ġsonucunu": 8041,
      "ĠKuantum": 8042,
      "Ġkurgusal": 8043,
      "Ã¼nÃ¼zÃ¼": 8044,
      "ĠyapÄ±landÄ±rÄ±lmÄ±ÅŁ": 8045,
      "patterns": 8046,
      "ĠkÄ±vr": 8047,
      "ĠTÃ¼rk": 8048,
      "Ġaskeri": 8049,
      "ĠnÃ¶ron": 8050,
      "ĠProfesÃ¶r": 8051,
      "ĠdiÄŁerine": 8052,
      "ĠCalifornia": 8053,
      "ĠÃľniversitesi": 8054,
      "Ġdiyabet": 8055,
      "documents": 8056,
      "ĠKadÄ±n": 8057,
      "Ġsofistike": 8058,
      "ĠAlÄ±ÅŁver": 8059,
      "Ġsolid": 8060,
      "Ã¶mert": 8061,
      "ikipedia": 8062,
      "Ġpromosyon": 8063,
      "48": 8064,
      "63": 8065,
      "EY": 8066,
      "Mo": 8067,
      "Num": 8068,
      "ST": 8069,
      "Th": 8070,
      "ausal": 8071,
      "ila": 8072,
      "kulu": 8073,
      "mÃ¼r": 8074,
      "messa": 8075,
      "source": 8076,
      "tÄ±nÄ±n": 8077,
      "tÃ¼lÃ¼": 8078,
      "zer": 8079,
      "Ã©": 8080,
      "ÅŁek": 8081,
      "Ġbinlerce": 8082,
      "arna": 8083,
      "Ġdisk": 8084,
      "ella": 8085,
      "ĠyÄ±lÄ±": 8086,
      "ekt": 8087,
      "Ġbirimi": 8088,
      "Ġgide": 8089,
      "Ġth": 8090,
      "alel": 8091,
      "ĠBunu": 8092,
      "ĠBlockchain": 8093,
      "izasyon": 8094,
      "Ġoldum": 8095,
      "Ġpek": 8096,
      "Ġfar": 8097,
      "ĠnÃ¶tr": 8098,
      "ĠnÃ¼kleer": 8099,
      "status": 8100,
      "ĠarÄ±yor": 8101,
      "ĠSeyahat": 8102,
      "umanÄ±n": 8103,
      "ĠKek": 8104,
      "ĠKesin": 8105,
      "dirler": 8106,
      "ĠgÃ¶ÄŁ": 8107,
      "Ġcam": 8108,
      "Ġzevk": 8109,
      "aday": 8110,
      "ĠDiÅŁ": 8111,
      "azz": 8112,
      "ĠkarÄ±n": 8113,
      "ĠyapÄ±mÄ±": 8114,
      "ĠGit": 8115,
      "ĠTV": 8116,
      "ĠTanÄ±": 8117,
      "ĠTaÅŁÄ±": 8118,
      "ĠÃ¶nÃ¼mÃ¼zdeki": 8119,
      "ĠHid": 8120,
      "ilerek": 8121,
      "ĠyazdÄ±": 8122,
      "ĠyazÄ±cÄ±": 8123,
      "ĠPop": 8124,
      "ĠCovid": 8125,
      "ĠolaÄŁanÃ¼stÃ¼": 8126,
      "ĠzamanÄ±n": 8127,
      "iff": 8128,
      "Ġhayali": 8129,
      "Ġkaya": 8130,
      "ĠÅŁekillerde": 8131,
      "ĠgÃ¼nde": 8132,
      "Ġyolda": 8133,
      "masyonu": 8134,
      "Ġsorunun": 8135,
      "elimli": 8136,
      "ĠgÃ¼v": 8137,
      "Ġkurs": 8138,
      "ĠkurmasÄ±na": 8139,
      "Ġkoord": 8140,
      "ĠÃ§alÄ±ÅŁmanÄ±n": 8141,
      "ĠLim": 8142,
      "Ġyerini": 8143,
      "ĠyaÅŁa": 8144,
      "ĠtÃ¼rde": 8145,
      "ĠgeliÅŁtirilmesine": 8146,
      "ĠyaratÄ±": 8147,
      "igara": 8148,
      "ĠzorlaÅŁtÄ±r": 8149,
      "ĠduyarlÄ±": 8150,
      "Ġsevg": 8151,
      "entsel": 8152,
      "ĠazaltÄ±lmasÄ±": 8153,
      "Ġsunul": 8154,
      "ĠkararlarÄ±": 8155,
      "ĠgÃ¶revlere": 8156,
      "Ġetmelidir": 8157,
      "Ġ80": 8158,
      "ĠyÃ¼ksektir": 8159,
      "ĠÅŀarkÄ±": 8160,
      "ĠprogramÄ±n": 8161,
      "Ġuzunluk": 8162,
      "ĠWord": 8163,
      "Ġteknolojiyi": 8164,
      "ebilme": 8165,
      "ĠÃ¶ÄŁenin": 8166,
      "Ġtemelli": 8167,
      "Ä±nÄ±zda": 8168,
      "ĠgÃ¶zleri": 8169,
      "Ġsahiptirler": 8170,
      "ĠQS": 8171,
      "Ġkritik": 8172,
      "ĠiÅŁlemler": 8173,
      "ĠtamamlanmasÄ±": 8174,
      "ĠTekrar": 8175,
      "Ġhash": 8176,
      "ĠeriÅŁmek": 8177,
      "Ġenerjiyi": 8178,
      "ĠavantajÄ±nÄ±": 8179,
      "Ġprojesi": 8180,
      "ĠpaylaÅŁÄ±m": 8181,
      "Ġyasak": 8182,
      "Ġstate": 8183,
      "ĠgÃ¶kyÃ¼zÃ¼nÃ¼": 8184,
      "ĠÃ¼stesinden": 8185,
      "luÄŁunu": 8186,
      "Ġje": 8187,
      "Ġayarlamak": 8188,
      "ĠsanatÃ§Ä±": 8189,
      "Ġbahsed": 8190,
      "board": 8191,
      "ĠfaktÃ¶rleri": 8192,
      "ĠbaÅŁarÄ±yla": 8193,
      "ĠyÄ±ldÄ±zlarÄ±": 8194,
      "duÄŁunuz": 8195,
      "ĠbÄ±rakÄ±n": 8196,
      "ĠkullanÄ±labileceÄŁini": 8197,
      "Ġbildirimlerini": 8198,
      "ĠOkyanusu": 8199,
      "Ġbecerilerine": 8200,
      "ĠYarÄ±n": 8201,
      "ĠTemmuz": 8202,
      "Ġetkileyebilir": 8203,
      "ĠsÃ¼tÃ¼": 8204,
      "ĠyalnÄ±zca": 8205,
      "ĠInc": 8206,
      "ages": 8207,
      "Ġsekiz": 8208,
      "Ġdoldurun": 8209,
      "Ġplajda": 8210,
      "ĠoluÅŁturulur": 8211,
      "ÄŁÄ±mda": 8212,
      "ĠyÃ¼zyÄ±lda": 8213,
      "ĠKoronavirÃ¼s": 8214,
      "ĠSorun": 8215,
      "ĠGÃ¶revleri": 8216,
      "ĠmutfaÄŁÄ±": 8217,
      "ĠbankacÄ±lÄ±k": 8218,
      "ĠvÃ¼cud": 8219,
      "Ġoptimizasyonu": 8220,
      "ropikal": 8221,
      "ĠAÄŁaÃ§lar": 8222,
      "ĠYaÅŁlÄ±": 8223,
      "Ġnesil": 8224,
      "leÄŁen": 8225,
      "ĠÅŁahÄ±s": 8226,
      "Ġadresi": 8227,
      "Ġoynamak": 8228,
      "ĠHafif": 8229,
      "ĠMÃ¼hend": 8230,
      "ĠPasif": 8231,
      "Ġzamir": 8232,
      "ĠNokta": 8233,
      "ĠolduÄŁunca": 8234,
      "Ġconversations": 8235,
      "ĠsÃ¶zdiz": 8236,
      "ĠFaydalarÄ±": 8237,
      "ĠLezzetli": 8238,
      "Ġtavada": 8239,
      "ĠsÃ¶zcÃ¼k": 8240,
      "moothie": 8241,
      "Ä±stÄ±k": 8242,
      "Ġortanca": 8243,
      "ĠArktik": 8244,
      "messages": 8245,
      "Di": 8246,
      "EO": 8247,
      "FA": 8248,
      "For": 8249,
      "GÃ¼n": 8250,
      "Manager": 8251,
      "Note": 8252,
      "alak": 8253,
      "deri": 8254,
      "gÄ±sÄ±": 8255,
      "not": 8256,
      "rik": 8257,
      "sort": 8258,
      "tiÄŁinde": 8259,
      "total": 8260,
      "err": 8261,
      "ilecek": 8262,
      "Ġsey": 8263,
      "Ġsent": 8264,
      "Ġdim": 8265,
      "Ġdam": 8266,
      "Ġdip": 8267,
      "Ġdtype": 8268,
      "Ġiken": 8269,
      "ektÃ¶r": 8270,
      "Ġgayri": 8271,
      "Ġom": 8272,
      "Ġop": 8273,
      "akk": 8274,
      "Ġtonu": 8275,
      "Ġtez": 8276,
      "Ġtuv": 8277,
      "landÄ±ÄŁÄ±": 8278,
      "orat": 8279,
      "ĠBas": 8280,
      "emesi": 8281,
      "ĠÃ¶ÄŁretim": 8282,
      "Ġpad": 8283,
      "ĠÃ§it": 8284,
      "ĠAc": 8285,
      "ĠAm": 8286,
      "Ġfelsef": 8287,
      "Ġnakit": 8288,
      "style": 8289,
      "ĠSana": 8290,
      "Ã¼mÃ¼ÅŁ": 8291,
      "Ä±lmaya": 8292,
      "ĠDevrim": 8293,
      "ĠanahtarÄ±": 8294,
      "ĠMor": 8295,
      "ĠMart": 8296,
      "iÄŁinden": 8297,
      "Ġverdiler": 8298,
      "ĠGar": 8299,
      "Ġalev": 8300,
      "ĠTeor": 8301,
      "ĠYazar": 8302,
      "ĠÃ¶nde": 8303,
      "ĠHata": 8304,
      "ĠgÃ¶rk": 8305,
      "ĠEinst": 8306,
      "div": 8307,
      "ilerde": 8308,
      "ĠiÅŁsizlik": 8309,
      "aÄŁÄ±dÄ±": 8310,
      "ĠPeyn": 8311,
      "icinin": 8312,
      "Ġolanlar": 8313,
      "Ã¼llÃ¼": 8314,
      "Ġiyisini": 8315,
      "ĠNehir": 8316,
      "Ġeks": 8317,
      "Ġekle": 8318,
      "ĠekÅŁi": 8319,
      "lerindeki": 8320,
      "ecekleri": 8321,
      "Ã¶rÃ¼n": 8322,
      "ĠkurmalarÄ±na": 8323,
      "Ġkelimeye": 8324,
      "ĠolmadÄ±": 8325,
      "Ġyerlerde": 8326,
      "ĠdÃ¼ÅŁman": 8327,
      "ĠtasarÄ±": 8328,
      "ĠcÃ¼mleden": 8329,
      "ĠdiÄŁerleriyle": 8330,
      "ĠondalÄ±k": 8331,
      "Ġkorur": 8332,
      "ĠdÃ¼zenlen": 8333,
      "ĠtanÄ±mlar": 8334,
      "Ġizlem": 8335,
      "reak": 8336,
      "ĠdeÄŁiÅŁebilir": 8337,
      "Ġyeterince": 8338,
      "Ġetmesi": 8339,
      "ĠIP": 8340,
      "ĠkapalÄ±": 8341,
      "ĠkapatÄ±n": 8342,
      "obik": 8343,
      "ĠArab": 8344,
      "ĠyÃ¶netilebilir": 8345,
      "Ġoyuncak": 8346,
      "Ġhedefi": 8347,
      "Ġanagram": 8348,
      "Ġfaydalar": 8349,
      "lÄ±ÄŁÄ±ndan": 8350,
      "quick": 8351,
      "Ġkronik": 8352,
      "Ġkonusundaki": 8353,
      "Ġdestekleyen": 8354,
      "ĠÄ°ÅŁbir": 8355,
      "ĠoluÅŁturmaktÄ±r": 8356,
      "Ġsorunlar": 8357,
      "ĠsorunlarÄ±nÄ±": 8358,
      "ĠeÅŁyalarÄ±": 8359,
      "ĠMakin": 8360,
      "ĠetkileÅŁimi": 8361,
      "Ġkarakterize": 8362,
      "Ġkira": 8363,
      "Ġeseri": 8364,
      "ĠkÃ¼melerini": 8365,
      "ĠmeraklÄ±": 8366,
      "Ġkodun": 8367,
      "Ġverirken": 8368,
      "ĠpaylaÅŁmak": 8369,
      "ĠetkileÅŁimini": 8370,
      "ĠodaklanÄ±n": 8371,
      "ĠsaÄŁlamalÄ±dÄ±r": 8372,
      "Ġoynar": 8373,
      "ĠSaÄŁlÄ±kta": 8374,
      "Ġchunk": 8375,
      "ĠParlak": 8376,
      "Ġokumak": 8377,
      "ĠKalb": 8378,
      "ĠÄ°Ã§eri": 8379,
      "ĠarayÄ±n": 8380,
      "Ġtercihlerini": 8381,
      "Ġpattern": 8382,
      "ĠdÃ¼ÅŁÃ¼nceli": 8383,
      "ĠVegan": 8384,
      "Ġilerlemeler": 8385,
      "Ġbelirtilen": 8386,
      "ĠyapabileceÄŁi": 8387,
      "Ġnereye": 8388,
      "Ġvideolar": 8389,
      "ĠTemsil": 8390,
      "Ġmilyondan": 8391,
      "Ġmuhaseb": 8392,
      "ĠÄ°nternetin": 8393,
      "ĠcanlandÄ±r": 8394,
      "Ġkaydet": 8395,
      "ĠÃ¶lÃ§ekte": 8396,
      "ĠInsta": 8397,
      "Ġkilit": 8398,
      "Ġquestion": 8399,
      "ĠÅŁehr": 8400,
      "ĠGerÃ§ekten": 8401,
      "ĠÅŁimdiki": 8402,
      "ĠyÄ±kÄ±cÄ±": 8403,
      "ĠÃ§apraz": 8404,
      "ĠkarÄ±ÅŁÄ±m": 8405,
      "ĠpolitikalarÄ±": 8406,
      "ĠKorku": 8407,
      "Ġmasraf": 8408,
      "Ġyorgunluk": 8409,
      "ĠÄ°spanya": 8410,
      "ĠtarÄ±msal": 8411,
      "ĠDeÄŁiÅŁikliÄŁi": 8412,
      "Array": 8413,
      "Ġejderh": 8414,
      "Ġfitness": 8415,
      "Ġkasabada": 8416,
      "Ġtavsiyeler": 8417,
      "Ġderinliklerinde": 8418,
      "ĠHavuÃ§": 8419,
      "ĠPazarlama": 8420,
      "ĠDÄ±ÅŁarÄ±": 8421,
      "ĠÃ§Ä±tÄ±r": 8422,
      "Ġedebiyat": 8423,
      "Ġvanilya": 8424,
      "Ġdramatik": 8425,
      "ĠGeze": 8426,
      "EÄŁitim": 8427,
      "ĠhayvanÄ±": 8428,
      "ĠbÃ¼yÃ¼yen": 8429,
      "Ġfincan": 8430,
      "Ġmezun": 8431,
      "ĠrendelenmiÅŁ": 8432,
      "ĠChatbot": 8433,
      "ĠAlÄ±ÅŁveriÅŁ": 8434,
      "ĠEinstein": 8435,
      "ĠInstagram": 8436,
      "')": 8437,
      "Al": 8438,
      "DE": 8439,
      "None": 8440,
      "UL": 8441,
      "``": 8442,
      "bel": 8443,
      "bise": 8444,
      "cileri": 8445,
      "din": 8446,
      "gest": 8447,
      "keli": 8448,
      "nam": 8449,
      "oin": 8450,
      "oya": 8451,
      "pad": 8452,
      "simize": 8453,
      "task": 8454,
      "veti": 8455,
      "wn": 8456,
      "warning": 8457,
      "ĠÄ±r": 8458,
      "ÅŁÄ±r": 8459,
      "Ġbeyin": 8460,
      "Ġbizim": 8461,
      "ily": 8462,
      "Ġvakit": 8463,
      "ĠdÄ±ÅŁÄ±": 8464,
      "Ġgri": 8465,
      "Ġob": 8466,
      "aktif": 8467,
      "lection": 8468,
      "Ġhaiku": 8469,
      "ĠhenÃ¼z": 8470,
      "ĠBiy": 8471,
      "ĠBeyaz": 8472,
      "emedi": 8473,
      "asla": 8474,
      "Ġport": 8475,
      "Ġpembe": 8476,
      "def": 8477,
      "bility": 8478,
      "itler": 8479,
      "Ġfelaket": 8480,
      "ĠaralÄ±k": 8481,
      "ĠkullanÄ±lmasÄ±": 8482,
      "ectory": 8483,
      "ĠDr": 8484,
      "ĠDize": 8485,
      "Ġ---": 8486,
      "ĠMah": 8487,
      "Ġkare": 8488,
      "ĠyapÄ±lmasÄ±": 8489,
      "ĠGrup": 8490,
      "ĠHal": 8491,
      "ĠHasta": 8492,
      "Ġ27": 8493,
      "ĠgelmiÅŁtir": 8494,
      "istal": 8495,
      "istiksel": 8496,
      "amanÄ±n": 8497,
      "Ġayda": 8498,
      "eff": 8499,
      "ĠaÃ§Ä±klar": 8500,
      "Ġzamandan": 8501,
      "ĠtanÄ±ÅŁ": 8502,
      "ĠsÃ¼rÃ¼c": 8503,
      "ĠNot": 8504,
      "leriniz": 8505,
      "ĠyardÄ±mÄ±yla": 8506,
      "Ġdepart": 8507,
      "ĠatayÄ±n": 8508,
      "ĠRuh": 8509,
      "ĠRestor": 8510,
      "Ġkonular": 8511,
      "ĠkonuÅŁtu": 8512,
      "Ġkelimelerini": 8513,
      "ĠdÃ¶nÃ¼k": 8514,
      "ĠyaÅŁardÄ±": 8515,
      "Ä±yorlar": 8516,
      "Ġgetattr": 8517,
      "Ġistihdam": 8518,
      "Ġdilleri": 8519,
      "Ġtasarlamak": 8520,
      "Ġerim": 8521,
      "tool": 8522,
      "Ġetmem": 8523,
      "Ġetmeden": 8524,
      "ĠuygulamalarÄ±n": 8525,
      "ĠuygulamayÄ±": 8526,
      "(\"<|": 8527,
      "Ġetkilemek": 8528,
      "context": 8529,
      "ĠyÃ¼ze": 8530,
      "astik": 8531,
      "pty": 8532,
      "Ġolurlar": 8533,
      "ĠplanlarÄ±": 8534,
      "Ġsaniye": 8535,
      "Ġkitleye": 8536,
      "ĠÃ§eÅŁitliliÄŁi": 8537,
      "ĠÃ§eÅŁitliliÄŁ": 8538,
      "Ġmakalesini": 8539,
      "ĠdikdÃ¶rt": 8540,
      "ĠyanÄ±l": 8541,
      "ĠÃ¶zelleÅŁtirilmiÅŁ": 8542,
      "Ġkabar": 8543,
      "Ġkabak": 8544,
      "imizden": 8545,
      "ĠÃ¼lkelerin": 8546,
      "Ġdiziyi": 8547,
      "Ġdizisini": 8548,
      "uvarÄ±": 8549,
      "ĠsaÄŁlamaktÄ±r": 8550,
      "ĠmedyanÄ±n": 8551,
      "addRow": 8552,
      "ĠGeniÅŁ": 8553,
      "Ġseviyelerine": 8554,
      "Ġnesneler": 8555,
      "Ġnesnelerin": 8556,
      "ĠtavÅŁan": 8557,
      "perty": 8558,
      "ĠanlamalarÄ±na": 8559,
      "dÄ±klarÄ±nÄ±": 8560,
      "ĠendÃ¼stride": 8561,
      "ĠsoÄŁu": 8562,
      "Ġodaklanmak": 8563,
      "ĠortalamasÄ±": 8564,
      "ĠDenetimli": 8565,
      "ĠÃľÃ§Ã¼ncÃ¼": 8566,
      "ĠtaÅŁÄ±r": 8567,
      "bert": 8568,
      "ĠaraÅŁtÄ±rmalar": 8569,
      "ĠkÄ±zart": 8570,
      "Ġincelemek": 8571,
      "ĠdÄ±ÅŁÄ±nda": 8572,
      "Ġhaberleri": 8573,
      "ĠarayÄ±ÅŁ": 8574,
      "ĠiÅŁlevi": 8575,
      "Ġderecelendir": 8576,
      "ĠAÄŁÄ±r": 8577,
      "Ġverilerine": 8578,
      "Ġetkinlikler": 8579,
      "Ġtehlike": 8580,
      "Ġboyutlu": 8581,
      "Ġboyutunu": 8582,
      "ĠkullanÄ±lma": 8583,
      "ĠBilgisayarlar": 8584,
      "ĠKontrol": 8585,
      "ĠTemiz": 8586,
      "Ġedilmesine": 8587,
      "languages": 8588,
      "Ġailesi": 8589,
      "ache": 8590,
      "larÄ±nÄ±zÄ±n": 8591,
      "ĠHikayenin": 8592,
      "Ġherkese": 8593,
      "ĠsaÄŁladÄ±ÄŁÄ±": 8594,
      "ĠanlatÄ±": 8595,
      "Ġkoyu": 8596,
      "ĠbotlarÄ±": 8597,
      "ĠhayranlÄ±k": 8598,
      "Ġhamur": 8599,
      "ĠsaÄŁlamÄ±ÅŁtÄ±r": 8600,
      "Ġduyuyorum": 8601,
      "Ġbazen": 8602,
      "++)": 8603,
      "ĠfÄ±rtÄ±nasÄ±": 8604,
      "ĠbaÅŁkent": 8605,
      "ĠbasÄ±nÃ§": 8606,
      "patibility": 8607,
      "ĠmantÄ±ksal": 8608,
      "deÄŁer": 8609,
      "ĠgÃ¶vd": 8610,
      "String": 8611,
      "ĠaÃ§Ä±lÄ±ÅŁ": 8612,
      "ĠgerÃ§eÄŁi": 8613,
      "ĠoynamayÄ±": 8614,
      "ĠvirgÃ¼l": 8615,
      "ĠimkansÄ±z": 8616,
      "ĠÃ§Ä±rpÄ±n": 8617,
      "Ġufuk": 8618,
      "Ġnavigasyon": 8619,
      "ĠToolResult": 8620,
      "ĠTipik": 8621,
      "Ġfrekans": 8622,
      "ĠDayanÄ±klÄ±": 8623,
      "Dialog": 8624,
      "SYÄ°": 8625,
      "]]:": 8626,
      "float": 8627,
      "galar": 8628,
      "ii": 8629,
      "kaha": 8630,
      "lr": 8631,
      "tÃ¼n": 8632,
      "ug": 8633,
      "xy": 8634,
      "yer": 8635,
      "yÃ¼k": 8636,
      "}\"": 8637,
      "ĠÄ±z": 8638,
      "Ġlab": 8639,
      "Ġloss": 8640,
      "Ä±v": 8641,
      "ladÄ±m": 8642,
      "erobik": 8643,
      "Ġbadem": 8644,
      "iliÄŁini": 8645,
      "Ġker": 8646,
      "Ġdel": 8647,
      "eleyin": 8648,
      "Ġgr": 8649,
      "Ġod": 8650,
      "Ġala": 8651,
      "ĠÃ¶de": 8652,
      "Ġpetrol": 8653,
      "Ä±mÄ±n": 8654,
      "Ġard": 8655,
      "Ġarazi": 8656,
      "Ã¼mler": 8657,
      "Ġrandev": 8658,
      "ĠKart": 8659,
      "mekten": 8660,
      "uyum": 8661,
      "ĠMaliyet": 8662,
      "lamalar": 8663,
      "ĠGala": 8664,
      "ĠalmasÄ±na": 8665,
      "ĠTay": 8666,
      "ĠTart": 8667,
      "ĠYou": 8668,
      "Ġgelebilir": 8669,
      "tÄ±ÄŁÄ±": 8670,
      "tre": 8671,
      "tral": 8672,
      "ĠVan": 8673,
      "ĠCo": 8674,
      "Ã¼lmesi": 8675,
      "ĠFor": 8676,
      "ĠFit": 8677,
      "ĠsÃ¼ren": 8678,
      "Ġbuild": 8679,
      "Ġhayata": 8680,
      "Ġeklem": 8681,
      "ĠkalmasÄ±na": 8682,
      "ersin": 8683,
      "Ġsonuna": 8684,
      "ĠiÃ§erecek": 8685,
      "ĠRap": 8686,
      "Ġbilge": 8687,
      "ĠÃ§alÄ±ÅŁkan": 8688,
      "amadÄ±": 8689,
      "ĠdÃ¼ÅŁen": 8690,
      "Ġmaksimize": 8691,
      "ĠuygulamanÄ±n": 8692,
      "ĠnasÄ±lsÄ±n": 8693,
      "Ġmetod": 8694,
      "ĠdiÄŁerleri": 8695,
      "Ġdilini": 8696,
      "ĠtarafÄ±nda": 8697,
      "Ġhizmetlere": 8698,
      "uÅŁu": 8699,
      "Ġkontr": 8700,
      "target": 8701,
      "ĠdeÄŁiÅŁk": 8702,
      "ĠÃľst": 8703,
      "ĠÅŁeydir": 8704,
      "Ġaslan": 8705,
      "ĠkÃ¶prÃ¼": 8706,
      "ayana": 8707,
      "Ġevin": 8708,
      "ĠgÃ¶rÃ¼nen": 8709,
      "Ġplanda": 8710,
      "Ġteknolojiye": 8711,
      "Ġbenzin": 8712,
      "Ġtakv": 8713,
      "ĠdeÄŁiÅŁtirme": 8714,
      "Ġkabuk": 8715,
      "Ġsoruya": 8716,
      "Ġdizeyi": 8717,
      "lÄ±ÄŁÄ±mÄ±zÄ±": 8718,
      "ĠiliÅŁkin": 8719,
      "Ġkriz": 8720,
      "Ġdevlet": 8721,
      "ĠeÅŁleÅŁ": 8722,
      "ĠHayal": 8723,
      "ĠsÄ±ralamak": 8724,
      "ĠpaydaÅŁ": 8725,
      "ĠeÄŁitimin": 8726,
      "ĠEvr": 8727,
      "Ġcontinue": 8728,
      "ĠiyileÅŁtirme": 8729,
      "ĠiyileÅŁtirebilir": 8730,
      "ĠolasÄ±lÄ±k": 8731,
      "Ġsavunu": 8732,
      "ĠkÃ¼mesinde": 8733,
      "ĠSaÄŁlanan": 8734,
      "Ġifadeler": 8735,
      "Ġmemel": 8736,
      "Ġdinlemek": 8737,
      "Ġdinlenme": 8738,
      "ĠuÃ§lu": 8739,
      "ĠsÃ¶yl": 8740,
      "ĠsÃ¶ylem": 8741,
      "dÄ±kÃ§a": 8742,
      "ubble": 8743,
      "ĠkonuÅŁmalar": 8744,
      "ĠtopluluÄŁ": 8745,
      "Ġdikkatlice": 8746,
      "ĠetkileÅŁime": 8747,
      "ĠeriÅŁimini": 8748,
      "ĠormanÄ±": 8749,
      "Ġortamda": 8750,
      "ĠkÃ¼ltÃ¼rleri": 8751,
      "ĠmÃ¼zak": 8752,
      "ĠsaÄŁlayabilirler": 8753,
      "ĠparÃ§alarÄ±nÄ±": 8754,
      "ĠbÃ¶lgedeki": 8755,
      "Ġincelen": 8756,
      "ĠÃ¶ÄŁretmek": 8757,
      "Ġfaiz": 8758,
      "ĠiÅŁaretleri": 8759,
      "ĠKaliforni": 8760,
      "duÄŁum": 8761,
      "ĠtakÄ±mÄ±n": 8762,
      "ĠEtkil": 8763,
      "Ġtercihlerine": 8764,
      "Ġmaceraya": 8765,
      "larÄ±mÄ±zla": 8766,
      "Ġmargin": 8767,
      "property": 8768,
      "ĠtartÄ±ÅŁan": 8769,
      "ĠAslan": 8770,
      "Ġedilmesini": 8771,
      "Ġunsuru": 8772,
      "Ġfonksiyonu": 8773,
      "Ġsiyaset": 8774,
      "ĠunutmayÄ±n": 8775,
      "Ġtedaviler": 8776,
      "Ġmilyonlarca": 8777,
      "Ġresimler": 8778,
      "Ġonunla": 8779,
      "ĠBaÄŁlantÄ±": 8780,
      "Ġyakalamak": 8781,
      "ĠRobotik": 8782,
      "Ġumutsuz": 8783,
      "Ġ2017": 8784,
      "Ġ2018": 8785,
      "ĠdaÄŁÄ±tÄ±lmÄ±ÅŁ": 8786,
      "Ġbelirlemeye": 8787,
      "ĠMarket": 8788,
      "Ġkekik": 8789,
      "Ġpasta": 8790,
      "ĠÃ§Ã¶p": 8791,
      "Ġresults": 8792,
      "ĠOtonom": 8793,
      "ĠkÄ±yasla": 8794,
      "Ġyoksulluk": 8795,
      "ĠBurada": 8796,
      "AdÄ±nÄ±z": 8797,
      "ĠRobert": 8798,
      "ĠyoÄŁurt": 8799,
      "illiam": 8800,
      "ĠTahmin": 8801,
      "ĠKesinlikle": 8802,
      "SYÄ°H": 8803,
      "ĠKaliforniya": 8804,
      "13": 8805,
      "500": 8806,
      "Com": 8807,
[...]
