{
  "bre": 12085,
  "leÅŁtirici": 8882,
  "Ġset": 4463,
  "lararasÄ±": 3490,
  "Ġbecerilerini": 5108,
  "Ġ>": 2748,
  "ilmesine": 4801,
  "eceÄŁ": 816,
  "stronot": 10219,
  "ĠYakÄ±ndaki": 13415,
  "ĠAyar": 13199,
  "Ġdillerini": 13776,
  "ĠkatmanlÄ±": 15464,
  "muyor": 15786,
  "ĠalÄ±m": 6017,
  "Ġlastik": 11977,
  "ĠfiyatÄ±nÄ±": 9584,
  "Ġkonsantr": 6665,
  "ecekti": 11797,
  "ĠgeliÅŁ": 1937,
  "Ġmemnun": 2349,
  "ĠÅŁehri": 6582,
  "Ġteknolojisi": 3500,
  "Ġpersonel": 6596,
  "ĠHamlet": 12966,
  "Ġbildir": 3282,
  "¾": 140,
  "ĠMemeliler": 15704,
  "Ġkalan": 3771,
  "ĠWh": 11859,
  "Ġkurdu": 16003,
  "Ġahlaki": 7576,
  "Ġbirini": 4737,
  "ĠKÄ±r": 4313,
  "Ã§asÄ±": 8816,
  "().__": 8987,
  "lap": 9994,
  "Ġdra": 6209,
  "Ġ194": 11483,
  "ert": 5921,
  "limi": 13577,
  "Ã¶rler": 5873,
  "ĠsayÄ±dan": 16064,
  "ĠÃ§alÄ±": 5493,
  "Ġonay": 5311,
  "Ġprofili": 16285,
  "atÄ±": 4195,
  "ĠkÃ¼tÃ¼phan": 5679,
  "ĠSonuÃ§": 2464,
  "ĠetmiÅŁti": 15200,
  "uluÄŁunu": 5398,
  "Ġkarpuz": 14322,
  "Ġfay": 1012,
  "ĠKelimeler": 12427,
  "ĠtamamlanmasÄ±": 8174,
  "lamasÄ±nÄ±": 15049,
  "menize": 6035,
  "ĠiÃ§ermektedir": 13202,
  "ĠĠĠĠĠĠĠĠĊ": 2782,
  "ĠKu": 4142,
  "Ġizley": 5445,
  "ĠendÃ¼stride": 8561,
  "**": 9684,
  "Ä±ldÄ±ÄŁÄ±": 4718,
  "ĠaltÄ±na": 6145,
  "imizi": 2262,
  "ĠkalÄ±p": 7803,
  "Ġmavisi": 13014,
  "Ġgerilim": 7372,
  "ĠsÄ±kÄ±": 3881,
  "Ġminnettar": 6280,
  "lator": 13251,
  "Ġotlar": 11916,
  "Zaman": 14195,
  "ĠmÄ±": 2426,
  "inebilir": 15061,
  "Ġevcil": 3931,
  "ĠÃ¶dev": 7759,
  "Ġliderin": 13739,
  "eyse": 3694,
  "ĠNisan": 11641,
  "ĠparÃ§alar": 13890,
  "ĠEbeveyn": 13533,
  "edit": 10287,
  "reshold": 15632,
  "ĠGog": 8849,
  "ĠyaÅŁamÄ±n": 9842,
  "ingle": 12224,
  "|>\"": 12908,
  "anÄ±z": 4881,
  "ĠBaba": 10945,
  "ĠTim": 10318,
  "ĠÃ§izg": 5665,
  "ĠgeliÅŁtirmeye": 5209,
  "Ġekran": 4897,
  "Ġyerde": 4025,
  "ĠEvet": 3481,
  "luk": 986,
  "ĠsÄ±nÄ±rlarÄ±nÄ±": 10768,
  "ĠÃ¶ÄŁrenebilirler": 15978,
  "ĠÃ§alma": 15119,
  "Ġfinans": 1888,
  "laÅŁ": 511,
  "imi": 471,
  "Training": 14096,
  "IP": 9233,
  "gcd": 15777,
  "ĠBilgi": 6881,
  "Ġkonuyla": 5952,
  "ĠanÄ±larÄ±": 14706,
  "ĠsÃ¼rer": 7961,
  "Ġreli": 7068,
  "Ġanalizler": 13828,
  "try": 6105,
  "ĠÃĩar": 13203,
  "Ã¼ydÃ¼": 6440,
  "Ġanlar": 14315,
  "dolab": 10520,
  "Ġduy": 747,
  "ascii": 13029,
  "kuÅŁaÄŁÄ±": 12309,
  "Ġraise": 6735,
  "ĠsayfasÄ±nÄ±n": 15340,
  "Ġbeyzbol": 14017,
  "ĠZamanÄ±n": 16326,
  "ĠfaydalÄ±dÄ±r": 9626,
  "ĠYer": 4471,
  "Ġetkinliklere": 10789,
  "Ġgel": 384,
  "luÄŁu": 2253,
  "Ġlab": 8639,
  "ĠgÃ¶ndermek": 9879,
  "va": 7196,
  "Ġtelevizyon": 6683,
  "ï": 153,
  "Ġkelimelerden": 13991,
  "ĠeÄŁr": 14431,
  "Ġgerektirir": 2340,
  "ĠsevinÃ§li": 11183,
  "tics": 12916,
  "ĠmÃ¼zik": 2963,
  "Ġcode": 10651,
  "diniz": 5417,
  "Ġduyarlar": 11433,
  "q": 100,
  "ference": 5659,
  "iciydi": 15954,
  "ediÄŁi": 7056,
  "Ġenerji": 917,
  "ĠdÃ¼ÅŁÃ¼nÃ¼n": 4447,
  "ĠFransa": 3258,
  "ĠÃĩalÄ±ÅŁ": 3940,
  "ĠyaÅŁamÄ±": 10752,
  "Ġblender": 13603,
  "Ġtavada": 8239,
  "ĠdolaÅŁ": 6438,
  "Ġizlemek": 4151,
  "Ġtesli": 5324,
  "osunu": 14365,
  "Ġfes": 6004,
  "ĠmÃ¼ÅŁt": 643,
  "crit": 15372,
  "ĠgÃ¶kyÃ¼zÃ¼ndeki": 14557,
  "mesine": 1923,
  "fe": 15771,
  "ĠinanÄ±yor": 13323,
  "ĠTeorisi": 12486,
  "ĠsarÄ±msak": 3159,
  "nem": 13060,
  "ĠfiyatlarÄ±nÄ±": 10420,
  "ĠEvcil": 7848,
  "Ġokula": 11133,
  "ĠMÃ¼zik": 8981,
  "ĠiÅŁlevi": 8575,
  "ĠzamanlarÄ±": 12672,
  "]]": 3791,
  "ĠdoÄŁan": 11845,
  "Ġlist": 628,
  "elemeli": 12967,
  "ĠGÃ¼nler": 16131,
  "ĠonlarÄ±": 3336,
  "Ġdairesel": 14543,
  "isine": 2612,
  "rn": 696,
  "ĠhazÄ±rlanmak": 12470,
  "Ġrutin": 7578,
  "ĠalÄ±nÄ±r": 16170,
  "Ġhedeflerinize": 11470,
  "ĠkaldÄ±": 3128,
  "Ġdeneyimleri": 7998,
  "isk": 1366,
  "ol": 290,
  "sÄ±nda": 4925,
  "ĠtabanÄ±": 13831,
  "cept": 5490,
  "ĠalaycÄ±": 14146,
  "Ġbelirsiz": 9774,
  "ĠkalÄ±b": 7500,
  "ĠuzunluÄŁunda": 6482,
  "Ä°ngil": 12982,
  "ĠÅŀ": 890,
  "mps": 11291,
  "Ġdinlen": 7007,
  "ĠKalbim": 11241,
  "stop": 7212,
  "ĠZamanÄ±nda": 15410,
  "urcuk": 14271,
  "Ġyaratmaya": 6766,
  "Ġsunma": 12242,
  "ĠÃ¶zelleÅŁtirilmiÅŁ": 8542,
  "Ġilet": 994,
  "fÄ±r": 4533,
  "message": 8810,
  "Ġmalzem": 1540,
  "Ġtat": 1548,
  "array": 12394,
  "Ġkalabilir": 7556,
  "Ġ{\"": 4715,
  "Ġrolleri": 16276,
  "ilya": 4929,
  "Ã§eleri": 14931,
  "(\"": 898,
  "itesi": 14991,
  "Å": 145,
  "ĠbÄ±rakÄ±lÄ±r": 15369,
  "IZ": 12081,
  "False": 3503,
  "aÄŁÄ±dÄ±": 8310,
  "Ġsoyut": 6484,
  "ĠSatÄ±ÅŁ": 9660,
  "elerden": 4351,
  "ulmaz": 6317,
  "ĠiyileÅŁtirir": 11895,
  "ĠkaynaklarÄ±nÄ±n": 5210,
  "ĠyÃ¼rÃ¼t": 3709,
  "ĠÃ¶ncÃ¼": 15327,
  "odcast": 11773,
  "gence": 12298,
  "Ġevrim": 4685,
  "Ã¼nizm": 12610,
  "ĠAkdeniz": 13351,
  "siy": 1269,
  "Ġhav": 2128,
  "osistem": 3818,
  "ĠdeÄŁiÅŁkeni": 15647,
  "sort": 8258,
  "ĠolabileceÄŁi": 6377,
  "Ġkelim": 626,
  "yle": 4189,
  "ĠbÃ¼yÃ¼leyici": 6062,
  "lÃ¼str": 13215,
  "Ġcustom": 13115,
  "Ġkarakter": 1462,
  "Em": 14876,
  "ĠÄ°ncel": 10723,
  "ĠkeÅŁfet": 1562,
  "Ġlans": 10852,
  "ĠGÃ¼ven": 3412,
  "eÅŁit": 797,
  "Ġhissel": 15208,
  "eyin": 1232,
  "ĠYazar": 8302,
  "Ġdesen": 2034,
  "kyÃ¼z": 1447,
  "Ġbiyograf": 11963,
  "ilki": 4831,
  "ished": 9891,
  "ĠHayvan": 3358,
  "ĠJSON": 14398,
  "adÄ±": 1761,
  "weight": 5403,
  "ĠSamsung": 9415,
  "ĠsavaÅŁa": 13416,
  "fez": 15772,
  "ĠDurumu": 12442,
  "ĠÅŁekl": 2346,
  "num": 2177,
  "ĠDeÄŁiÅŁik": 4456,
  "ĠKendini": 10487,
  "Ġvergileri": 12011,
  "YaÅŁ": 9020,
  "Ġburada": 3359,
  "ÅŁaÄŁÄ±daki": 478,
  "ĠalÄ±ÅŁver": 2009,
  "ĠÅŁeyler": 3849,
  "Ġistekli": 7100,
  "ham": 3062,
  "ĠdalgalarÄ±": 11985,
  "izmet": 718,
  "ĠsaÄŁlÄ±yor": 8856,
  "valtÄ±": 5458,
  "ĠÃ§Ä±kma": 11015,
  "ĠseÃ§tiÄŁiniz": 16069,
  "Ġhatta": 3044,
  "ĠUzun": 3855,
  "Ġyazar": 3652,
  "abeth": 16338,
  "Ġarada": 7985,
  "Ã¼z": 310,
  "dÄ±ÄŁÄ±nÄ±": 1653,
  "Ġpodcast": 13101,
  "ĠazaltmalarÄ±na": 12728,
  "Ġl": 3861,
  "Ã¼lt": 11781,
  "form": 1779,
  "lendir": 798,
  "tokenizer": 2241,
  "Ġattention": 5438,
  "malarÄ±na": 1928,
  "iliÄŁini": 8645,
  "ĠsÄ±caklÄ±ÄŁÄ±n": 14458,
  "ĠÄ°ÅŁe": 16175,
  "Ġnesnenin": 4952,
  "Ġu": 722,
  "Ġ3000": 15957,
  "Ġdilinde": 11828,
  "Type": 10902,
  "Ġoynar": 8373,
  "ĠÃ§aydan": 16230,
  "CNN": 15742,
  "ĠtaÅŁÄ±mayÄ±": 12854,
  "gÄ±lÄ±": 6506,
  "ĠkÄ±lmak": 15810,
  "Ġfizik": 7390,
  "Ġid": 2487,
  "ĠBayes": 14067,
  "ĠTilki": 10319,
  "ĠmeslektaÅŁ": 7444,
  "Ġtarihinin": 14521,
  "idden": 2679,
  "Met": 14187,
  "ĠsektÃ¶r": 4040,
  "ijital": 1870,
  "Ġsanatlar": 16264,
  "leyen": 2257,
  "Ġtoplar": 15143,
  "lendirici": 10371,
  "steps": 4774,
  "ĠsÄ±nava": 13078,
  "Ġtemperature": 11428,
  "ci": 830,
  "ĠoranÄ±nÄ±": 12406,
  "ĠMey": 4794,
  "penalty": 10831,
  "ĠyÃ¼zyÄ±lda": 8213,
  "ĠSistemi": 6698,
  "Ġrenklerin": 12305,
  "ĠAraba": 4553,
  "get": 894,
  "ĠaraÅŁtÄ±rmacÄ±lar": 16262,
  "ides": 12681,
  "Ġ),": 9462,
  "ĠSÄ±klÄ±kla": 12006,
  "ĠyakÄ±tlar": 13387,
  "ĠÃ§Ä±kmaz": 15123,
  "Ġmakinenin": 13922,
  "ĠsorunlarÄ±nÄ±": 8358,
  "ĠtelefonlarÄ±": 11533,
  "ĠDenizi": 14565,
  "ĠiliÅŁkilendirilir": 12461,
  "ĠcoÅŁ": 7216,
  "Ġhassas": 4031,
  "Ġkarabiberle": 15530,
  "ĠHT": 3310,
  "ĠgÃ¶zleri": 8169,
  "Ġpandeminin": 14722,
  "ĠOld": 16363,
  "ĠsÃ¼rpr": 6111,
  "Ġkayded": 5109,
  "ml": 4098,
  "ĠsaÄŁlanan": 10673,
  "onez": 11717,
  "ĠSodyum": 13656,
  "ĠetkileÅŁimli": 4267,
  "ĠolmanÄ±n": 4885,
  "Ġdum": 10608,
  "Ġtutan": 10734,
  "ĠVegan": 8384,
  "ĠColor": 15092,
  "ĠkÃ¼tÃ¼ph": 4298,
  "mesan": 13496,
  "ĠInstagram": 8436,
  "Ġengeller": 12382,
  "Ġyarar": 3630,
  "Ã¼dÃ¼r": 7048,
  "ĠkalkÄ±n": 15111,
  "esel": 1011,
  "Ġyak": 702,
  "ĠKitaplar": 11592,
  "Ġolanlar": 8313,
  "tin": 1651,
  "Ġfinansman": 9861,
  "ĠYatÄ±rÄ±m": 9504,
  "ĠKarÄ±ÅŁ": 12770,
  "Ã¼len": 5770,
  "memiz": 10755,
  "indeki": 2559,
  "arkÄ±": 1777,
  "ting": 14225,
  "ĠoluÅŁturul": 3509,
  "ĠkararÄ±": 9499,
  "ĠeÄŁitime": 11494,
  "ĠbÃ¼yÃ¼cÃ¼": 12204,
  "ĠgeÃ§iÅŁ": 4442,
  "Ġdatetime": 9938,
  "amet": 3867,
  "ĠAkÄ±ÅŁ": 16248,
  "Ġsur": 9034,
  "Ġduygusu": 5217,
  "iyor": 526,
  "Ġfotosentez": 11350,
  "Ġbelirlemeyi": 9641,
  "ĠEd": 5562,
  "Ġlezzetliydi": 13474,
  "Ġsaatte": 9586,
  "ĠPost": 13155,
  "ven": 644,
  "ĠtarafÄ±n": 12230,
  "ĠBiz": 13097,
  "ĠThomas": 9681,
  "Ġrout": 10962,
  "sole": 9698,
  "update": 7833,
  "ĠdÃ¼ÅŁÃ¼nceler": 10786,
  "__()": 13236,
  "ĠHikayenin": 8592,
  "ĠyÄ±l": 815,
  "ĠÅŁÃ¶yle": 4197,
  "ĠGala": 8664,
  "uhaf": 5515,
  "Ġprojeleri": 10139,
  "maktÄ±r": 10956,
  "cago": 9506,
  "ĠdayanÄ±klÄ±lÄ±k": 9410,
  "Ġdak": 1803,
  "ĠhÄ±z": 720,
  "raÄŁÄ±": 13062,
  "Ä°ngilizce": 14157,
  "mod": 10249,
  "ĠayrÄ±": 3873,
  "ĠAsistan": 14625,
  "Ġkarakterin": 6584,
  "dizi": 12542,
  "ĠadÄ±nda": 6356,
  "Ġwas": 15175,
  "Ġyasa": 4095,
  "Ġdrama": 14083,
  "edir": 1118,
  "ĠNormal": 15980,
  "ious": 14016,
  "Ġmakalesini": 8539,
  "eÃ§": 417,
  "Ġyine": 10274,
  "Tokenizer": 7317,
  "ĠKendi": 4918,
  "ĠyaptÄ±": 2396,
  "ĠcevabÄ±": 9147,
  "ĠKahraman": 14012,
  "Ġkonusundaki": 8353,
  "RL": 6501,
  "ĠyapÄ±landÄ±rÄ±n": 14479,
  "ĠarkadaÅŁÄ±n": 13286,
  "ĠkaldÄ±lar": 11574,
  "Ġtul": 11320,
  "Ġoksijen": 5316,
  "ĠyÃ¶ne": 12212,
  "ĠartÄ±rdÄ±": 13798,
  "ĠyÃ¼kselt": 8927,
  "ĠTrue": 3448,
  "mÄ±ÅŁ": 771,
  "ilen": 413,
  "Ġsitesine": 13825,
  "Ġinsanlardan": 7641,
  "ĠgÃ¶lÃ¼n": 16369,
  "ĠeÄŁitim": 1476,
  "over": 10250,
  "ĠnÃ¶tr": 8098,
  "gth": 2596,
  "ĠsÄ±ra": 1414,
  "lanmÄ±ÅŁ": 2256,
  "kwargs": 4786,
  "ĠyÃ¶nlÃ¼": 9312,
  "Color": 13043,
  "to": 826,
  "Ġyaka": 3166,
  "Ġ7": 984,
  "dayan": 7736,
  "ĠbirleÅŁtiren": 9610,
  "ĠGiriÅŁim": 10448,
  "Ä±yorlar": 8516,
  "ĠkullanÄ±lma": 8583,
  "ĠMek": 14318,
  "Ġolursa": 4906,
  "Ġkoruyun": 9106,
  "check": 9316,
  "ĠkullanÄ±cÄ±lara": 5450,
  "\"\\": 14860,
  "uya": 4828,
  "ĠpoÅŁ": 11343,
  "ĠAlÄ±ÅŁveriÅŁ": 8434,
  "Ġada": 3175,
  "Ġokur": 7112,
  "ĠbirkaÃ§": 1483,
  "ĠCen": 13166,
  "Ġkaynat": 13761,
  "Ġyumurt": 12828,
  "ĠfarklÄ±lÄ±klarÄ±": 9113,
  "ĠekipmanlarÄ±": 15633,
  "onlarÄ±": 11329,
  "Ġoutputs": 9898,
  "ĠArktik": 8244,
  "cilik": 12806,
  "ĠSp": 3672,
  "eyec": 1852,
  "Ġanketler": 10824,
  "Ġherkesi": 12852,
  "ĠyÄ±llardÄ±r": 13789,
  "|>\",": 4776,
  "Ġ2010": 16144,
  "QLabel": 12439,
  "Ġhidden": 5854,
  "ĠÃ¼stesinden": 8185,
  "ĠfarkÄ±ndalÄ±ÄŁÄ±nÄ±": 12473,
  "ĠmÃ¼ÅŁterilerin": 3889,
  "ĠolmayÄ±": 6761,
  "ĠÅŀÃ¶valye": 15207,
  "dÃ¼ÄŁÃ¼nde": 10159,
  "Ġkab": 1163,
  "Ġetkinlikler": 8579,
  "ĠYaÄŁ": 4797,
  "Ġetkilere": 6972,
  "Ġhikayesi": 4996,
  "Ġdiyet": 2469,
  "culate": 16047,
  "ĠKullanÄ±cÄ±": 2641,
  "ebilirler": 2794,
  "ĠrendelenmiÅŁ": 8432,
  "Ġifadedir": 14530,
  "asyum": 15853,
  "ĠÃ§ocu": 5934,
  "abileceÄŁini": 7662,
  "ĠoluÅŁturmasÄ±na": 12644,
  "<|answer|>": 12,
  "ĠSE": 3307,
  "Ġcen": 15030,
  ".\"\"\"": 5386,
  "ĠarabasÄ±": 14696,
  "ĠdÃ¼nyaya": 5823,
  "ĠyaÅŁlÄ±": 4901,
  "ĠÃ§orbasÄ±": 15860,
  "ĠÄ±z": 8638,
  "ĠdÃ¶nÃ¼ÅŁtÃ¼rÃ¼l": 14501,
  "Ġmanip": 4487,
  "Ġsonuna": 8684,
  "udent": 3946,
  "Fi": 12530,
  "ĠUran": 16067,
  "ĠYolda": 7417,
  "ĠyerleÅŁ": 7808,
  "Ġbilgisini": 14399,
  "ĠLinc": 12222,
  "lemenin": 15086,
  "----": 1299,
  "ĠaÃ§Ä±klamasÄ±nÄ±": 5223,
  "abilmelidir": 12261,
  "Ä±cÄ±nÄ±n": 7920,
  "ĠAÄŁaÃ§": 4368,
  "ĠThis": 9502,
  "Ġconversation": 6891,
  "arÄ±m": 1742,
  "ocu": 5357,
  "ĠyaÅŁÄ±": 13642,
  "Ġor": 465,
  "Ġdaireler": 16225,
  "rem": 6409,
  "ĠGÃ¶rÃ¼n": 10781,
  "ent": 754,
  "ĠGir": 2215,
  "edi": 851,
  "ĠbiliÅŁim": 4146,
  "sen": 12097,
  "ĠMakal": 6256,
  "ĠneÅŁe": 9403,
  "Ġkurulu": 13213,
  "ted": 6510,
  "zer": 8079,
  "Ġrehber": 6492,
  "ri": 1393,
  "Model": 4781,
  "ĠBan": 7334,
  "Ġkarakterler": 7133,
  "ĠÃ¶zel": 1154,
  "Ġdizisini": 8548,
  "leÅŁtirin": 2984,
  "ĠyardÄ±mÄ±na": 15992,
  "ine": 359,
  "ĠformÃ¼lÃ¼": 11154,
  "ĠTarif": 9625,
  "ĠSeÃ§im": 9409,
  "umulation": 16265,
  "Ġprotokol": 6341,
  "Ġyeteneklerini": 9390,
  "ĠanlamalarÄ±nÄ±": 15308,
  "ĠÃ§erÃ§ev": 5365,
  "ÄŁÄ±mÄ±": 14250,
  "ĠkÄ±sÄ±t": 6208,
  "ĠBilgisayarlar": 8584,
  "Ä±yor": 708,
  "Ġnedenini": 6027,
  "ĠbÃ¶cekler": 14771,
  "ĠÄ±sÄ±t": 7547,
  "Ġregresyon": 6903,
  "ĠÅŀapka": 13253,
  "ĠarÄ±ndÄ±r": 13648,
  "Ġcesurca": 13959,
  "gal": 15774,
  "ĠkenarÄ±": 10396,
  "ĠÅŁiirin": 12148,
  "Ġherk": 2157,
  "ĠJenn": 12703,
  "ĠayakkabÄ±": 6399,
  "ĠGelecek": 4452,
  "ĠSak": 9729,
  "ĠyÃ¼ksel": 1795,
  "ĠsaldÄ±rÄ±": 6699,
  "Ġkolu": 14613,
  "Ġkaybol": 4647,
  "Ġdepartman": 12052,
  "Ġkm": 9711,
  "oks": 2499,
  "tysburg": 15285,
  "bu": 3001,
  "Ġcur": 9058,
  "ĠkolaylaÅŁtÄ±rÄ±r": 7020,
  "Ġhedefleri": 6673,
  "Ġinto": 11760,
  "larca": 5020,
  "Ġsistemler": 5443,
  "Mod": 14879,
  "Ġinstall": 15591,
  "Ã¼r": 274,
  "astgele": 7825,
  "ĠdoÄŁranmÄ±ÅŁ": 3354,
  "Ġkavanoz": 13307,
  "Ġoturdu": 15497,
  "ĠKarÅŁÄ±": 5323,
  "dak": 1046,
  "Ġister": 14416,
  "ĠÃ§alÄ±ÅŁabilir": 13220,
  "mazlar": 13299,
  "ĠhÃ¼cr": 3582,
  "Ġsonu": 804,
  "Ġef": 5072,
  "Ġvitamini": 12936,
  "Ġkalem": 7357,
  "Ġyollarla": 6861,
  "rap": 12096,
  "ĠEvden": 11102,
  "ĠÃĩevrimiÃ§i": 4335,
  "ĠÃ§alÄ±ÅŁabilme": 16016,
  "ĠkatÄ±lÄ±mÄ±": 14000,
  "ton": 1885,
  "ĠhÃ¼kÃ¼metler": 9162,
  "ĠtavÅŁan": 8557,
  "ainter": 9913,
  "results": 9956,
  "QL": 4782,
  "ĠBeyaz": 8472,
  "ĠAmerikan": 2802,
  "Ġsesin": 14252,
  "meliyiz": 10130,
  "taraf": 15185,
  "ĠadamdÄ±": 12829,
  "Ġsaatler": 12323,
  "Ġyedi": 6087,
  "ĠÅŀirket": 2459,
  "ĠbÃ¶lgede": 9870,
  "Ġtestleri": 9587,
  "il": 205,
  "Ġgezisi": 10134,
  "kenar": 11026,
  "ĠAlgoritmalar": 15513,
  "ĠTer": 4641,
  "Ġsys": 9713,
  "fak": 10246,
  "ĠkatÄ±lma": 11947,
  "Ġsiyah": 4670,
  "ĠSÄ±": 2627,
  "ĠkÃ¼mesini": 11497,
  "ĠdÃ¼ÅŁÃ¼nce": 7114,
  "ĠtekrarlayÄ±n": 13887,
  "ĠSiyas": 13654,
  "itecture": 15716,
  "ĠkalmayÄ±": 10343,
  "Ġtelif": 14952,
  "ĠkaynaklarÄ±na": 4322,
  "eki": 503,
  "Ġuygulayarak": 14409,
  "ĠyaÅŁÄ±yordu": 9100,
  "ĠGet": 10665,
  "eport": 16097,
  "dÃ¶rt": 5765,
  "Ġkonular": 8511,
  "ĠSeÃ§": 4229,
  "ĠmÃ¼lakat": 9845,
  "Ġkoruy": 5506,
  "Ġyapraklar": 10492,
  "pty": 8532,
  "ĠaÄŁrÄ±": 12947,
  "ty": 1406,
  "Ġyeter": 15199,
  "ĠgÃ¶rÃ¼ÅŁmesi": 12334,
  "kÃ¶": 8809,
  "Ġkam": 3067,
  "Ġdolan": 12659,
  "Ġvur": 2025,
  "Ġgirdiyi": 11588,
  "ĠDaÄŁ": 6959,
  "ĠÄ°sviÃ§": 12964,
  "fi": 2608,
  "Ġyor": 1679,
  "ĠKrallÄ±k": 7575,
  "Ġeksik": 2703,
  "blem": 1580,
  "Ġbold": 13996,
  "ĠdikdÃ¶rtgen": 12490,
  "ĠyazÄ±larÄ±": 14639,
  "Ġfilm": 1434,
  "ĠiÃ§erirken": 11874,
  "ĠplanlayÄ±n": 12260,
  "ĠuyaklÄ±": 9071,
  "Ġpound": 10627,
  "ukat": 15129,
  "gesi": 3400,
  "Ġrota": 10773,
  "igh": 6984,
  "ĠBatÄ±": 9722,
  "ĠÃ¼zer": 11422,
  "ÅŁaÄŁÄ±": 467,
  "Ġperspektif": 5835,
  "Ġ12": 1829,
  "ĠHiÃ§bir": 9950,
  "Ġsahipleri": 13198,
  "ĠgÃ¶rÃ¼r": 7955,
  "ĠÃ§Ã¶zÃ¼lebilir": 15183,
  "ĠVincent": 13161,
  "ĠeritilmiÅŁ": 14822,
  "dÃ¼rÃ¼lebilir": 5447,
  "ĠsÃ¼rÃ¼n": 6749,
  "ĠkirliliÄŁi": 3710,
  "ĠiÃ§eriÄŁini": 6383,
  "ĠHTTP": 9184,
  "Ġaskeri": 8049,
  "langÄ±": 2861,
  "ĠalÄ±ntÄ±": 4719,
  "ĠatasÃ¶zÃ¼nÃ¼n": 14743,
  "ĠfÄ±rsat": 1661,
  "ĠQVBoxLayout": 6998,
  "ĠÄ±ÅŁÄ±ÄŁÄ±na": 16316,
  "Ġhitap": 10616,
  "ĠadÄ±mlar": 5658,
  "ilmelidir": 6344,
  "Ġetmelerini": 11442,
  "ĠÅŁirketleri": 13298,
  "Ġinceleme": 8014,
  "ĠokuryazarlÄ±k": 15689,
  "ĠsevdiÄŁim": 11048,
  "ĠSok": 12627,
  "Ġyolcu": 10688,
  "Ġpar": 509,
  "ĠaÃ§Ä±kÃ§a": 7495,
  "ates": 1914,
  "Ġinstance": 11620,
  "ĠÄ°puÃ§larÄ±": 13536,
  "ubble": 8743,
  "Åŀirket": 10719,
  "ĠkaÃ§Ä±r": 9364,
  "Ġbilim": 1632,
  "Ġlst": 15495,
  "Ġkoyu": 8596,
  "Ġpast": 5192,
  "Ġumuyorum": 13930,
  "Ġkombinasyonu": 10200,
  "ĠyanlÄ±": 11317,
  "ĠgÃ¼venini": 16037,
  "Ġdurumlarda": 6142,
  "Ġexcept": 6802,
  "Ġkapan": 9338,
  "ĠyarÄ±ÅŁ": 6644,
  "yaÅŁ": 10629,
  "Ġesn": 3228,
  "ĠModeli": 12933,
  "Ä±k": 280,
  "gent": 15775,
  "ĠNesnelerin": 12431,
  "ĠpyqtSignal": 11652,
  "ĠtanÄ±r": 1785,
  "D": 55,
  "Ġconfig": 3434,
  "Ġpadding": 6293,
  "ĠSaygÄ±": 4869,
  "ĠDÃ¼ÅŁÃ¼k": 6286,
  "Ġdestekleyen": 8354,
  "Ġpotans": 1144,
  "Ä±da": 1515,
  "21": 3977,
  "Ġyararlanmak": 14712,
  "ĠartÄ±rmak": 1796,
  "ĠzÄ±t": 5129,
  "tef": 9699,
  "Ġsahibi": 3414,
  "Ġhangisi": 7170,
  "Ä±nÄ±l": 12141,
  "Ġetkiley": 2722,
  "lt": 13576,
  "ĠMemel": 12910,
  "knowledge": 9454,
  "ĠbÄ±rakmak": 15368,
  "ĠUzaktan": 7438,
  "Ġetkili": 1574,
  "ĠBaÄŁÄ±msÄ±z": 14095,
  "Ġstratejiler": 4488,
  "amadÄ±": 8689,
  "Ġolumsuz": 2674,
  "ĠRek": 7971,
  "ĠBelge": 14595,
  "ĠEner": 3998,
  "Ġgelmektedir": 12180,
  "Ġcat": 14305,
  "ĠQLabel": 7169,
  "leS": 3405,
  "Ġmevcut": 1570,
  "ĠKural": 15418,
  "ĠfarklÄ±dÄ±r": 9522,
  "Ġhiss": 3657,
  "jet": 6407,
  "++;": 14030,
  "diven": 10330,
  "aclass": 7810,
  "ĠbaÄŁlamÄ±": 16373,
  "ÄŁday": 9712,
  "Ġann": 10969,
  "ĠyumuÅŁak": 4531,
  "argument": 15417,
  "ĠPyQt": 11648,
  "Ġaktar": 5038,
  "Ġyorucu": 15311,
  "Ġdayan": 1516,
  "ĠSaÄŁlÄ±k": 2010,
  "ĠTarÄ±m": 10981,
  "ĠGÃ¼n": 1073,
  "ĠMakalenin": 13478,
  "Ġsev": 751,
  "gins": 9366,
  "Ġgetirdi": 4750,
  "Ġyetk": 6358,
  "og": 1306,
  "ĠsaÄŁlar": 1168,
  "ĠMa": 4388,
  "ĠkullanÄ±lÄ±rlar": 12777,
  "ĠtÄ±r": 4538,
  "Ġyas": 1804,
  "Ġkasab": 5818,
  "ĠÃĸÄŁrenci": 6687,
  "etch": 9478,
  "Ġedebiyat": 8423,
  "ĠdÃ¼ÅŁtÃ¼": 14102,
  "ĠsatÄ±rlÄ±k": 7286,
  "pop": 10590,
  "eceÄŁine": 4393,
  "ĠÃ¶ne": 5941,
  "cÄ±k": 7191,
  "ĠhÃ¼cre": 7754,
  "active": 12709,
  "tana": 16005,
  "Ġmaceraya": 8765,
  "Ġtopluma": 14003,
  "Ġpil": 7607,
  "ĠTeknolojinin": 4871,
  "Ġveri": 706,
  "earch": 12086,
  "biy": 9449,
  "unuzu": 3884,
  "ī": 167,
  "Ġbenz": 1092,
  "ĠbulmalarÄ±na": 10335,
  "lerinin": 1048,
  "ĠTalep": 12509,
  "sing": 11302,
  "yn": 5688,
  "ĠGÃ¶rÃ¼ntÃ¼": 13370,
  "Ġtarifi": 5666,
  "ĠMaj": 15903,
  "ĠÅŁunlardÄ±r": 2784,
  "ĠoluÅŁturmak": 1348,
  "Ġdolardan": 15072,
  "Ġda": 568,
  "ĠtarafÄ±": 7816,
  "Ġhizmetlerini": 4748,
  "by": 4047,
  "Ġburun": 12365,
  "ĠÄ±ÅŁ": 3770,
  "ĠDiyet": 15896,
  "ĠHasta": 8492,
  "Ġokyanus": 3190,
  "ĠÃĩÃ¼nkÃ¼": 7234,
  "ĠSarah": 4729,
  "ĠparlÄ±yor": 5086,
  "ĠkitaplarÄ±": 10132,
  "tÄ±yor": 4704,
  "ĠprosedÃ¼r": 6975,
  "ĠoluÅŁur": 2466,
  "sedÃ¼r": 6896,
  "Ġbay": 7602,
  "Ġbilinmeyen": 7274,
  "culuk": 13571,
  "lot": 10915,
  "ĠCatch": 11778,
  "ĠbulunamadÄ±": 12694,
  "etri": 13617,
  "ĠkuÅŁu": 15385,
  "batch": 4164,
  "Ġrehberlik": 9670,
  "ĠThe": 3125,
  "ĠGÃ¼nlÃ¼k": 5046,
  "dalÄ±": 2249,
  "langÄ±cÄ±": 11230,
  "ĠkurallarÄ±": 10478,
  "Ġbalon": 12898,
  "erans": 6415,
  "ĠgÃ¶rkemli": 9226,
  "umuz": 3423,
  "Ġmnemonik": 15855,
  "Harry": 14182,
  "ĠAnanas": 16046,
  "Ã¼Ã§": 433,
  "min": 1027,
  "Ġteknolojisini": 12271,
  "ĠyÃ¶nlendir": 2969,
  "35": 9230,
  "ĠSÃ¶z": 7617,
  "ĠZorlu": 12002,
  "ikÃ§e": 14958,
  "ĠFransÄ±z": 3662,
  "aka": 4194,
  "ĠyaÅŁamak": 11426,
  "Ġbuhar": 7498,
  "Ä±llÄ±": 2037,
  "Ä±yordu": 2413,
  "ĠYoÄŁun": 11377,
  "ĠtanÄ±tÄ±mÄ±": 11554,
  "ĠKedi": 3187,
  "Ġinan": 1587,
  "ĠsÄ±caklÄ±klarÄ±n": 10439,
  "ĠHaw": 13690,
  "Ġhangi": 1549,
  "ĠtÃ¼rÃ¼ne": 7646,
  "Ġederim": 4090,
  "Ġpusu": 11342,
  "ĠQF": 7839,
  "ovid": 7701,
  "ĠsÃ¶zdizimi": 9010,
  "Ġkullanan": 3492,
  "ĠzararlÄ±": 6473,
  "ĠyÃ¼kseldi": 9369,
  "lenmelidir": 13143,
  "ĠBla": 14971,
  "Ġpay": 1472,
  "mur": 2164,
  "Ġdioksit": 7294,
  "Ġhaftada": 14668,
  "postalarÄ±": 13354,
  "Ġezber": 14667,
  "enny": 14770,
  "ĠsorularÄ±nÄ±": 9829,
  "ĠMag": 14319,
  "ped": 11679,
  "Ġbilinir": 5335,
  "ĠiÃ§gÃ¶rÃ¼": 10538,
  "Ġbir": 220,
  "Ġvermek": 2192,
  "ĠzamanÄ±nÄ±": 8864,
  "ga": 2300,
  "ĠÃľlk": 5956,
  "ition": 4081,
  "esinden": 3042,
  "ĠAÅŁk": 5285,
  "teyn": 11304,
  "ĠparÃ§asÄ±": 2341,
  "ĠbakÄ±ÅŁ": 3115,
  "ĠsonuÃ§larÄ±n": 12751,
  "Ġevi": 7378,
  "sÄ±nÄ±n": 4536,
  "ample": 3319,
  "ĠyapmalarÄ±na": 7264,
  "ĠaÅŁkÄ±": 14483,
  "cs": 14893,
  "ĠÃ¶z": 447,
  "Ġ54": 11784,
  "okras": 6175,
  "ĠOyunun": 13943,
  "Ġorada": 7796,
  "ĠyÃ¼zme": 11072,
  "ĠkurmasÄ±na": 8139,
  "ĠolmasÄ±na": 4505,
  "ĠkeÅŁfed": 2716,
  "ĠÃ§arp": 2856,
  "he": 838,
  "Ġokuyun": 5878,
  "tal": 3527,
  "our": 4535,
  "Ġevr": 3065,
  "alanma": 12818,
  "ĠÃ§ocuÄŁu": 14075,
  "masÄ±nda": 5637,
  "63": 8065,
  "ĠPower": 15950,
  "ĠÃ¶devi": 13514,
  "ticaret": 6393,
  "istory": 3632,
  "ĠsÃ¼pÃ¼r": 12974,
  "ĠMeyveler": 10884,
  "Ġtakdirde": 6910,
  "pati": 4913,
  "etrol": 7865,
  "Ġolabilen": 10432,
  "labels": 4332,
  "ĠonaltÄ±lÄ±k": 14857,
  "Ġmakaleleri": 15247,
  "ĠiÅŁlevsel": 9178,
  "lik": 345,
  "perty": 8558,
  "Ġkur": 608,
  "ĠGÃ¶n": 10666,
  "iÅŁt": 4967,
  "ĠetkileÅŁimi": 8361,
  "oy": 3401,
  "ĠeÅŁdeÄŁer": 10121,
  "Ġrutini": 14732,
  "area": 9399,
  "ĠkÃ¶y": 3720,
  "Ġriskleri": 6892,
  "ĠgÃ¶k": 5939,
  "ĠtÃ¼kenmekte": 13475,
  "ĠProf": 5661,
  "anÄ±t": 1361,
  "bers": 11666,
  "Ġtamamla": 15280,
  "Ġbirik": 10006,
  "ĠmÃ¼kemmeldi": 15345,
  "inizin": 5260,
  "Ġ\\": 6307,
  "addStretch": 12069,
  "ĠBirincil": 15041,
  "Ġkuvvetleri": 15505,
  "eyici": 10298,
  "onard": 12593,
  "M": 64,
  "ac": 700,
  "ayri": 6725,
  "CH": 10569,
  "Ġlabir": 13969,
  "Ġanal": 879,
  "ĠPay": 12189,
  "ĠEn": 1082,
  "Ġtarihindeki": 16197,
  "ĠbaÄŁlama": 11041,
  "Ġhissetmek": 13879,
  "masÄ±na": 1043,
  "lorida": 12374,
  "ĠParlayan": 14584,
  "ĠkullandÄ±": 10645,
  "ĠkurmalarÄ±na": 8323,
  "Ġhayalleri": 16232,
  "Ġbtn": 12569,
  "ĠÃ§izgi": 6572,
  "ĠBirÃ§ok": 5195,
  "ĠesnekliÄŁi": 13422,
  "SYÄ°H": 8803,
  "Ġkarma": 9742,
  "ĠÃ§evirmek": 12934,
  "Ġded": 9035,
  "append": 2614,
  "Ġsonsuza": 5110,
  "={": 10567,
  "ĠkullanÄ±mÄ±nda": 16149,
  "fluencer": 13023,
  "ĠaÃ§mak": 11386,
  "Ġkullanmaya": 7771,
  "last": 12566,
  "ello": 11706,
  "Ġsen": 2043,
  "Ġfincan": 8430,
  "ĠsonrasÄ±nda": 12400,
  "eleyin": 8648,
  "sizliÄŁi": 8904,
  "ĠRe": 5259,
  "ĠvirÃ¼sÃ¼n": 11994,
  "Ġkurgu": 4257,
  "ahÅŁi": 5298,
  "Ġmutluyum": 12014,
  "ĠparÃ§asÄ±dÄ±r": 5007,
  "anet": 15803,
  "Ġbeslenmek": 14076,
  "ĠsatÄ±cÄ±": 11863,
  "ĠduyduÄŁunda": 16054,
  "Ġsi": 2127,
  "Ġyiyin": 9591,
  "ĠtanÄ±tÄ±n": 10388,
  "Ġfinal": 12620,
  "lagil": 12567,
  "Ġatmosferdeki": 11946,
  "sijen": 4396,
  "ĠyarÄ±Ã§ap": 9416,
  "ĠMuzlar": 14022,
  "mata": 11703,
  "ĠFinansal": 6493,
  "ĠbaÅŁlatmak": 8963,
  "Ġsunabilirler": 16074,
  "ĠdÃ¼zenleyici": 16051,
  "ĠmÃ¼ÅŁterilerle": 6690,
  "Ġgelenek": 10326,
  "ĠsaÄŁlamalÄ±dÄ±r": 8372,
  "guyu": 6196,
  "Ġtar": 452,
  "ĠgÃ¶stermelidir": 16103,
  "ĠihtiyacÄ±m": 10183,
  "ĠyakÄ±tlarÄ±n": 5752,
  "ĠolayÄ±n": 8824,
  "ĠÅŁehr": 8400,
  "Ã¼ÅŁÃ¼": 15096,
  "ĠYemekler": 12444,
  "ĠuyandÄ±rmak": 15556,
  "Ġrastgele": 5412,
  "Ġfikri": 3933,
  "ĠYÃ¼ksel": 7414,
  "sg": 4578,
  "ĠDiya": 14312,
  "aklar": 5121,
  "ĠfaydalÄ±": 2783,
  "ĠAÃ§": 2280,
  "ĠetkileÅŁim": 1817,
  "ĠbaÅŁladÄ±m": 15553,
  "</": 2305,
  "ĠgÃ¶rÃ¼ÅŁ": 1842,
  "ĠgazlarÄ±nÄ±n": 8956,
  "ists": 9298,
  "Ġtekniklerini": 7397,
  "lim": 931,
  "ĠsaÄŁlamaktÄ±r": 8550,
  "Ġyavrusu": 14853,
  "ĠgerÃ§ekleÅŁtirmek": 7375,
  "ĠaÅŁamasÄ±nda": 11617,
  "itif": 4466,
  "ĠEr": 3698,
  "li": 250,
  "ĠAnlam": 7815,
  "kat": 4626,
  "Ġgetirme": 10369,
  "Ġmi": 2579,
  "ĠBel": 2187,
  "ĠÃ§arpÄ±cÄ±": 12391,
  "izah": 9483,
  "Ġmim": 5783,
  "ĠgruplarÄ±": 11531,
  "Ġmir": 9044,
  "ĠtahÄ±llar": 10549,
  "Ġtopu": 6233,
  "asÄ±ndaki": 7204,
  "ÄŁÄ±m": 3579,
  "ĠKalit": 12361,
  "Ġtrav": 15239,
  "dÄ±kÃ§a": 8742,
  "ĠyÃ¼ksektir": 8159,
  "ĠotomatikleÅŁtirmek": 4723,
  "amaz": 4478,
  "ĠseÃ§enekler": 10455,
  "Ġtrun": 12758,
  "ystem": 6199,
  "ĠsÄ±caklÄ±ÄŁÄ±": 4358,
  "Ġistenen": 4497,
  "Ġrefah": 5232,
  "ÅŁta": 6836,
  "ĠkarÅŁÄ±layan": 10699,
  "Ġaktivitesi": 15443,
  "ĠT": 358,
  "ĠgÃ¶vd": 8610,
  "ĠÃ§Ä±k": 554,
  "wargs": 4423,
  "ĠiÅŁinizi": 13699,
  "atif": 2069,
  "Ġmanzara": 4338,
  "Ġala": 8651,
  "88": 10566,
  "ister": 12666,
  "ĠbaÅŁlÄ±klarÄ±": 13357,
  "Ġkazanan": 11099,
  "Ġeylemin": 11940,
  "uns": 14956,
  "ĠÄ±ÅŁÄ±ltÄ±": 7570,
  "perc": 10756,
  "Ġraporlar": 13431,
  "Ġkonusunu": 11884,
  "Ġsos": 5074,
  "iliÄŁi": 6417,
  "ĠÄ°kna": 15302,
  "ĠÃ¶zeti": 6563,
  "liÄŁine": 3903,
  "ĠgeliÅŁtirilmesi": 5037,
  "ĠtalimatÄ±": 11639,
  "yaya": 11689,
  "ĠÃ§amur": 15652,
  "Ġzih": 2038,
  "otermal": 11622,
  "ĠkarÅŁÄ±laÅŁtÄ±rarak": 11877,
  "ĠsÄ±rlarÄ±": 13245,
  "Ġilerlemesi": 11547,
  "ĠBisiklet": 11334,
  "Ġgiy": 3049,
  "ĠaÄŁÄ±rlÄ±ÄŁÄ±nÄ±": 15413,
  "ĠodanÄ±n": 15825,
  "har": 4625,
  "alet": 2509,
  "ĠÃ§Ä±ÄŁÄ±r": 14072,
  "ĠÃ¶zelliklerinin": 15235,
  "ĠdeÄŁiÅŁkenleri": 14698,
  "agent": 9901,
  "sÃ¼": 9245,
  "ĠadÄ±m": 1275,
  "ĠkalÄ±bÄ±nÄ±": 13498,
  "ĠSakin": 14130,
  "Ġyaratma": 7980,
  "Ġhaft": 9574,
  "eddar": 16304,
  "ĠiÃ§mek": 9263,
  "eÄŁ": 288,
  "Ġj": 2076,
  "ĠgerektiÄŁini": 3595,
  "Ġedildi": 4702,
  "ĠKararlÄ±": 14486,
  "ĠHizmetleri": 10521,
  "entez": 5690,
  "Ġlen": 2609,
  "aklama": 6943,
  "ĠzorlaÅŁtÄ±rabilir": 14803,
  "ĠbaÅŁar": 2181,
  "diÄŁiniz": 5377,
  "ĠyÃ¶ntemleri": 5001,
  "emli": 2160,
  "Tar": 14883,
  "Ġkurma": 4802,
  "ĠyollarÄ±nÄ±": 6756,
  "ĠbileÅŁik": 7143,
  "Ġver": 347,
  "Ġgid": 1560,
  "atas": 1738,
  "addStr": 11890,
  "uz": 370,
  "ĠkÄ±vrÄ±m": 10229,
  "ĠTipik": 8621,
  "ĠyapmÄ±ÅŁ": 13682,
  "ear": 14897,
  "Ġeklem": 8681,
  "ilmesinde": 13731,
  "ĠErn": 15940,
  "ĠÅŁimdi": 4915,
  "Ġf": 272,
  "ĠÃ§evre": 3039,
  "ÅŁtÄ±m": 7332,
  "Ġzeki": 8845,
  "Ġalkol": 10222,
  "ĠkeÅŁfederken": 13939,
  "ĠyÄ±llarÄ±": 15188,
  "Ġinsanlara": 4988,
  "ĠQHBoxLayout": 11878,
  "ĠQS": 8171,
  "face": 14204,
  "ĠÃ§Ä±karak": 15122,
  "*\\": 12075,
  "of": 2746,
  "ĠLat": 15150,
  "ĠBulut": 4041,
  "all": 2520,
  "ĠHayatta": 12857,
  "Ġetti": 1460,
  "ĠzekasÄ±": 10483,
  "az": 321,
  "Ġhacmi": 14066,
  "ĠvardÄ±r": 1345,
  "messa": 8075,
  "Ä±y": 496,
  "ĠMemnun": 6174,
  "Ã¼lasyon": 5073,
  "Ġplanlama": 4808,
  "Ġkabartma": 7252,
  "mosfer": 10760,
  "Ġmant": 3726,
  "Ġpolitika": 3302,
  "ĠyÄ±ldÄ±zlara": 15361,
  "Ġgener": 8868,
  "irse": 14236,
  "Ġoyuncak": 8346,
  "ĠgeliÅŁtirme": 2437,
  "Ãĸ": 4008,
  "Ġmakarna": 10073,
  "ĠsÄ±rada": 13308,
  "ĠÅŁÃ¶valye": 6008,
  "Le": 9018,
  "ĠromanÄ±": 11557,
  "vert": 9129,
  "ĠÃ§apraz": 8404,
  "imle": 10010,
  "ĠmÃ¼ÅŁter": 2064,
  "mino": 13817,
  "ĠVEY": 10997,
  "atik": 2949,
  "TextEdit": 14020,
  "ĠyeÅŁil": 2570,
  "ĠyÄ±": 9255,
  "'t": 1314,
  "ĠdÄ±ÅŁÄ±nda": 8572,
  "ĠasistanlarÄ±": 10180,
  "isinin": 1949,
  "ĠiÅŁyeri": 14847,
  "ĠdeÄŁil": 1486,
  "meta": 7809,
  "eyaz": 2441,
  "aliyet": 2165,
  "ĠiliÅŁkiler": 4720,
  "ĠKitab": 10966,
  "aret": 918,
  "ĠekmeÄŁi": 9435,
  "ĠbÃ¼yÃ¼cÃ¼nÃ¼n": 14119,
  "Ġait": 6215,
  "Ġniyetli": 9000,
  "dit": 3419,
  "ĠhesaplarÄ±": 13279,
  "ayÄ±n": 3627,
  "tÄ±": 412,
  "ĠeÅŁleÅŁtirmek": 15282,
  "bedding": 10881,
  "mi": 1376,
  "ĠfotoÄŁraf": 3388,
  "Ġtahsis": 11643,
  "Ġaletleri": 12648,
  "ĠgÃ¼venlidir": 14548,
  "alpha": 10279,
  "Ġteknolojiye": 8711,
  "Ġroot": 10144,
  "Ġbilgiye": 5568,
  "ĠParmesan": 15350,
  "Ġbelirlemek": 2406,
  "Ŀ": 186,
  "ĠsaÄŁlayÄ±cÄ±": 6967,
  "ĠMÃ¼ÅŁteri": 1552,
  ";\")": 12078,
  "Ġtopr": 6760,
  "ĠmÃ¼z": 2027,
  "Ã¼lk": 1147,
  "ke": 4681,
  "Ġard": 8655,
  "ĠBob": 5025,
  "ĠetkileÅŁimini": 8370,
  "Ġter": 1090,
  "Ġsitelerinin": 15251,
  "Ġnef": 2878,
  "cake": 10332,
  "Ġkablosuz": 11473,
  "ĠSesli": 15561,
  "ĠneÅŁeli": 5836,
  "rent": 3273,
  "ĠalgoritmasÄ±": 3636,
  "ĠÄ°span": 4017,
  "Ġhareketli": 9567,
  "ype": 8813,
  "ĠOption": 2239,
  "ĠAlman": 3011,
  "arch": 5691,
  "ĠkalÄ±n": 3391,
  "Ġrap": 2892,
  "ĠAnn": 10709,
  "Ġuzakta": 9367,
  "ĠÃ§eÅŁitliliÄŁ": 8538,
  "dan": 339,
  "ue": 1856,
  "Ġkesin": 3381,
  "Ġencod": 5370,
  "istWidget": 12667,
  "onomi": 15232,
  "Ġne": 865,
  "ĠdeÄŁiÅŁtirerek": 7251,
  "ĠCodeMindForCausalLM": 14717,
  "ĠoluÅŁturmayÄ±": 5627,
  "ĠHint": 4016,
  "kv": 10248,
  "ĠyÄ±lan": 9256,
  "Ġhikay": 901,
  "Ġgerekir": 11022,
  "ĠÃ§alÄ±ÅŁmasÄ±na": 11420,
  "ĠpaylaÅŁmalarÄ±na": 11909,
  "ĠolacaÄŁÄ±na": 13715,
  "ĠyapÄ±lÄ±r": 4939,
  "ruk": 6607,
  "ĠkullanÄ±mÄ±": 2138,
  "Ġadap": 13412,
  "ĠmaÄŁaza": 4331,
  "Ġistila": 13774,
  "Ġtarz": 3093,
  "TR": 14193,
  "Ġgeldi": 2630,
  "ffix": 15773,
  "ĠarÄ±yorum": 10637,
  "Ġgazlar": 16345,
  "Ã¼mcek": 9276,
  "tn": 2386,
  "ĠÃ¶ÄŁrenmesi": 6976,
  "optimizer": 12512,
  "ĠHerk": 4520,
  "Ã¼rn": 14996,
  "ĠFiz": 5085,
  "ĠÄ°nsan": 1808,
  "Kuc": 15749,
  "Ġ75": 10102,
  "ber": 2049,
  "Ġkereviz": 14117,
  "ĠheyecanlÄ±yÄ±m": 7707,
  "ĠkÃ¼ltÃ¼rÃ¼n": 14561,
  "ĠLondra": 6235,
  "Ġtqdm": 15831,
  "Ġ1999": 15523,
  "Ġedersiniz": 10316,
  "ĠulaÅŁana": 13842,
  "Ã¶nesans": 13149,
  "Ġuygu": 694,
  "stem": 5937,
  "ĠseÃ§en": 5091,
  "mes": 7319,
  "ĠtadÄ±nÄ±": 3572,
  "ĠÃ§arpÄ±m": 16336,
  "Ġumut": 3345,
  "Ġriski": 6432,
  "iyordum": 9088,
  "Ġgit": 1443,
  "Ä±lmasÄ±": 1684,
  "ĠsunmaktadÄ±r": 16072,
  "Ġbelirtileri": 10794,
  "ĠÄ°ÅŁte": 4596,
  "Ġimzalan": 15686,
  "ĠVatandaÅŁ": 14353,
  "ĠgiriÅŁimci": 10496,
  "Ġtekrarlanan": 14570,
  "Ġediyorum": 7783,
  "ĠyaÅŁarlar": 10355,
  "agu": 14197,
  "ĠPen": 15079,
  "ĠgÃ¼venilirliÄŁini": 14620,
  "ĠbaÅŁlÄ±k": 2121,
  "ĠadÄ±": 1287,
  "ĠsunmalÄ±dÄ±r": 16073,
  "Ġgerekebilir": 15130,
  "generate": 8038,
  "Ġevin": 8708,
  "Ġresimler": 8778,
  "dÃ¼ler": 15170,
  "eksika": 5681,
  "ayan": 948,
  "ĠhayvanlarÄ±": 6879,
  "ĠkÃ¼mesindeki": 15303,
  "root": 12652,
  "ĠdÃ¼nyayÄ±": 3301,
  "ĠdÃ¼zenle": 15166,
  "Ġgezinme": 9417,
  "Ġpeyniri": 6914,
  "Ġdalga": 3549,
  "ĠÃ¶nÃ¼nde": 5082,
  "tok": 4461,
  "Ġelde": 1942,
  "ĠdiÄŁer": 723,
  "ĠgeleceÄŁ": 6535,
  "Ä±bbi": 1904,
  "],": 1636,
  "ĠalgÄ±": 4940,
  "ĠsÃ¶yle": 2697,
  "Ġsidebar": 14254,
  "Ġsahn": 6652,
  "Ġtetik": 11322,
  "ĠyazdÄ±": 8122,
  "ĠgÃ¶sterin": 4712,
  "Ġboyutunu": 8582,
  "Ġbalonu": 16368,
  "ĠolmaktadÄ±r": 9817,
  "ĠbaÅŁlangÄ±Ã§ta": 12926,
  "ĠKoronavirÃ¼s": 8214,
  "import": 14270,
  "4": 39,
  "Ġbeklentiler": 12359,
  "ĠYolc": 6281,
  "antastik": 12277,
  "eriler": 1194,
  "Ġaz": 512,
  "Align": 11651,
  "Ġbakkal": 11454,
  "ez": 547,
  "sur": 2158,
  "ĠilginÃ§": 2868,
  "ĠkonuÅŁmayÄ±": 12763,
  "23": 13557,
  "hael": 11967,
  "ĠCÃ¼mleleri": 12786,
  "Ġatmosfer": 2392,
  "ĠyarÄ±ÅŁmasÄ±": 15601,
  "ĠÃ§Ä±kararak": 8900,
  "ĠdaÄŁÄ±lÄ±m": 13990,
  "ĠÅŁeklidir": 10526,
  "Ġyerel": 2883,
  "ĠsaÄŁlayabilen": 10523,
  "cilerin": 7591,
  "ĠoluÅŁturdu": 11757,
  "Ġseviyelerde": 15297,
  "AC": 10568,
  "ĠduyulduÄŁunda": 15593,
  "ĠBakÄ±ÅŁ": 12435,
  "Ġsokak": 4301,
  "Ġalarak": 4789,
  "ĠOrmanda": 14041,
  "Ġkorumak": 2400,
  "kanlÄ±": 12094,
  "amaya": 5610,
  "ĠSEO": 6805,
  "Ġest": 10598,
  "rik": 8257,
  "larÄ±mÄ±zla": 8766,
  "ĠgÃ¼venilirlik": 12863,
  "Ġkelimeyi": 3219,
  "ĠÃ¼lkelerde": 9833,
  "rame": 9696,
  "Ġhissi": 3167,
  "luÄŁun": 7272,
  "ĠkullanÄ±ldÄ±ÄŁÄ±nÄ±": 14099,
  "ĠYedi": 15920,
  "asit": 3814,
  "Ġdenetimsiz": 9211,
  "amayan": 12705,
  "A": 52,
  "Ġilerle": 6368,
  "ĠKÃ¼Ã§Ã¼k": 3607,
  "Ġnetlik": 12889,
  "ĠÄ°ler": 9292,
  "ĠiÅŁte": 12581,
  "quant": 12292,
  "Ġmesajlar": 15363,
  "ĠseÃ§men": 16068,
  "Ġsaklamak": 11925,
  "ĠTuple": 9066,
  "ĠÃĩÃ¶z": 6547,
  "derin": 7318,
  "eor": 4166,
  "ĠArayÃ¼z": 12504,
  "DoÄŁ": 14874,
  "landa": 10283,
  "Ġ=": 371,
  "ilemez": 7747,
  "Ġself": 461,
  "Ġtranslation": 4215,
  "ĠMeyv": 9661,
  "roman": 9754,
  "yla": 975,
  "ĠMakin": 8360,
  "Ġyapmam": 16218,
  "±": 128,
  "ĠRNA": 15139,
  "ĠdÃ¼zenleme": 5444,
  "ĠÄ°mparator": 9220,
  "ĠverimliliÄŁini": 5004,
  "ĠrahatlatÄ±cÄ±": 11918,
  "ebileceÄŁini": 7248,
  "dÄ±klarÄ±nda": 9852,
  "Ġyolu": 1658,
  "ĠTÃ¼ketici": 13519,
  "ĠyÄ±llÄ±k": 4995,
  "ĠÃ§eker": 13275,
  "lÄ±": 241,
  "Ġmotive": 4361,
  "ĠodasÄ±": 13988,
  "ĠtakÄ±mÄ±": 10391,
  "cuk": 10907,
  "asyonu": 2354,
  "aÅŁlanmÄ±ÅŁ": 13670,
  "Ġgelebilir": 8669,
  "ĠÃĸte": 3475,
  "Ġdefter": 9116,
  "ĠyardÄ±ma": 10992,
  "Ġarg": 2270,
  "ilyon": 10264,
  "nect": 5686,
  "Ġort": 905,
  "larda": 953,
  "ality": 12588,
  "tan": 610,
  "error": 4830,
  "isiydi": 13104,
  "Ġkurgusal": 8043,
  "Ġlang": 14059,
  "Ġkurmak": 3587,
  "labilecek": 7847,
  "Ġmodeli": 2939,
  "ĠNokta": 8233,
  "Ġje": 8187,
  "Ġlearning": 16270,
  "Ġham": 3721,
  "formers": 13337,
  "ĠBelir": 6269,
  "Ġburaya": 14598,
  "ilmiÅŁti": 13732,
  "ĠYakÄ±nda": 10486,
  "oyu": 11982,
  "Â": 142,
  "ĠÃ¶nceliklendir": 5341,
  "Ġmakalede": 10737,
  "Ġani": 7218,
  "99": 6188,
  "´": 131,
  "ĠbaÅŁta": 14145,
  "imli": 956,
  "Ġtema": 6674,
  "Ġekleyerek": 7964,
  "ÅŁtan": 9264,
  "Ġanalitik": 5212,
  "ikolata": 5533,
  "eceÄŁinden": 7513,
  "ĠfarkÄ±ndalÄ±ÄŁÄ±": 11231,
  "Ġg": 221,
  "ĠdostÃ§a": 9171,
  "ĠGenellikle": 3147,
  "ĠAntlaÅŁmasÄ±": 15605,
  "optim": 15956,
  "¸": 134,
  "mez": 2080,
  "Ġt": 226,
  "ĠoluÅŁturmaya": 4892,
  "ĠgeÃ§irin": 6449,
  "Ġcinayet": 14846,
  "ĠperformansÄ±nÄ±": 3760,
  "Ġailem": 14637,
  "Ġkediler": 6612,
  "gresyon": 6115,
  "Ġambalaj": 12064,
  "Ġizleyici": 14426,
  "ĠÃ§Ä±kÄ±yor": 15993,
  "ĠkullanÄ±labilen": 10457,
  "Ġbiliyordu": 6020,
  "ĠLisa": 10871,
  "tir": 517,
  "Ï": 150,
  "db": 9237,
  "mar": 14215,
  "ĠBirbir": 15040,
  "scaling": 13587,
  "ig": 728,
  "ĠMe": 12161,
  "Ġederiz": 7661,
  "freq": 10213,
  "ĠgevÅŁek": 15650,
  "ĠsÄ±radan": 7514,
  "scroll": 9989,
  "Ġhumus": 14851,
  "ĠVan": 8673,
  "ĠbelirlenmiÅŁ": 12678,
  "ĠÅŀehri": 10377,
  "mesidir": 6144,
  "Ġgereksiz": 6654,
  "Ġmatematiksel": 6388,
  "Ġsaniye": 8535,
  "intelli": 16084,
  "ĠÃ¶nceki": 5821,
  "Ġayn": 15953,
  "Ġdenetimli": 7967,
  "Ġokuryazar": 12041,
  "Ġreklam": 3081,
  "Ġspor": 3205,
  "Ġwith": 3129,
  "Ġdata": 3530,
  "ĠdeÄŁiÅŁimi": 13790,
  "Ġteknolojik": 5882,
  "bur": 6604,
  "İ": 172,
  "cod": 2771,
  "ĠsonuÃ§larÄ±nÄ±": 3758,
  "DAT": 14179,
  "ĠdÃ¼ÅŁÃ¼nceleri": 9884,
  "ĠÃ¼ni": 4034,
  "caya": 14894,
  "Ġand": 2308,
  "Ġortamda": 8750,
  "Ġmen": 5620,
  "ĠiÃ§er": 596,
  "ĠBir": 330,
  "ĠLa": 6121,
  "zem": 1259,
  "meyecek": 7436,
  "yÄ±z": 5119,
  "ĠvÃ¼cud": 8219,
  "erken": 4880,
  "ĠezilmiÅŁ": 10181,
  "Do": 14178,
  "sw": 5241,
  "ein": 6193,
  "ĠÃ¼reten": 11850,
  "ĠTeor": 8301,
  "Ġokuyuc": 11440,
  "ĠdÃ¶ndÃ¼rÃ¼r": 11585,
  "ĠKat": 4285,
  "ĠYav": 7074,
  "Ã¼ÅŁt": 454,
  "elebek": 7471,
  "ĠĠĠĠĠĠ": 7329,
  "Ġsuper": 7982,
  "Ġofis": 10792,
  "eff": 8499,
  "madÄ±ÄŁÄ±": 9472,
  "Ġyenilik": 2906,
  "Ġoyuncu": 2971,
  "ĠAlex": 5621,
  "Ġsis": 13609,
  "Ġkontr": 8700,
  "ĠgÃ¶kyÃ¼zÃ¼nde": 4865,
  "Ġsahne": 8872,
  "ango": 15419,
  "Ġkesint": 10147,
  "ĠamaÃ§layan": 9150,
  "ĠEmily": 13452,
  "ĠKol": 10965,
  "ĠsloganÄ±": 10194,
  "qr": 14223,
  "ĠkÄ±rÄ±k": 4666,
  "ge": 921,
  "ĠRenk": 7504,
  "ments": 14218,
  "icilerinin": 15955,
  "Ġgerekiyor": 2936,
  "ona": 7476,
  "ĠKuÅŁlar": 9659,
  "Ġtemel": 1128,
  "Ġkeyifle": 7864,
  "ĠBelirli": 4073,
  "83": 10241,
  "Ġuydur": 15947,
  "ĠuygulamalarÄ±nÄ±": 7517,
  "ĠĠĠĠĠĠĠĠĠĠĠĠĠĠĠ": 577,
  "lerinde": 1940,
  "ĠoluÅŁturuyor": 13126,
  "ÅŁtÄ±rma": 12199,
  "ĠdeÄŁiÅŁk": 8702,
  "&": 25,
  "Ġana": 1133,
  "ĠMes": 5028,
  "Ġtan": 466,
  "ĠkÃ¼ltÃ¼rel": 5594,
  "app": 14329,
  "ĠbulmasÄ±": 15083,
  "ilirken": 16114,
  "Ġdizi": 1905,
  "ĠHÄ±r": 13136,
  "Ġyaparlar": 11953,
  "istik": 2849,
  "Ġufuk": 8618,
  "ĠÃ§Ä±kan": 5566,
  "Ġeroz": 8887,
  "Ġfi": 2316,
  "iki": 11327,
  "ĠQMessage": 6678,
  "Ġsesli": 6883,
  "ĠSalinger": 12462,
  "ĠbaÅŁla": 5307,
  "ĠkaynatÄ±n": 7096,
  "Ã¼re": 14994,
  "ans": 522,
  "Top": 12536,
  "mÃ¼ÅŁtÃ¼r": 13580,
  "ĠÃ§am": 8831,
  "Ġsonr": 3196,
  "Ġsol": 3349,
  "container": 13805,
  "ĠdeÄŁiÅŁtirilmesi": 14470,
  "late": 7324,
  "Ġmetre": 5730,
  "Ġgidec": 13001,
  "epoch": 7192,
  "Num": 8068,
  "Ġazalma": 14405,
  "ĠÃ§apÄ±nda": 6696,
  "ĠolduÄŁunuzu": 11413,
  "ĠYor": 11759,
  "ĠbÃ¼yÃ¼m": 2240,
  "parents": 10777,
  "Ä±nÄ±za": 6676,
  "ĠkalmalarÄ±nÄ±": 15112,
  "ĠkalÄ±yor": 11794,
  "ĠTay": 8666,
  "Ġhayalini": 13874,
  "Ġbut": 12568,
  "layout": 1943,
  "ĠarayÄ±ÅŁÄ±nda": 14116,
  "ĠCÃ¼mleden": 12364,
  "ĠseÃ§er": 13240,
  "Ġaj": 7756,
  "ĠÃ¶zelleÅŁtirme": 12281,
  "Ġbelgesi": 11174,
  "ĠÄ±ÅŁÄ±klar": 15381,
  "Ġmakineler": 9614,
  "ocuk": 1475,
  "Ġkaybet": 6345,
  "ĠodaklanÄ±r": 4360,
  "ĠZayÄ±f": 14451,
  "Ġarar": 14290,
  "ĠÄ°n": 884,
  "ĠartÄ±rmalarÄ±na": 11447,
  "Ġkuantum": 5462,
  "Ġbelirtti": 13928,
  "Ġkoruyucu": 15165,
  "ozzar": 15249,
  "ĠyazÄ±lÄ±m": 1375,
  "Ä±lmaz": 2816,
  "ĠObama": 12500,
  "Ġsistem": 729,
  "ĠparanÄ±n": 13726,
  "Ġpsikolojik": 9940,
  "ĠdeÄŁiÅŁtirmek": 7250,
  "Ã¼zÃ¼n": 11363,
  "ĠÅŁimdiye": 11973,
  "ĠparÃ§acÄ±klarÄ±n": 15612,
  "matik": 1045,
  "ĠÅŀim": 4518,
  "ĠatÄ±klarÄ±": 11184,
  "ĠTeknik": 10764,
  "layÄ±n": 400,
  "gÃ¼l": 7914,
  "ĠÅŀaÅŁkÄ±n": 15653,
  "ĠÃ§almak": 13192,
  "kÃ¼r": 2553,
  "Ġbilgilendirmek": 11601,
  "ĠyaÄŁmur": 3043,
  "Ġkoy": 3561,
  "elerde": 3194,
  "ĠkÃ¶pekler": 6804,
  "ĠkullanÄ±cÄ±larÄ±n": 2739,
  "Ar": 4458,
  "ĠiyileÅŁtirmek": 3459,
  "Ġproaktif": 10682,
  "Tab": 10901,
  "are": 3020,
  "ĠHidro": 10873,
  "Ġslogan": 4872,
  "ba": 4096,
  "Ġyerlerde": 8326,
  "ĠbaÄŁlÄ±": 1938,
  "ĠadÄ±mlarÄ±": 4266,
  "ĠOnun": 7080,
  "ĠTanÄ±ma": 11239,
  "siniz": 1601,
  "Ġses": 1231,
  "diÄŁinden": 10353,
  "Ġkale": 9781,
  "manlÄ±k": 10993,
  "Ġifadeleri": 7391,
  "yin": 11687,
  "ĠdÃ¶ndÃ¼r": 3562,
  "ĠtÃ¼rlerin": 5378,
  "ĠkÄ±lav": 9166,
  "ĠkararlarÄ±nÄ±": 13243,
  "Ġmaddi": 9897,
  "Ġkamu": 5529,
  "Ġyiyecekler": 5747,
  "ĠPa": 14346,
  "ĠgÃ¶m": 6326,
  "mÄ±yorum": 12553,
  "Ġtutkulu": 6588,
  "Ġ2048": 16145,
  "ĠTekrar": 8175,
  "Ġolmaktan": 6455,
  "Ġsahiplerinin": 11804,
  "ĠbaÄŁlantÄ±yÄ±": 13315,
  "ĠSeri": 14292,
  "Ġekipman": 7888,
  "ĠyÃ¶ntemler": 6889,
  "ĠdoÄŁal": 1430,
  "ĠCumhur": 9218,
  "ikleri": 5932,
  "ĠÃ§ocuÄŁun": 10560,
  "ĠmÃ¼cad": 2624,
  "ĠetkililiÄŁini": 11451,
  "ĠBiyolojik": 12489,
  "Ġtesti": 8000,
  "Ġsey": 8263,
  "FA": 8248,
  "ĠâĢĭâĢĭ": 9969,
  ");": 4779,
  "and": 1555,
  "uyorlar": 11873,
  "29": 6075,
  "datetime": 15493,
  "Ġwe": 10088,
  "ĠUmut": 7373,
  "iti": 7209,
  "ĠyapÄ±s": 10311,
  "ĠStar": 10639,
  "ĠprogramÄ±nÄ±n": 13810,
  "ĠyaÅŁamaya": 12706,
  "ĠArdÄ±ndan": 6874,
  "ĠalanlarÄ±na": 9538,
  "ĠkanÄ±t": 3157,
  "78": 12522,
  "ĠÃ§aÄŁ": 2846,
  "lay": 303,
  "ĠbalÄ±ÄŁÄ±": 13601,
  "Ã¼zgar": 1800,
  "ĠKan": 6099,
  "lardan": 1079,
  "Ġbebek": 9464,
  "obil": 6826,
  "ĠStok": 14294,
  "Ġen": 354,
  "Ġanket": 3921,
  "atsby": 4965,
  "26": 12520,
  "ĠHerkese": 14060,
  "ĠuygulamalarÄ±n": 8525,
  "ĠtÃ¼ketin": 13364,
  "In": 7316,
  "ĠmÃ¼ÅŁteriye": 7402,
  "ĠiÅŁten": 14947,
  "ĠmaÄŁ": 1643,
  "ĠFare": 13719,
  "Ġle": 2145,
  "ĠgÃ¶rsel": 2100,
  "iÄŁini": 1255,
  "ĠhatÄ±rlama": 10771,
  "ĠarkadaÅŁlar": 5584,
  "ĠyÃ¶netilebilir": 8345,
  "duklarÄ±": 7161,
  "diÄŁi": 2005,
  "acÄ±n": 5949,
  "ood": 5916,
  "Ġbulabil": 11402,
  "Ġavantaj": 1755,
  "ĠkÄ±yÄ±lmÄ±ÅŁ": 15548,
  "tract": 8859,
  "ĠÃ¶zetini": 6147,
  "Ġdilinin": 11827,
  "ds": 11669,
  "deki": 681,
  "Ġdin": 1656,
  "ĠSavaÅŁ": 5828,
  "ĠettiÄŁiniz": 10443,
  "ĠÃĩin": 2882,
  "Ġorganik": 6684,
  "larÄ±nÄ±n": 862,
  "Ġ\"âĸģ": 6845,
  "Ġbulut": 2309,
  "ĠardÄ±": 10636,
  "ĠveritabanÄ±ndan": 14748,
  "ĠdoÄŁum": 4946,
  "ĠĠĠĠĠĠĠĠĠĠĠĠĠĠĠĠĠĠĠĠĠĠĠ": 3143,
  "Ġdenir": 13193,
  "Ġkimdir": 14503,
  "Ġ-----------------": 15900,
  "iÅŁimi": 4588,
  "ĠgÃ¶rdÃ¼": 4106,
  "Ġal": 355,
  "Ġetiket": 3483,
  "ĠdeÄŁerleri": 6770,
  "Ġbitkiler": 6480,
  "addRow": 8552,
  "ĠgÃ¼": 584,
  "Ġnotu": 11492,
  "ilmiÅŁ": 1109,
  "Ãĸz": 14006,
  "ardÄ±": 5361,
  "ĠeriÅŁilebilir": 3937,
  "user": 2083,
  "ĠYoga": 10320,
  "ilere": 1908,
  "Ġeyalet": 5100,
  "assistant": 3639,
  "ĠIntel": 16346,
  "eÄŁinde": 13651,
  "Ã¼mler": 8657,
  "Ġetiketi": 12337,
  "List": 9019,
  "ĠdÃ¼ÅŁÃ¼n": 908,
  "Ġtehlik": 2467,
  "ĠbaÅŁarÄ±sÄ±na": 15358,
  "ĠEkib": 16162,
  "lasyon": 3593,
  "Ġtatili": 11106,
  "ĠBro": 14973,
  "Ġprom": 6651,
  "yah": 3583,
  "ĠoluÅŁturmaktÄ±r": 8356,
  "Ġailen": 5780,
  "Ġumu": 9703,
  "ĠÃ§arpan": 13946,
  "Ġplatformlar": 10154,
  "Ġdilbil": 2557,
  "pretrained": 15720,
  "ĠdÃ¼ÅŁÃ¼nÃ¼l": 11844,
  "ĠHikay": 3006,
  "eÅŁil": 2029,
  "Ã¼cu": 3794,
  "Ġsiyas": 2761,
  "ĠraÄŁmen": 2191,
  "atch": 3033,
  "J": 61,
  "ĠgÃ¶rÃ¼nÃ¼r": 4604,
  "ĠAÅŁaÄŁÄ±daki": 504,
  "SÃ¼t": 15758,
  "laki": 7323,
  "rar": 1541,
  "Ġ==": 2168,
  "Ġmetrek": 16041,
  "Ġsplits": 12981,
  "Ġ[],": 16063,
  "Ġyaratabilir": 6126,
  "Ġtemsili": 11823,
  "ĠABD": 1650,
  "ĠarasÄ±ndadÄ±r": 13248,
  "as": 254,
  "ĠiliÅŁkin": 8719,
  "sayÄ±nÄ±n": 16382,
  "ĠTesla": 7900,
  "ĠData": 12633,
  "ĠatÄ±n": 11805,
  "ĠÃ¶ksÃ¼rÃ¼k": 13027,
  "history": 4877,
  "ĠIP": 8340,
  "ĠsÃ¼zÃ¼n": 12956,
  "ĠAP": 5077,
  "matches": 15156,
  "Ġbed": 10260,
  "ĠatladÄ±": 6546,
  "ĠÅŁiddet": 5111,
  "ÅŁÄ±r": 8459,
  "uv": 1370,
  "ĠaÄŁaÃ§lardan": 16244,
  "ĠSonra": 7658,
  "rand": 7656,
  "ĠinanÃ§": 5457,
  "ĠRes": 4899,
  "ĠgÃ¼breler": 15674,
  "gorit": 937,
  "ĠkÄ±v": 5055,
  "ĠinanÄ±yorum": 6261,
  "ĠÃ¶ÄŁrenmelerine": 11007,
  "lÄ±ÄŁÄ±mÄ±zÄ±": 8718,
  "Ġtoplayarak": 11038,
  "ĠvatandaÅŁlarÄ±": 10498,
  "ĠkÄ±z": 2137,
  "MÃ¼ÅŁt": 13046,
  "Ġmalzemeler": 3435,
  "'s": 3247,
  "oÄŁu": 7366,
  "Ġtalep": 4161,
  "ĠyavaÅŁÃ§a": 4728,
  "Ġsosyo": 15545,
  "erince": 7770,
  "ÄŁu": 1038,
  "ĠiÅŁini": 12185,
  "Ġenerjisi": 3371,
  "ĠHareket": 10149,
  "ĠdÃ¼nyasÄ±": 11128,
  "ĠyazÄ±ldÄ±": 14343,
  "Ä±sÄ±nÄ±n": 7640,
  "ĠDemokras": 11205,
  "nowled": 6591,
  "laÅŁÄ±r": 11787,
  "Ġglik": 10612,
  "ĠdirenÃ§li": 10528,
  "Ġprote": 4109,
  "ĠÃ§Ã¼r": 14281,
  "Ġkuruldu": 15399,
  "AR": 4568,
  "eÄŁin": 1362,
  "tual": 16327,
  "ĠJÃ¼p": 9794,
  "ĠInsta": 8397,
  "Ġchunk": 8375,
  "ĠkonuÅŁ": 1152,
  "meniz": 5957,
  "ĵ": 177,
  "ĠAmaÃ§": 15531,
  "Ä±rtÄ±cÄ±": 10281,
  "Ġ1": 312,
  "Ġazaltabiliriz": 15449,
  "^": 81,
  "aÄŁmen": 2166,
  "ĠardÄ±ndan": 2521,
  "`": 83,
  "likÃ§i": 10312,
  "leÅŁti": 6314,
  "ĠArkadaÅŁlÄ±k": 9622,
  "Ä±lÄ±r": 910,
  "Ġmate": 3140,
  "ĠÃ¼zerindeki": 2615,
  "ĠAtmosfer": 10810,
  "Ġkendi": 1627,
  "ĠkullanÄ±ÅŁ": 9278,
  "ĠuyarÄ±": 5633,
  "ĠVeritabanÄ±": 9677,
  "ĠkonuÅŁmacÄ±": 9368,
  "ĠparÃ§a": 2097,
  "ĠU": 791,
  "ĠStreet": 14674,
  "Ġnesiller": 10203,
  "arlarÄ±": 11310,
  "ĠKarakterler": 9635,
  "ĠGerÃ§ek": 3124,
  "efon": 2003,
  "br": 4097,
  "ĠÃ¶lÃ§Ã¼": 2390,
  "Ġsatan": 9346,
  "ĠHum": 15927,
  "ĠÃ§ub": 4886,
  "Ġatma": 11027,
  "ĠcÃ¼ml": 2980,
  "ĠSay": 2831,
  "ĠID": 15212,
  "Ġyeni": 521,
  "ĠBÃ¶cek": 10947,
  "ĠyetiÅŁtir": 6359,
  "iss": 6522,
  "Ġhis": 902,
  "ĠgÃ¶rÃ¼len": 15937,
  "Ġbiri": 1420,
  "ĠDÄ±ÅŁarÄ±": 8421,
  "ĠamaÃ§larÄ±": 11517,
  "ĠalanÄ±nÄ±": 3476,
  "button": 5238,
  "ĠÃ§alÄ±ÅŁmaya": 7094,
  "Ġsayf": 2024,
  "abiliriz": 15152,
  "Ġlistesinde": 13216,
  "Ġhizmetlerinde": 12232,
  "ĠSÄ±caklÄ±k": 9916,
  "ĠHesap": 10986,
  "ĠadÄ±mlara": 16169,
  "ĠkullanmayÄ±": 6842,
  "eviz": 10959,
  "Ġazalan": 5723,
  "anoz": 13071,
  "ĠgÃ¶zle": 9355,
  "ĠAd": 3385,
  "ĠinÅŁa": 3552,
  "inizi": 1812,
  "ĠSipariÅŁ": 10641,
  "aÄŁÄ±n": 9048,
  "cusu": 7910,
  "osil": 3180,
  "Ġ2019": 6365,
  "Ġbeklenen": 7687,
  "estor": 2217,
  "ĠQGroup": 10399,
  "ladÄ±ÄŁÄ±": 9337,
  "vocab": 2711,
  "ĠyÃ¼kseklik": 9813,
  "Ã¼": 197,
  "setRange": 10889,
  "Ġkirlilik": 8917,
  "ĠCom": 12668,
  "ĠÃ§iÃ§ekler": 13424,
  "ekiz": 14258,
  "ĠyaklaÅŁan": 10407,
  "ĠcezasÄ±": 10503,
  "Ġmakalesi": 6250,
  "ĠvirÃ¼sler": 15485,
  "ĠeÅŁ": 1383,
  "diklerini": 10425,
  "?\",": 9231,
  "ĠiÃ§eren": 1752,
  "leme": 850,
  "conversation": 2839,
  "ĠdeÄŁ": 415,
  ")(": 14862,
  "ĠMo": 3293,
  "ĠAvust": 13909,
  "muÅŁ": 2093,
  "okoli": 15042,
  "oli": 1448,
  "leriniz": 8505,
  "Ġinceler": 13506,
  "ĠAlmanca": 15432,
  "database": 7429,
  "ĠbaÅŁÄ±": 14344,
  "ĠkalmÄ±ÅŁ": 13186,
  "Ġtool": 5225,
  "Ġazaltabilirler": 15448,
  "Ġbil": 376,
  "ĠVÃ¼cut": 15951,
  "aS": 9022,
  "ĠyazÄ±lmalÄ±dÄ±r": 13148,
  "ĠList": 2047,
  "ola": 2747,
  "Ġbildirimlerini": 8198,
  "Ġkaynaklanan": 5573,
  "Ġdeneyime": 10110,
  "ĠkoÅŁullarÄ±": 9889,
  "Ġengel": 2677,
  "ĠOrman": 4761,
  "Ġgetirmeye": 9329,
  "Ġetmek": 633,
  "100": 4730,
  "ĠpaydaÅŁ": 8725,
  "Ġotel": 9371,
  "Ġlan": 5474,
  "Kar": 15747,
  "uÅŁtur": 13591,
  "Ġmiras": 14812,
  "ĠD": 320,
  "los": 1731,
  "ĠgÃ¼ncelleyin": 10459,
  "ĠhayatlarÄ±nÄ±": 9336,
  "Ġindirim": 4253,
  "].": 4922,
  "Ġmaksimize": 8691,
  "ĠyazÄ±lÄ±mlarÄ±": 16183,
  "Ġvarsa": 5802,
  "rey": 15790,
  "ĠgÃ¶kyÃ¼zÃ¼nÃ¼n": 9862,
  "ĠSevinÃ§li": 14632,
  "iforni": 4646,
  "Ġhizmetleri": 1964,
  "ĠAslan": 8770,
  "ĠÃĸÄŁrenimi": 4725,
  "ĠAmazon": 3622,
  "les": 2148,
  "Ġkelime": 1257,
  "¦": 119,
  "iyorum": 1480,
  "ĠkolaylaÅŁtÄ±rdÄ±": 12883,
  "no": 13059,
  "ĠbozulmasÄ±": 15526,
  "Ġbelirlenen": 14366,
  "Ġpat": 2372,
  "aba": 878,
  "Ġicat": 5930,
  "Ġdisk": 8084,
  "dÃ¼ÄŁ": 2398,
  "ĠarkadaÅŁlarÄ±na": 11081,
  "ĠArtÄ±k": 14453,
  "inger": 10356,
  "ĠGener": 9839,
  "Ġkaynama": 10074,
  "Ġuydu": 10044,
  "laÅŁtÄ±kÃ§a": 12036,
  "ĠSeÃ§enek": 8979,
  "ĠgerÃ§ekleÅŁir": 11203,
  "ĠkullanÄ±labilir": 944,
  "emek": 1775,
  "parator": 7405,
  "ĠGiy": 8848,
  "Any": 14765,
  "ĠKonum": 11549,
  "SÄ±": 13567,
  "ight": 3181,
  "tÄ±ÄŁÄ±": 8670,
  "Ġmod": 1528,
  "Ġgerektirebilir": 11100,
  "ĠKÃ¼t": 12631,
  "Ġzirv": 5709,
  "Ġsebze": 4333,
  "ĠÃ¶zellikler": 4263,
  "Ġkurar": 13210,
  "inder": 11857,
  "Ġstratejik": 9860,
  "ros": 4432,
  "Ã¶lÃ¼": 13618,
  "ĠGeridÃ¶n": 12019,
  "ĠgÃ¼rÃ¼ltÃ¼lÃ¼": 15516,
  "US": 10903,
  "ĠÅŁirketi": 7840,
  "iliyor": 7922,
  "fat": 2393,
  "ĠformatÄ±nda": 15511,
  "ĠHayatÄ±n": 7279,
  "ĠkÄ±rÄ±klÄ±ÄŁÄ±": 9414,
  "ĠKÃ¼resel": 2893,
  "Ã¶cek": 9039,
  "ibe": 8855,
  "ĠSabah": 9208,
  "ĠRobotik": 8782,
  "Ġjson": 6379,
  "Ġzamanlarda": 3313,
  "ĠnoktasÄ±": 4241,
  "Ġyandan": 3130,
  "alÄ±ÄŁÄ±": 3432,
  "ĠkonuÅŁtu": 8512,
  "ĠboÄŁ": 9706,
  "Ġkonulardan": 16009,
  "Ġmistik": 12607,
  "ĠadamlarÄ±": 8012,
  "Ġbelirli": 1360,
  "ĠDÃ¶n": 4743,
  "ĠkayÄ±tlarÄ±": 11995,
  "ĠtiÅŁÃ¶rt": 14840,
  "kÄ±rÄ±": 14213,
  "Ġmaliyetlerini": 7126,
  "lenme": 3494,
  "Ġki": 2672,
  "Ġbekle": 11093,
  "Ġkrom": 13075,
  "Ġsaniyelik": 13818,
  "ĠParagraf": 8040,
  "Ã¼rt": 15867,
  "Ġshape": 14762,
  "ĠkullanmanÄ±n": 2374,
  "Ġuf": 6450,
  "ĠdÃ¼nyasÄ±nÄ±": 15331,
  "mesini": 2450,
  "Ġonunla": 8779,
  "ĠaraÅŁtÄ±rÄ±n": 5048,
  "ĠbaÅŁarÄ±yla": 8193,
  "ĠyÃ¼zyÄ±lÄ±n": 11586,
  "Ġtablosu": 5113,
  "ĠFÄ±stÄ±k": 14364,
  "ĠsalÄ±nÄ±r": 16223,
  "Ġkarakt": 3519,
  "Ã¼ÅŁ": 464,
  "ĠodayÄ±": 15645,
  "ĠsandviÃ§": 7426,
  "Ġbazen": 8602,
  "kon": 14210,
  "ĠyanÄ±l": 8541,
  "Ġ\"\"\")": 9666,
  "lamayan": 14323,
  "ĠMÃ¼mkÃ¼n": 6218,
  "Ġkentsel": 12111,
  "ĠbÃ¼yÃ¼t": 15974,
  "bot": 5845,
  "ĠcivarÄ±nda": 15717,
  "Ġderinliklerinde": 8418,
  "ĠhayatÄ±mÄ±zÄ±n": 10524,
  "ĠdÃ¼nya": 1261,
  "Error": 6929,
  "Ġsorunu": 4060,
  "dump": 16293,
  "Ġdesenlerini": 14571,
  "ĠhÄ±zlandÄ±r": 8883,
  "ĠÄ±sÄ±": 2057,
  "ĠÅŁarkÄ±cÄ±": 13427,
  "Ġvegan": 7052,
  "Ġkonusunda": 1584,
  "ĠVeritab": 7637,
  "<|class|>": 7,
  "ĠkonuÅŁmalar": 8744,
  "ĠKuruluÅŁ": 14126,
  "Ã¼lasyonu": 13599,
  "Ġgenellikle": 983,
  "ĠkarÅŁÄ±lÄ±klÄ±": 12942,
  "Ġiklim": 1843,
  "oÃ§": 8811,
  "Ä±p": 1927,
  "ĠanlamlÄ±": 2152,
  "ĳ": 175,
  "setValue": 7728,
  "ĠalÄ±nan": 6366,
  "Ġfeneri": 10541,
  "ĠFÄ±rÃ§asÄ±": 16378,
  "layers": 7773,
  "Ġtrafik": 5680,
  "forman": 1525,
  "ĠbaÄŁlayan": 16018,
  "__": 774,
  "ĠTom": 6018,
  "ĠTÃ¼k": 7952,
  "Ġkategorize": 4033,
  "Ġaday": 5314,
  "ĠÃ¶nlemeye": 9895,
  "Ġtedavi": 5340,
  "conv": 9341,
  "Ġbakar": 10379,
  "ULT": 15642,
  "laÅŁma": 3844,
  "Ġbuna": 5475,
  "Pr": 9976,
  "ĠJake": 13754,
  "ĠbilgisayarÄ±": 9797,
  "ĠsakinleÅŁtirici": 11577,
  "Ġkasabada": 8416,
  "ĠodaklanÄ±n": 8371,
  "ĠfÄ±rsatlarÄ±nÄ±": 15307,
  "Ġterapisi": 14086,
  "outputs": 10819,
  "ĠS": 292,
  "ĠÃ§alÄ±ÅŁmasÄ±": 5727,
  "Ġsek": 3068,
  "ĠiÃ§erik": 2381,
  "ĠboÅŁluk": 13961,
  "ĠsayÄ±sÄ±nÄ±n": 11435,
  "izce": 11336,
  "afa": 7626,
  "ĠÃĩeviri": 11249,
  "ĠparkÄ±n": 13950,
  "Ġmarat": 13924,
  "diy": 9026,
  "ĠHolden": 13495,
  "ĠÃ¶zetleyin": 1831,
  "Ġ...": 12103,
  "ĠoranlarÄ±": 13717,
  "Ġfont": 5521,
  "alnÄ±z": 2598,
  "18": 5236,
  "Ġyolda": 8133,
  "ĠsarÄ±": 3382,
  "ĠÄ°sten": 15522,
  "ĠsaÄŁladÄ±ÄŁÄ±": 8594,
  "ĠyÄ±kamak": 16358,
  "Ġkendinize": 13837,
  "ĠYardÄ±mcÄ±": 14123,
  "ĠTemsil": 8390,
  "alt": 3836,
  "Ã¼yÃ¼": 7078,
  "Ġsebzeli": 10156,
  "Ġmerkezine": 16300,
  "ĠNijer": 13184,
  "Ġtr": 1067,
  "ĠÃ§ok": 756,
  "ĠkadÄ±nÄ±n": 16006,
  "Ġsav": 1556,
  "back": 5173,
  "ĠÅŁablon": 11637,
  "ĠiletiÅŁimi": 5095,
  "abrika": 6635,
  "ĠuzaklaÅŁtÄ±r": 8926,
  "Ġistey": 14417,
  "ĠBilim": 3455,
  "Ġdepolamak": 4211,
  "ĠNÃ¼kleer": 13183,
  "ĠGÄ±da": 7624,
  "ĠtanÄ±mlama": 7511,
  "ĠolduÄŁ": 563,
  "ĠyÃ¶ntemini": 14517,
  "Ã§Ä±lÄ±": 11696,
  "ĠoluÅŁturabilir": 7482,
  "ĠcanlÄ±": 2089,
  "dÄ±klarÄ±": 5663,
  "ĠyayÄ±lmasÄ±": 13819,
  "dam": 1410,
  "ĠyakÄ±n": 2465,
  "ĠdÄ±ÅŁ": 2195,
  "ĠÃ§ekmek": 5266,
  "ĠUnion": 13488,
  "Ġtoplanan": 10068,
  "amÄ±z": 7211,
  "ĠRich": 10698,
  "ĠolduÄŁun": 6758,
  "sion": 3544,
  "attentions": 9908,
  "Ġorganizma": 6271,
  "Ġ8": 881,
  "Ġfeda": 13640,
  "ĠtabanlÄ±": 2872,
  "ĠkullanÄ±mÄ±yla": 7253,
  "lie": 12603,
  "ĠTabii": 10818,
  "Ġdikkat": 1793,
  "create": 6489,
  "abilme": 6993,
  "ĠAtÄ±k": 13403,
  "Ġ\"": 319,
  "laÅŁmak": 15104,
  "menizi": 6873,
  "Ġuygulama": 887,
  "aze": 2818,
  "ĠCode": 3540,
  "Ġanlam": 1023,
  "ileÅŁtir": 1357,
  "ĠyatÄ±r": 1662,
  "ĠCuma": 13168,
  "ĠtarzÄ±nÄ±n": 15446,
  "ĠAlt": 7534,
  "ĠdeÄŁerlendirmesini": 16195,
  "Ġboyan": 9801,
  "ĠÃĸzet": 10445,
  "ĠyÄ±lda": 4356,
  "Ġkib": 10000,
  "Ġmateryali": 12423,
  "ĠgÃ¼vende": 5876,
  "ĠoyuncularÄ±n": 13402,
  "ĠSnap": 15013,
  "urls": 9419,
  "Ġkost": 16007,
  "ĠtanÄ±": 1056,
  "atÄ±r": 868,
  "Ġedilm": 2700,
  "Ġbin": 6202,
  "Ġrandev": 8658,
  "ĠkanÄ±tlanmÄ±ÅŁtÄ±r": 15454,
  "ilmesini": 5800,
  "¼": 138,
  "Ä±sÄ±": 961,
  "Ġmiyav": 12380,
  "P": 67,
  "ĠgÃ¼cÃ¼": 3323,
  "et": 223,
  "ezer": 5436,
  "ĠOrt": 6567,
  "od": 437,
  "Ġcre": 7619,
  "Ġgiz": 1498,
  "ĠzamanlarÄ±n": 14362,
  "ĠformÃ¼l": 10793,
  "ĠÄ°Ã§": 2291,
  "Ġkod": 1618,
  "ĠHaklar": 12175,
  "()}": 13791,
  "inputs": 9151,
  "ovask": 10808,
  "ĠkullanÄ±rken": 6574,
  "ĠÃ¶nÃ¼ne": 9290,
  "eÄŁiyle": 15006,
  "ĠdÃ¼nyasÄ±na": 16239,
  "Ġcinsinden": 9192,
  "Ä±nabilir": 4352,
  "ĠkarÅŁÄ±t": 15148,
  "ĠyansÄ±tÄ±yor": 15439,
  "ĠCodeMindConfig": 12005,
  "ĠDÄ±ÅŁ": 5788,
  "ĠplanÄ±nÄ±": 16119,
  "ĠacÄ±": 3406,
  "opar": 12192,
  "ĠYerel": 5468,
  "Ġhacmini": 12960,
  "ĠDNA": 6013,
  "ĠgerektiÄŁinde": 5333,
  "O": 66,
  "Ġfaiz": 8758,
  "Ġhttps": 6298,
  "ĠkonularÄ±nda": 14392,
  "ĠSc": 7213,
  "Ġdinamik": 5221,
  "e": 88,
  "ĠyÃ¶nlendiren": 14649,
  "ĠnoktasÄ±nÄ±": 10788,
  "ĠdÃ¼zeltmek": 8980,
  "ĠyapÄ±lmÄ±ÅŁtÄ±r": 9063,
  "Ä±ndaki": 697,
  "ĠNegatif": 8931,
  "eceli": 14296,
  "ĠsÃ¶yleyen": 12816,
  "tizm": 14226,
  "ĠbiyoÃ§eÅŁit": 12388,
  "ĠyazÄ±m": 4983,
  "iew": 9201,
  "ĠgÃ¶rÃ¼nÃ¼mÃ¼nÃ¼": 13473,
  "tÄ±m": 5359,
  "lesi": 5187,
  "ĠMetni": 7015,
  "Ġnedensel": 15127,
  "ĠMartin": 14111,
  "Ġsonsuz": 3296,
  "ĠtopraÄŁÄ±": 10217,
  "Ġzencef": 10024,
  "dict": 3731,
  "Ġbenzersiz": 2184,
  "Ġboyn": 9853,
  "ĠWashington": 7665,
  "ĠtartÄ±ÅŁÄ±yor": 11160,
  "torch": 4451,
  "Ä±mdan": 13643,
  "ĠAlexa": 14760,
  "Ġalanda": 5644,
  "Ġsunmak": 4152,
  "ĠDer": 9498,
  "Ġgittim": 6258,
  "ĠdÄ±ÅŁa": 12363,
  "Ġdeneyimlerden": 15252,
  "Ġkorur": 8332,
  "Ġisimleri": 11146,
  "ĠBen": 1585,
  "enize": 7744,
  "ĠAÅŁ": 3749,
  "Ġkan": 3032,
  "ĠP": 431,
  "Ġhikayeyi": 7243,
  "ĠgÃ¶rÃ¼ntÃ¼len": 16235,
  "ĠdaÄŁarcÄ±": 10563,
  "etre": 6519,
  "ĠartÄ±rabilirler": 13799,
  "Ġkabak": 8544,
  "ĠdoÄŁuÅŁ": 13259,
  "Ġettiler": 6688,
  "iciler": 3427,
  "Ã§ak": 7325,
  "kÃ¼": 1501,
  "ĠDenklem": 7315,
  "Ġmuamele": 10885,
  "Ġkafe": 14010,
  "ĠrolÃ¼nÃ¼": 9158,
  "Ġkal": 530,
  "ĠbahÃ§ede": 14023,
  "Ġkenar": 3264,
  "ĠsÄ±v": 5953,
  "Ġseviyeleri": 4722,
  "ĠhayranlÄ±kla": 8035,
  "Ġseviy": 1497,
  "kÄ±n": 2973,
  "Ġexist": 10170,
  "Ġhizmetin": 10085,
  "ĠMeÅŁ": 9740,
  "ĠÃ§alÄ±n": 13191,
  "forma": 10378,
  "Ã¼llÃ¼": 8314,
  "Ã§e": 1520,
  "ĠÄ±sÄ±tÄ±n": 3763,
  "ĠgÃ¶steri": 13250,
  "ĠbulutlarÄ±": 13375,
  "ĠartÄ±rÄ±lmÄ±ÅŁ": 12734,
  "Ġcontext": 7849,
  "ĠmolekÃ¼lleri": 12438,
  "ĠdeÄŁiÅŁikliklerin": 12844,
  "ĠyÃ¼kleyin": 14406,
  "ĠRAM": 9523,
  "ĠLÃ¼ks": 10701,
  "istant": 2793,
  "ĠÃ§Ä±": 5856,
  "ĠÃĩay": 13745,
  "ĠyaratÄ±k": 2986,
  "yer": 8635,
  "ĠiliÅŁkili": 3265,
  "Ġbadem": 8644,
  "ĠÃ§Ä±ktÄ±lar": 10400,
  "Ä±mÄ±z": 1187,
  "ĠkaydÄ±r": 10685,
  "Ġiti": 6517,
  "malarÄ±": 2276,
  "ize": 599,
  "ĠtoplanÄ±r": 12701,
  "ĠEinstein": 8435,
  "Ġteknoloj": 1069,
  "Ġtab": 1164,
  "ĠverildiÄŁinde": 1435,
  "celik": 2689,
  "ĠHiper": 13486,
  "ĠSaÄŁ": 1599,
  "rite": 13063,
  "Ġbirbirlerine": 7856,
  "ĠdÃ¼zenlemek": 5950,
  "ĠdeÄŁiÅŁiklikler": 4912,
  "ĠTatlÄ±": 7895,
  "sÄ±nÄ±z": 3262,
  "Ġtoplumun": 9885,
  "ĠLos": 5500,
  "Ġformatta": 15512,
  "ĠsayÄ±sal": 6033,
  "ĠveritabanÄ±nda": 15555,
  "Ã§ap": 5476,
  "kar": 4379,
  "Ġiz": 779,
  "ĠProfesyonel": 14062,
  "ĠNoel": 12970,
  "Ġbirbirlerini": 12827,
  "Ġbozuk": 7867,
  "ĠÃĩift": 7502,
  "ĠcÃ¼mlelik": 5283,
  "task": 8454,
  "aketi": 11319,
  "Ġlabels": 7322,
  "ĠcÃ¶mert": 10306,
  "ĠcihazlarÄ±": 5002,
  "ĠmaÄŁazaya": 3482,
  "Ã¼rÃ¼z": 5622,
  "dek": 3793,
  "ĠbaÅŁlangÄ±cÄ±": 12664,
  "Ġvurgul": 16253,
  "ĠpÃ¼rÃ¼zsÃ¼z": 7207,
  "Ä±nÄ±zÄ±": 2825,
  "ĠÃ§iftÃ§i": 7276,
  "Ġdaire": 11907,
  "Ġhasta": 3145,
  "ĠdoÄŁu": 16101,
  "Ġfit": 4937,
  "Ġplajda": 8210,
  "Ġcesaretini": 16337,
  "Ġyorgun": 3638,
  "Ġzaman": 463,
  "Ġhat": 1983,
  "ĠÃ§atÄ±ÅŁmayÄ±": 14794,
  "Ġmobilya": 7018,
  "tÄ±na": 4421,
  "lutter": 15695,
  "Ã¼rÃ¼zsÃ¼z": 6495,
  "lambda": 10210,
  "ĠiÃ§i": 15841,
  "ĠbastÄ±r": 11476,
  "Ġtesis": 10748,
  "Ġany": 12635,
  "ĠÃĩalÄ±ÅŁanlarÄ±": 15499,
  "ĠÅŁeklindedir": 10453,
  "Ġmater": 4019,
  "87": 11655,
  "ĠtartÄ±ÅŁan": 8769,
  "Ġolacak": 1349,
  "ĠkoÅŁul": 2662,
  "Ġzorluk": 2041,
  "EN": 3745,
  "otal": 4084,
  "ĠkorumanÄ±n": 9535,
  "ĠdÃ¼ÅŁÃ¼nceli": 8383,
  "sample": 7195,
  "ĠayrÄ±l": 11125,
  "ĠEnerji": 4673,
  "Ġsigara": 10272,
  "cr": 2322,
  "Ġprob": 15975,
  "ĠkullanÄ±labilirlik": 11071,
  "Ġruh": 2902,
  "urn": 854,
  "ĠEylÃ¼l": 14758,
  "ĠÃ¶nceliklendirin": 9934,
  "ij": 1470,
  "Ġmakale": 1916,
  "ĠbÃ¶lg": 2110,
  "count": 6405,
  "lendirme": 6553,
  "ĠaldÄ±": 2880,
  "Ġyaz": 407,
  "ĠalanÄ±ndaki": 7510,
  "ĠÄ°ngilizc": 11540,
  "Ġolabilirken": 13762,
  "ĠdeÄŁiÅŁebilir": 8337,
  "gel": 1382,
  "Ġsistemlerin": 9802,
  "ĠkumaÅŁ": 9962,
  "ĠcoÄŁrafi": 10228,
  "omali": 14911,
  "Ġty": 3531,
  "Ġreaksiyon": 9431,
  ".\"": 1007,
  "Ġpozisyon": 5059,
  "ĠyapÄ±lar": 13288,
  "Ġbelirtmek": 11155,
  "device": 3971,
  "ĠPar": 2115,
  "kal": 6936,
  "ausalLM": 10554,
  "ĠbaÅŁÄ±na": 4255,
  "Ġempat": 15219,
  "Ġkoyar": 15138,
  "ĠÅŁaÅŁÄ±rt": 15519,
  "duÄŁu": 2867,
  "ĠSe": 6006,
  "ful": 14898,
  "lemek": 924,
  "Ä±nca": 14243,
  "ĠamaÃ§": 1946,
  "Ġker": 8646,
  "layÄ±cÄ±": 2613,
  "ĠtarzÄ±nda": 15445,
  "hend": 2124,
  "ĠÃĸner": 8951,
  "ĠAsist": 12871,
  "Ġtemelli": 8167,
  "aydÄ±": 6724,
  "Ġtoplumsal": 11950,
  "ĠÃ¶zÃ¼t": 9076,
  "inci": 1713,
  "ĠartÄ±rÄ±r": 4756,
  "ĠDahasÄ±": 7035,
  "ĠÃĩevr": 2218,
  "ing": 688,
  "isiyle": 6624,
  "ĠgeÃ§irdiler": 16219,
  "ĠTÄ±p": 10982,
  "ĠÅŁifreleme": 6913,
  "ĠkatmanÄ±": 10182,
  "ĠbÃ¼yÃ¼lÃ¼": 12205,
  "ĠYÃ¼r": 6639,
  "ĠduvarlarÄ±": 12932,
  "ĠgÃ¼zelliÄŁini": 6046,
  "ĠGen": 1453,
  "ĠyapmasÄ±": 6963,
  "ĠhastalÄ±": 9144,
  "...\")": 11200,
  "ĠkabarcÄ±k": 12491,
  "Ġfon": 1972,
  "ĠParlak": 8376,
  "ĠendÃ¼stri": 6262,
  "ĠaÃ§Ä±klama": 1790,
  "Ġarray": 9623,
  "ĠAmaz": 3604,
  "Ġdevice": 6885,
  "Ġilerlemeleri": 15395,
  "Ã¼mÃ¼zdeki": 6387,
  "cÄ±lÄ±k": 3162,
  "ĠoluÅŁturur": 2848,
  "Ġkuma": 9161,
  "ĠtahÄ±l": 7830,
  "Ġgecesi": 6580,
  "ĠolmalarÄ±": 8879,
  "ĠBÃ¶yle": 7337,
  "ĠĠĠĠĊ": 5996,
  "ĠoluÅŁturulan": 7623,
  "bit": 5015,
  "ĠzekayÄ±": 16355,
  "ĠaralÄ±ÄŁÄ±": 12145,
  "cileri": 8445,
  "iminin": 6214,
  "Ġgec": 2673,
  "Ġkesi": 10605,
  "ĠdÃ¼zensiz": 13777,
  "Ġfrekans": 8622,
  "ih": 582,
  "ĠText": 15059,
  "ase": 2588,
  "ĠÃ¶nemlidir": 1246,
  "ĠKoÅŁ": 7069,
  "loaded": 14535,
  "emeyecek": 15536,
  "laÅŁmanÄ±n": 11403,
  "prompt": 4049,
  "ĠotomatikleÅŁtirebilir": 13447,
  "ĠÃ§ab": 7939,
  "Ġfikrini": 7162,
  "ĠulaÅŁtÄ±": 5570,
  "ĠÃ§": 260,
  "gre": 12209,
  "Ġsmoothie": 9471,
  "Ġbilgisayarlar": 5451,
  "Ġevinde": 16108,
  "ĠeÅŁleÅŁ": 8722,
  "Ġken": 1222,
  "ĠiÅŁletmeleri": 11172,
  "ĠsaÄŁlaya": 14335,
  "Ġfiltreleme": 10841,
  "rÄ±ca": 536,
  "Ġolmak": 925,
  "eyim": 12138,
  "Ġkaynaklara": 6131,
  "ĠTasarruf": 15672,
  "ĠeÅŁitsizlik": 12842,
  "ĠkÄ±": 2408,
  "uyoruz": 7254,
  "Ġstr": 768,
  "lah": 3833,
  "ĠyazÄ±lÄ±r": 13700,
  "ĠĠĠĠĠĠĠ": 283,
  "ĠCep": 10999,
  "ĠBer": 7936,
  "Ġekleme": 15983,
  "Ġdilini": 8696,
  "Ġmemelidir": 14531,
  "isiniz": 10297,
  "Ġmetod": 8694,
  "Ġteknikleri": 5157,
  "Ġbelki": 15094,
  "ĠnÃ¼f": 2453,
  "ĠSayÄ±n": 7872,
  "stit": 14289,
  "ĠsÄ±nÄ±flandÄ±rÄ±labilir": 14605,
  "Ġsoruyu": 10690,
  "Ġpro": 506,
  "ĠÄ±sÄ±nma": 4816,
  "unlar": 6618,
  "ĠkonuÅŁmalarÄ±": 11507,
  "questions": 12029,
  "Ġbuldum": 13162,
  "tiÄŁini": 7321,
  "ayda": 6211,
  "Ä±n": 203,
  "ĠateÅŁ": 3298,
  "ĠeriÅŁmek": 8177,
  "Ġsona": 4846,
  "ĠÅŀÃ¼kran": 13254,
  "ĠgelmiÅŁtir": 8494,
  "Ã¼kÃ¼m": 1700,
  "viÃ§i": 13876,
  "ilk": 14244,
  "ĠsÄ±rrÄ±": 15195,
  "Ġpers": 3507,
  "Ġ20": 1149,
  "Ġzorund": 13229,
  "yasal": 3399,
  "Ġyok": 1433,
  "ĠGÃ¼rÃ¼l": 15056,
  "ĠÃ¶ÄŁelerin": 5511,
  "ĠyazÄ±lÄ±": 7225,
  "erinde": 2967,
  "90": 7450,
  "Ġbelirten": 12198,
  "ĠarkadaÅŁlÄ±k": 5738,
  "ĠYÃ¼ksek": 3440,
  "erse": 7230,
  "Ġerimesi": 14807,
  "Ġproblemleri": 5328,
  "ĠÃ¶zetleyen": 5656,
  "Ġlanguage": 4279,
  "ĠHalk": 13006,
  "ĠgÃ¶n": 1984,
  "Ġtalebi": 10532,
  "Ġyetersiz": 7516,
  "vi": 1862,
  "Ġmetnin": 4803,
  "Ġline": 7463,
  "amak": 4572,
  "ĠinanÄ±lmaz": 4269,
  "inasyon": 12106,
  "ĠTurkish": 4243,
  "ĠdÃ¶ngÃ¼": 5467,
  "ĠaralÄ±k": 8481,
  "ĠmedyanÄ±n": 8551,
  "tah": 13589,
  "Ġ1960": 14736,
  "ĠbaktÄ±": 5650,
  "laÅŁtÄ±rmak": 14445,
  "ĠSanat": 6160,
  "Ġolurdu": 6246,
  "ĠdeÄŁiÅŁtirin": 3183,
  "ww": 3860,
  "Ä±t": 1547,
  "ĠDÃ¼nya": 1208,
  "Ġbulutlar": 11534,
  "arn": 2671,
  "abilirsiniz": 3757,
  "ĠboÅŁluÄŁu": 11971,
  "ĠsabÄ±rsÄ±z": 6592,
  "ĠnoktalarÄ±": 5969,
  "elf": 403,
  "ĠHÄ±zlÄ±": 3765,
  "gradient": 9967,
  "ĠkaldÄ±m": 7966,
  "Amer": 11269,
  "ĠÃĩevresel": 10780,
  "['": 11663,
  "ĠkaÄŁÄ±t": 4246,
  "Ġte": 1151,
  "Ġtemiz": 2347,
  "ĠArmstrong": 15226,
  "Ġmerham": 11498,
  "Ġ'__": 15243,
  "ĠcoÅŁkulu": 11623,
  "Ġbey": 4224,
  "ĠyÃ¶ntemlere": 14518,
  "ĠaltÄ±ndaki": 5583,
  "Ã¼kleer": 6295,
  "ĠiÅŁbir": 2536,
  "ĠYorgun": 15684,
  "eze": 13738,
  "Ġ65": 12243,
  "ersizi": 15988,
  "Ġhizmetlerine": 6453,
  "ĠyayÄ±": 6720,
  "Ġkav": 1398,
  "Ġdilim": 3543,
  "ĠbaÅŁlÄ±ca": 14345,
  "ĠDomuz": 12061,
  "edeyse": 3864,
  "Ġaslan": 8705,
  "ĠsÃ¼r": 498,
  "Ġsebz": 2186,
  "ĠTuz": 5716,
  "eme": 1098,
  "Ġokul": 3317,
  "ĠcÃ¼mlede": 1945,
  "Ġkombinasyonunu": 10535,
  "ĠJay": 11811,
  "Ġtrilyon": 12270,
  "ĠhÃ¼kÃ¼met": 2332,
  "ĠÃ§alÄ±ÅŁtÄ±rmak": 10207,
  "Ġpandemisi": 7303,
  "Ġfikr": 4294,
  "ĠyÃ¼rÃ¼": 5154,
  "ĠsalatasÄ±": 14129,
  "Ġmaruz": 4815,
  "ĠkarÅŁÄ±laÅŁtÄ±rma": 7531,
  "):": 1060,
  "sÄ±n": 3643,
  "Ġprojeler": 11119,
  "ĠkadÄ±nlar": 13953,
  "rafik": 3132,
  "ĠcÃ¼mles": 4444,
  "ĠkenarÄ±nda": 13417,
  "lanmasÄ±": 2451,
  "landÄ±rÄ±lmÄ±ÅŁ": 14408,
  "Ġkatk": 3656,
  "Ġtutma": 9347,
  "Ġekip": 3874,
  "ĠkarÄ±ÅŁÄ±m": 8405,
  "Cache": 14873,
  "80": 4780,
  "Ġtencerede": 12975,
  "ches": 9791,
  "isidir": 6857,
  "ĠiÅŁg": 6968,
  "Ġcam": 8108,
  "BaÅŁarÄ±": 13008,
  "Ġkapsar": 12385,
  "Ã¼kunet": 15886,
  "Ġblok": 5018,
  "ĠÃ¶neme": 11803,
  "ĠkullandÄ±ÄŁÄ±": 11741,
  "latmak": 11840,
  "ĠYouTube": 11257,
  "Ġyasal": 5745,
  "ĠortasÄ±nda": 7520,
  "melidir": 1425,
  "ĠyapÄ±lacak": 5812,
  "Ġperformansa": 13325,
  "ĠYaÄŁmur": 5840,
  "Ġsanat": 2109,
  "Ġolu": 334,
  "ĠÃĩÄ±ktÄ±": 4184,
  "ams": 10635,
  "Ġkonteyn": 13234,
  "ĠtamamladÄ±m": 16179,
  "Ġgezin": 5099,
  "ĠÃĸzg": 8016,
  "inden": 1272,
  "ĠSize": 11737,
  "na": 1623,
  "ĠbaÅŁkanlÄ±k": 11225,
  "Ġex": 2680,
  "mÃ¼r": 8074,
  "Ġsistemidir": 10419,
  "ĠyÃ¶nÃ¼": 13747,
  "ĠalÃ§ak": 15913,
  "aget": 11665,
  "Ä±mda": 7341,
  "ĠgÃ¼ncellemeleri": 15620,
  "ĠÃ¶ÄŁrenmesine": 10684,
  "ebra": 14385,
  "emesi": 8281,
  "ezilya": 9090,
  "Ġmed": 1394,
  "Ġgem": 6834,
  "ĠsÄ±caklÄ±ÄŁÄ±nÄ±": 12272,
  "liÄŁin": 4148,
  "Ġfederal": 10300,
  "use": 3473,
  "ĠgÃ¼ndÃ¼": 12207,
  "ĠBÃ¼tÃ§e": 15607,
  "Ġdar": 6086,
  "ĠanlaÅŁÄ±lÄ±r": 9167,
  "Ġsuc": 11826,
  "ĠyazÄ±cÄ±": 8123,
  "Ġdiz": 1243,
  "Ä±v": 8641,
  "Ġotomobil": 14556,
  "Ġoku": 2116,
  "PT": 15754,
  "heet": 3803,
  "ĠEk": 1207,
  "Ġkov": 11809,
  "Ġbirinin": 4974,
  "allback": 6800,
  "ach": 2829,
  "ĠbakÄ±m": 2474,
  "ĠkullanÄ±labilecek": 3689,
  "DO": 13562,
  "asÄ±z": 12133,
  "side": 12249,
  "ĠKarbon": 4555,
  "ĠMut": 4836,
  "Ġtemp": 6237,
  "lendirin": 12240,
  "Ġresult": 4857,
  "ĠbaÅŁlayarak": 7793,
  "ĠsaÄŁladÄ±": 3413,
  "Ġolanak": 1225,
  "Ġsuy": 7327,
  "ĠYasasÄ±": 9289,
  "ĠtÃ¼rbin": 10358,
  "ĠÃ¶zet": 1185,
  "ory": 2099,
  "ĠEkmek": 11477,
  "Ġsunuyor": 10373,
  "ĠÃ¶nerisi": 12348,
  "msg": 5915,
  "Ġsihir": 16333,
  "Ġnerede": 8950,
  "ĠgeÃ§": 665,
  "ĠyorumlarÄ±": 11546,
  "ĠSatÄ±n": 10023,
  "ĠÃ¼zerinde": 1137,
  "Ġtava": 7473,
  "organ": 13093,
  "ategory": 11111,
  "Ġadresi": 8227,
  "ĠTavuk": 7300,
  "ĠyÃ¶nelimli": 9096,
  "ĠsÃ¼reÃ§": 1880,
  "Ã¼lÃ¼k": 12195,
  "Ġsa": 15812,
  "ĠGeÃ§erli": 10476,
  "ĠMuz": 4288,
  "ĠfonksiyonlarÄ±": 14661,
  "ĠgÃ¼venliÄŁi": 3875,
  "Ġkuyru": 12977,
  "Ġenerjinin": 5396,
  "Ġdurdu": 12237,
  "ĠToplam": 7283,
  "ibonacci": 7183,
  "Ġtutmaya": 9556,
  "ĠseÃ§": 794,
  "Ġsh": 5773,
  "Ġhukuk": 9719,
  "fen": 2718,
  "length": 2631,
  "_{": 11664,
  "ĠkullanÄ±ldÄ±ÄŁÄ±": 9279,
  "Ġotonom": 4724,
  "men": 968,
  "ĠOy": 7956,
  "ĠÃ¶ldÃ¼": 16100,
  "azÄ±": 1031,
  "jetary": 6498,
  "ĠbirleÅŁik": 14779,
  "Ġhashtag": 10556,
  "Ġpla": 2078,
  "Ġtoprak": 3904,
  "ical": 7960,
  "Ġbirey": 1929,
  "r": 101,
  "ĠarayÃ¼zÃ¼": 5284,
  "lo": 567,
  "ĠÃĩavdar": 15134,
  "ĠdiÄŁerlerinden": 14414,
  "Ġsebzelerin": 14594,
  "Ġmutasyon": 12789,
  "geler": 5612,
  "ĠHayatÄ±": 13915,
  "sor": 4420,
  "c": 86,
  "Ġtehlikeli": 4160,
  "uluÄŁu": 2740,
  "ram": 1431,
  "Ġgelecekte": 5825,
  "Ak": 13039,
  "dal": 11670,
  "Ĳâķ": 7464,
  "Ġfelaket": 8480,
  "acaktÄ±r": 4667,
  "Ġduyurdu": 12971,
  "Ġkeyif": 2422,
  "ĠayrÄ±m": 5898,
  "ĠartÄ±rmaya": 4179,
  "ĠsayÄ±larÄ±nÄ±n": 15184,
  "ĠpeÅŁ": 9270,
  "ĠNasÄ±l": 6753,
  "ĠElmer": 16202,
  "hur": 6714,
  "Ġinfluencer": 15063,
  "lut": 12552,
  "ĠÃ¼retken": 4065,
  "larÄ±mÄ±zÄ±": 5229,
  "ĠSonbahar": 10095,
  "ĠMel": 11367,
  "Ġbitki": 3566,
  "ĠhÄ±r": 4281,
  "ower": 11091,
  "Ã¼me": 11359,
  "lem": 443,
  "lemeler": 14358,
  "Ġhuzurlu": 5165,
  "miyorum": 13581,
  "ĠbulutlarÄ±n": 13376,
  "ined": 9705,
  "ose": 12677,
  "ĠsÄ±": 808,
  "mayÄ±n": 5775,
  "ĠtÄ±bbi": 2180,
  "ĠÄ°ngiltere": 5160,
  "ĠyardÄ±mcÄ±": 615,
  "ĠgÃ¶nderdi": 15382,
  "ĠyÃ¶ntem": 1465,
  "ĠLan": 13221,
  "baÄŁ": 9448,
  "\"})": 11262,
  "37": 10893,
  "lanmadan": 15838,
  "lanmayÄ±": 13623,
  "ĠsÃ¼reÃ§lerini": 10436,
  "ĠMahk": 14113,
  "Ġkurs": 8138,
  "Ġbeklenmedik": 4525,
  "ĠâĢ¢": 2067,
  "```": 13509,
  "Ä±rdÄ±": 7755,
  "ise": 3350,
  "ĠkazanmalarÄ±na": 15289,
  "ĠbÃ¼yÃ¼ÄŁe": 15657,
  "ĠÃĩiz": 13205,
  "ĠolacaÄŁÄ±": 9770,
  "boBox": 14589,
  "ĠðŁ": 14926,
  "ĠSahara": 14724,
  "err": 8261,
  "Ġzarf": 6790,
  "masÄ±yla": 4439,
  "ĠeÄŁit": 1085,
  "kelim": 12550,
  "ĠcihazÄ±n": 11500,
  "Ġnesneleri": 6045,
  "Ġail": 2789,
  "Ġmemeli": 6153,
  "ĠkÄ±ÅŁ": 5181,
  "ity": 2913,
  "azla": 737,
  "Ġvergiler": 13458,
  "Ġokyanusun": 14662,
  "ĠCop": 13714,
  "ĠulaÅŁma": 10403,
  "ÄŁanÃ¼stÃ¼": 7050,
  "ĠAnd": 11431,
  "ĠZaman": 2768,
  "Ġverilmesi": 15906,
  "Ġdesenler": 9603,
  "caÄŁÄ±nÄ±z": 15317,
  "Ġrev": 14299,
  "ĠolasÄ±lÄ±k": 8731,
  "olum": 5484,
  "lk": 1705,
  "ilerle": 5132,
  "ĠbahÃ§": 4297,
  "40": 5470,
  "ĠDoÄŁru": 3269,
  "Ġbaklagiller": 14160,
  "ĠPizza": 13156,
  "ĠKentsel": 13662,
  "ĠseÃ§imdir": 11956,
  "tiv": 1436,
  "ĠaÄŁacÄ±n": 11839,
  "ages": 8207,
  "tandard": 10174,
  "Ä±ldÄ±yor": 14478,
  "pr": 1533,
  "ĠtonlarÄ±": 15465,
  "¹": 135,
  "ĠGeliÅŁtirme": 12028,
  "Ġelektronik": 5158,
  "icisi": 6230,
  "Ġazim": 11404,
  "ud": 10923,
  "ĠakÄ±ntÄ±": 10080,
  "ĠkaÃ§Ä±nÄ±l": 13321,
  "ĠEÄŁlenceli": 14122,
  "Ġbo": 701,
  "ĠMutfak": 11603,
  "Ġetkileri": 3311,
  "Ġhidrojen": 11223,
  "ĠMad": 6434,
  "lardaki": 5480,
  "ĠMar": 2933,
  "ĠBilimsel": 10493,
  "ĠErken": 10188,
  "Ġevrimi": 15441,
  "ĠSes": 5558,
  "ĠÃ§Ã¶plÃ¼k": 15649,
  "ĠbaÅŁlar": 3558,
  "Ġtek": 500,
  "Ä±lmak": 4835,
  "Ġbahar": 5400,
  "Ġist": 730,
  "ĠvarÄ±ÅŁ": 11808,
  "Ġdayanan": 11104,
  "ĠkÃ¶ken": 9816,
  "gisayar": 15776,
  "ĠduÅŁ": 9036,
  "atÄ±rÄ±m": 8891,
  "return": 9695,
  "ĠmÃ¼fred": 13322,
  "ĠÃ¼niversiteye": 11613,
  "ð": 154,
  "Ġdokunmatik": 14070,
  "perature": 6786,
  "ĠtarafÄ±ndan": 847,
  "asa": 4283,
  "ĠTip": 7484,
  "ĠElektrik": 5271,
  "ĠEv": 1503,
  "Ġsorunsuz": 11489,
  "ĠsÃ¼resini": 14369,
  "Ġedecektir": 13686,
  "ĠTOKENS": 15919,
  "ĠgÄ±": 15820,
  "ĠdÃ¶nÃ¼ÅŁtÃ¼rÃ¼yor": 15278,
  "Ġincel": 2140,
  "Ġayar": 2091,
  "ĠanladÄ±": 12636,
  "Ġport": 8475,
  "eceÄŁi": 1310,
  "ĠgÃ¼venlik": 1901,
  "ĠKahvaltÄ±": 10196,
  "ĠeÄŁlen": 2527,
  "ĠyanÄ±tlar": 9372,
  "123": 10177,
  "Ġnormaliz": 6172,
  "Ġlisteden": 10350,
  "ĠyapÄ±yorum": 15050,
  "<|pad|>": 17,
  "Ġzamir": 8232,
  "Ã§a": 1029,
  "liÄŁinin": 2458,
  "Ġbireylerin": 4764,
  "ĠÅŁar": 4696,
  "Ġreferans": 7563,
  "Ġuzat": 10351,
  "ĠEy": 5563,
  "ĠsÃ¶yledi": 5282,
  "Ġfil": 2752,
  "ĠEtkili": 5523,
  "Ġsebzeler": 4562,
  "ĠN": 514,
  "Ġalgoritma": 1282,
  "ĠyapacaÄŁÄ±m": 15905,
  "Ġetmelidir": 8157,
  "ĠSarÄ±msak": 10640,
  "ĠhatalarÄ±nÄ±": 7543,
  "ĠdavranÄ±ÅŁlarÄ±nÄ±": 5972,
  "Ġresponse": 6880,
  "lin": 3526,
  "ĠsÄ±nÄ±flandÄ±rmasÄ±": 15367,
  "lÃ¼tfen": 5352,
  "Ġedindi": 15179,
  "Ġplatformda": 14586,
  "Ġdikey": 12760,
  "tiÄŁinde": 8259,
  "ĠbÃ¼yÃ¼mesine": 16280,
  "[-": 10577,
  "ĠKÃ¶tÃ¼": 7271,
  "Ġanlamaya": 9365,
  "Ġgeride": 14463,
  "ĠsÃ¶z": 1822,
  "ĠarttÄ±": 6566,
  "Ek": 14875,
  "Ġav": 2845,
  "ater": 7934,
  "Ġsab": 2172,
  "ĠNLP": 6754,
  "book": 7273,
  "or": 239,
  "nÃ¼": 14910,
  "ĠinsanÄ±": 7360,
  ",\"": 6598,
  "ĠÃ¶ÄŁrenmenin": 6024,
  "session": 6289,
  "okul": 14317,
  "Ġmargin": 8767,
  "laya": 936,
  "items": 9198,
  "ila": 8072,
  "Ġbirden": 3105,
  "ĠanlaÅŁ": 2455,
  "ĠBaÅŁarÄ±lÄ±": 3640,
  "amayacaÄŁÄ±": 14759,
  "Ġpul": 11728,
  "Ã¼rken": 4387,
  "Ġben": 883,
  "Ġideal": 5075,
  "ĠParÃ§": 13893,
  "alue": 3252,
  "rompt": 3961,
  "El": 11272,
  "Ġbenzin": 8712,
  "ĠgÃ¶re": 1003,
  "Ġbizi": 5421,
  "onicalSample": 15690,
  "ĠÄ°nternetin": 8393,
  "Ġsandaly": 7579,
  "Ġom": 8272,
  "ĠNeden": 5724,
  "Ġileten": 7827,
  "ĠÃ¼zÃ¼m": 13758,
  "ĠfarkÄ±ndalÄ±k": 5410,
  "Ġmektubu": 8975,
  "ĠOlay": 7792,
  "Ġcanav": 8024,
  "Alice": 12526,
  "ĠCoun": 11393,
  "Ġfaaliyet": 2551,
  "ĠSunu": 15010,
  "eyahat": 2006,
  "Script": 5065,
  "ĠÄ°f": 8854,
  "Text": 4276,
  "ĠDict": 3253,
  "Ġdokuz": 10782,
  "Ã¶rÃ¼n": 8322,
  "result": 7690,
  "m": 96,
  "Ġerime": 16059,
  "Ġsistemleri": 3038,
  "ĠsaygÄ±": 3478,
  "Ġegz": 10718,
  "liye": 10381,
  "isayar": 852,
  "Ġinceleyerek": 12850,
  "Ġlet": 14230,
  "09": 13035,
  "leyerek": 2832,
  "Ġanalisti": 14440,
  "san": 484,
  "Ġarabalar": 7270,
  "Ã¼cre": 7240,
  "ĠHeming": 15539,
  "}": 112,
  "45": 4343,
  "Ġtyping": 7884,
  "ĠTablo": 5600,
  "ĠdÃ¶ngÃ¼ye": 16330,
  "Ġdestekleyici": 12302,
  "ĠMec": 12162,
  "ilerinde": 15168,
  "64": 10240,
  "lanmaya": 12125,
  "Ġlif": 7090,
  "ĠAkÅŁam": 6576,
  "melerine": 2094,
  "ĠyapÄ±labilir": 6461,
  "Ġlisans": 11411,
  "ĠmÃ¼ÅŁteri": 860,
  "kdir": 10914,
  "ĠdÃ¼zel": 2850,
  "ĠOl": 3256,
  "Ġyapabilen": 14629,
  "posta": 2054,
  "Ġbuzlu": 13967,
  "ces": 10245,
  "Ġvejetaryen": 11708,
  "ĠaslÄ±nda": 11068,
  "Ġgerekt": 2045,
  "dÄ±ÄŁÄ±": 1619,
  "ĠAÅŁaÄŁÄ±": 5425,
  "Ġsandal": 5169,
  "ĠyarÄ±n": 10990,
  "ĠbakÄ±mÄ±": 6360,
  "ĠÃĸr": 7506,
  "ĠKediler": 5302,
  "Ġfaktor": 15346,
  "ĠKart": 8659,
  "Ġkatman": 3285,
  "Ġ$": 2990,
  "ĠiÅŁlevlerini": 13942,
  "ado": 4938,
  "Ġiyimser": 7086,
  "ĠBelirt": 13479,
  "Ġbulunan": 2473,
  "ĠÅŁÃ¶yledir": 15517,
  "Ġduyuyor": 4321,
  "eleri": 590,
  "oryManager": 16263,
  "Ġdikkatini": 13871,
  "Ġklin": 14248,
  "Ġlim": 4137,
  "Ġayakta": 12866,
  "ĠpopÃ¼lasyon": 8922,
  "Ġbiyok": 15416,
  "ĠZengin": 11849,
  "ĠIII": 8037,
  "Ġtarihinde": 9582,
  "span": 3458,
  "ĠdeÄŁiÅŁir": 9111,
  "ĠalÄ±ÅŁveriÅŁin": 13377,
  "Ġplanlar": 12752,
  "Ġsonuc": 4114,
  "(\"<|": 8527,
  "yasyon": 7197,
  "larÄ±mla": 4963,
  "mektedir": 1985,
  "t": 103,
  "setText": 9820,
  "anÄ±n": 1088,
  "¯": 126,
  "sachus": 16079,
  "Ġalt": 1160,
  "ĠGates": 14326,
  "ĠBecer": 11625,
  "lanabilir": 2096,
  "Ġb": 199,
  "dikleri": 5329,
  "her": 4785,
  "ĠaydÄ±nla": 10495,
  "ĠdeÄŁiÅŁiklikleri": 5900,
  "azz": 8112,
  "Engine": 13441,
  "ĠÃ¼retim": 3612,
  "Ġeder": 999,
  "Ġsorulan": 16150,
  "ĠkaynaÄŁÄ±": 2996,
  "ĠrÃ¼zgarda": 14610,
  "ĠotomatikleÅŁtir": 4240,
  "ĠÃ¶neririm": 10859,
  "Ġekonominin": 12303,
  "value": 3824,
  "ĠgÃ¶ster": 933,
  "Ġbelirle": 10339,
  "ĠZ": 950,
  "ĠÃ§aresiz": 14624,
  "Ġima": 3467,
  "ĠsÃ¶zleÅŁ": 11913,
  "ĠzamandÄ±r": 13716,
  "Ġayarlanabilir": 11929,
  "ĠGec": 7784,
  "ĠkoronavirÃ¼s": 14420,
  "de": 265,
  "ĠkrallÄ±ÄŁÄ±n": 15507,
  "wikipedia": 14919,
  "ĠÃ§eÅŁitlendir": 15241,
  "Ġfam": 6523,
  "der": 1087,
  "ĠmÃ¼ÅŁterilere": 3969,
  "ulmuÅŁ": 4249,
  "Ġmetin": 1747,
  "esiz": 6213,
  "Ġrenktir": 13848,
  "sÄ±fat": 14313,
  "<|javascript|>": 2,
  "ĠÄ±span": 8935,
  "ratio": 12027,
  "Ġinkar": 15923,
  "air": 13053,
  "ĠeÅŁlik": 11095,
  "Ġsessizlik": 11479,
  "ĠBes": 12601,
  "Ġ\"\"": 5079,
  "ĠolmalarÄ±nÄ±": 10070,
  "SYÄ°": 8625,
  "Ġons": 10363,
  "ĠProtein": 16211,
  "pul": 7194,
  "(),": 7111,
  "ĠgerÃ§eklik": 6134,
  "Ġkut": 1965,
  "elemek": 11707,
  "Ġ17": 2847,
  "ĠkiÅŁiyi": 5442,
  "Ġkendilerine": 10742,
  "ĠO": 425,
  "ince": 15800,
  "Ä±": 191,
  "ĠÅŁef": 4284,
  "ar": 202,
  "ĠsÃ¼resi": 6543,
  "Ġdo": 395,
  "amuk": 9727,
  "Ġkontrast": 9443,
  "Ġduydu": 6240,
  "vil": 5849,
  "Ġim": 1081,
  "dular": 9748,
  "Ġtipi": 7019,
  "Ġhareketin": 15266,
  "ĠkeÅŁfetmeye": 6681,
  "ĠhÄ±ÅŁ": 9260,
  "ĠbuluÅŁ": 5256,
  "ĠkadÄ±ndÄ±r": 13404,
  "ĠkuÅŁlarÄ±": 16296,
  "ĠkapsayÄ±cÄ±": 13937,
  "Ġmalzemelerin": 6568,
  "lok": 4245,
  "ĠkalÄ±t": 13187,
  "Ġfazla": 741,
  "Ġgetirmek": 2304,
  "ayi": 5617,
  "Ġparti": 5636,
  "mu": 2136,
  "ĠYumurta": 6180,
  "Ġkullanmadan": 9053,
  "ĠdÃ¼ÅŁt": 7470,
  "ĠvektÃ¶r": 6709,
  "ĠÄ°letiÅŁim": 5863,
  "description": 9441,
  "ĠRisk": 7643,
  "Ġistek": 4355,
  "ĠGeÃ§iÅŁ": 15424,
  "Ġrun": 12629,
  "dikten": 6374,
  "undaki": 4691,
  "ĠkÃ¶t": 7377,
  "Ġbelirtir": 5797,
  "ĠgÃ¶rÃ¼nÃ¼yordu": 8969,
  "ĠkuraklÄ±k": 9215,
  "ĠFiyat": 6973,
  "Ġolma": 636,
  "ikola": 5024,
  "ming": 14216,
  "ĠÃľzerinde": 12903,
  "larÄ±mÄ±z": 2519,
  "ĠR": 616,
  "ĠÄ°klim": 2242,
  "ĠdoÄŁanÄ±n": 7521,
  "Ġmemory": 12321,
  "Ġbenims": 5831,
  "fini": 10582,
  "ĠÅŁiddetli": 7427,
  "Ġsana": 10105,
  "Ġdepolama": 3059,
  "div": 8307,
  "ĠÃĩÃ¶l": 10064,
  "Ġdiyeti": 15392,
  "uma": 5070,
  "orb": 7606,
  "Ä±st": 7600,
  "Ġsantimetre": 15713,
  "ĠkaynaklÄ±": 5731,
  "ĠinanamÄ±yorum": 15304,
  "ĠÃ§ekti": 14457,
  "ĠtabakasÄ±": 15618,
  "caÄŁÄ±na": 6788,
  "Ġmobilyalar": 14788,
  "Ġvurgular": 8945,
  "example": 7408,
  "ĠÅŀub": 12738,
  "ĠgÃ¶revlerde": 12731,
  "Ġpazarlamak": 14512,
  "ĠetrafÄ±na": 13369,
  "ĠEngel": 12274,
  "bilecek": 3985,
  "ĠhiÃ§": 1887,
  "ĠsÃ¼recek": 15099,
  "ilebilen": 10372,
  "Ġkalbim": 14050,
  "ublic": 9593,
  "ĠbirleÅŁ": 6422,
  "leÅŁt": 6945,
  "ĠolduÄŁunu": 911,
  "Ġsorunlara": 11487,
  "ĠyaptÄ±ÄŁÄ±nÄ±": 11142,
  "ĠÃ¶neriyorum": 12349,
  "ĠTar": 2754,
  "ik": 232,
  "ĠbaÄŁlantÄ±lÄ±": 6466,
  "Ġlens": 16312,
  "ĠnasÄ±l": 707,
  "Ġsample": 10271,
  "Ġyay": 1034,
  "Ġmuhtemelen": 7174,
  "Ġ{})": 11852,
  "amanÄ±n": 8497,
  "Ġgri": 8465,
  "ĠAtom": 11970,
  "simum": 4669,
  "ª": 123,
  "indedir": 6141,
  "Ġduyguyu": 7652,
  "Ġvan": 5924,
  "duklarÄ±nÄ±": 15500,
  "ĠÃĸrgÃ¼tÃ¼": 14796,
  "Ġhem": 1422,
  "ĠyÃ¼zeyi": 12258,
  "ĠbirleÅŁtirme": 16287,
  "Ġgider": 4239,
  "ĠiP": 4736,
  "dule": 6329,
  "ĠyoÄŁurdu": 14767,
  "orlar": 12597,
  "Ġlah": 14663,
  "diÄŁ": 670,
  "acaÄŁÄ±nÄ±zÄ±": 13936,
  "ĠiyileÅŁtirmeler": 12800,
  "ak": 225,
  "ĠatÄ±ÄŁÄ±nÄ±": 12410,
  "freqs": 13018,
  "ĠsÄ±fatlarÄ±": 15411,
  "Ġdef": 899,
  "Ġzorb": 6864,
  "ĠkasabanÄ±n": 11215,
  "ÏĢ": 12102,
  "Ġyerl": 16022,
  "ĠkaynaÄŁÄ±dÄ±r": 8027,
  "Ġkoymak": 12907,
  "ĠsÄ±caklÄ±klara": 14563,
  "ograf": 4135,
  "atlar": 10617,
  "Ġterimi": 7380,
  "ĠÃ¼stÃ¼nden": 13343,
  "ullable": 14980,
  "Ġduruyor": 16065,
  "Ġzinc": 4055,
  "ĠSÄ±cak": 3790,
  "ĠÃ¼zgÃ¼n": 5440,
  "elerinizi": 7642,
  "Result": 7904,
  "ĠsuÃ§": 2822,
  "Ġvad": 2685,
  "ĠAra": 2966,
  "Ġ42": 10060,
  "jektif": 14207,
  "ĠkoÅŁ": 1659,
  "ĠbÃ¼tÃ¼n": 6272,
  "Ġbelg": 3037,
  "adÄ±k": 6100,
  "las": 1247,
  "Ġdizeyi": 8717,
  "ĠBaÅŁlÄ±k": 10402,
  "Ġverilerek": 14493,
  "ĠfelÃ§": 12139,
  "Ġresif": 11361,
  "Ġtype": 4619,
  "ĠRowling": 13750,
  "ĠYÃ¼z": 3841,
  "iÃ§": 1193,
  "Ġsavunma": 11992,
  "ĠNot": 8504,
  "Ġorganizmalar": 11535,
  "ĠkonuÅŁarak": 12762,
  "Ġsolunum": 6912,
  "Ġstudent": 5822,
  "ĠsÃ¶yley": 11903,
  "Ġdilleri": 8519,
  "Ġstil": 5332,
  "ĠdosyalarÄ±": 9637,
  "pa": 6303,
  "ĠdÃ¼ÅŁÃ¼nÃ¼r": 8896,
  "Ġ375": 12193,
  "aten": 5551,
  "Ġiyidir": 6759,
  "Ġfonksiyon": 3184,
  "ĠKing": 15025,
  "Ġsevimli": 10367,
  "Ġailesi": 8589,
  "ĠatasÃ¶zÃ¼": 7580,
  "Ġkategorilerden": 12344,
  "Ġbattan": 12855,
  "32": 7187,
  "70": 13038,
  "ĠFotosentez": 7797,
  "ari": 4970,
  "ĠDoÄŁu": 7681,
  "Ġkurun": 4711,
  "ĠNorveÃ§": 13017,
  "ĠgeliÅŁt": 15070,
  "Ġberi": 4686,
  "miÅŁtir": 3046,
  "Ġarayan": 6005,
  "landÄ±": 2425,
  "Ã¼zellik": 5858,
  "Ä±mÄ±zÄ±": 3684,
  "Ġyapabilir": 4289,
  "Ġbuz": 3174,
  "Ġkitab": 4448,
  "iirin": 10585,
  "Kedi": 14184,
  "lerin": 525,
  "Ex": 14180,
  "Ġhast": 1722,
  "ĠgeliÅŁmiÅŁ": 4072,
  "madÄ±": 7924,
  "Ġverinin": 11436,
  "edia": 7987,
  "ĠÃ¶de": 8652,
  "Ġcaz": 6628,
  "ĠMesaj": 9665,
  "Ä±nda": 348,
  "ĠihtiyaÃ§larÄ±": 7001,
  "Ġikisini": 16088,
  "ĠolayÄ±": 6792,
  "Ġolan": 457,
  "not": 8256,
  "ĠdalÄ±dÄ±r": 10545,
  "ĠhazÄ±rlayÄ±n": 4450,
  "ĠBaÄŁÄ±m": 7022,
  "ĠayrÄ±ldÄ±": 10437,
  "ild": 4382,
  "dÄ±ÅŁÄ±": 15769,
  "Ġkimlik": 3203,
  "ĠHassas": 13553,
  "cm": 7909,
  "Ġtarihsel": 10128,
  "Ġolsalar": 13436,
  "ĠURL": 7108,
  "ĠkÄ±zar": 9607,
  "ĠbÃ¶lgelerde": 9153,
  "Ġvizyon": 9253,
  "ĠÃ§Ä±kmaya": 7358,
  "ydÄ±m": 15795,
  "Ġotomasyonu": 9133,
  "acak": 1604,
  "ullan": 294,
  "char": 11036,
  "ĠdÃ¼zenlemeleri": 12894,
  "ĠÃ§atÄ±ÅŁma": 5056,
  "Ġpanel": 9200,
  "Ġmantar": 10122,
  "ilerden": 5084,
  "ĠdÃ¼ÅŁÃ¼nc": 2439,
  "Ġpandemi": 7425,
  "nik": 5846,
  "Ġpozitif": 6282,
  "mail": 12576,
  "Ġbekletin": 16182,
  "Ä±za": 9756,
  "ĠsÃ¼recidir": 4910,
  "ĠnÃ¼fusun": 9903,
  "ended": 6548,
  "ĠÄ±rk": 9011,
  "ĠbÃ¼yÃ¼ktÃ¼r": 10349,
  "Ġgerekmektedir": 7501,
  "ĠFÄ±r": 3390,
  "Ġmisiniz": 5231,
  "Ã¼ncÃ¼": 3398,
  "ĠGeÃ§": 2951,
  "ĠÃ¶zen": 6107,
  "Ġetkilen": 4022,
  "ĠÅŀirketin": 10161,
  "ĠdÃ¼zeni": 10069,
  "ĠMerkÃ¼r": 13891,
  "ĠreklamÄ±": 14654,
  "ĠAk": 2000,
  "Ġkarakterleri": 7003,
  "hid": 9981,
  "ĠGit": 8115,
  "isyonu": 7612,
  "pute": 15237,
  "larken": 6832,
  "ĠEtiket": 12980,
  ").": 2048,
  "ĠalmanÄ±z": 15058,
  "type": 2407,
  "inlerce": 7564,
  "ĠkoÅŁulsuz": 15405,
  "ĠCap": 15959,
  "ĠFaydalarÄ±": 8237,
  "Ġtaz": 10615,
  "ner": 7916,
  "ĠEuro": 14338,
  "patterns": 8046,
  "Ġyelpazede": 12909,
  "ĠÃ¶ncelik": 2881,
  "ĠiÅŁley": 6746,
  "Ä°k": 13689,
  "Ġstandart": 3796,
  "ĠyaptÄ±m": 11371,
  "chunk": 5439,
  "pair": 15585,
  "ÄŁÄ±nÄ±z": 4805,
  "omo": 9516,
  "Ġenvan": 9501,
  "andom": 9363,
  "ĠTit": 13132,
  "upcake": 16139,
  "Par": 13566,
  "Ġunut": 2798,
  "ĠKimlik": 11201,
  "ĠaÃ§Ä±lÄ±ÅŁ": 8612,
  "lerini": 529,
  "Ġturn": 14259,
  "Ġsem": 3021,
  "ibon": 6534,
  "Ġre": 2479,
  "ĠA": 262,
  "dela": 13105,
  "duktan": 10827,
  "larÄ±na": 634,
  "perest": 12320,
  "unuzda": 13317,
  "ĠÅŁefkat": 14021,
  "ĠasÄ±": 13625,
  "yar": 2359,
  "eng": 5179,
  "Ġkriterleri": 14768,
  "ĠgeÃ§miÅŁ": 2548,
  "Ġval": 7326,
  "ĠÅŁarap": 15532,
  "ĠakÅŁam": 3512,
  "radi": 5294,
  "ĠEth": 10989,
  "ĠCanlÄ±": 7493,
  "ĠSaygÄ±larÄ±mla": 5985,
  "ĠMia": 11368,
  "ĠÃľlke": 9429,
  "ĠkullanÄ±ldÄ±": 7214,
  "Ã¼ba": 10600,
  "chat": 5947,
  "Ġmetne": 10707,
  "ple": 11296,
  "ĠsigortasÄ±": 15624,
  "Ġcevizi": 9596,
  "ĠsÃ¶zdiz": 8236,
  "Or": 10573,
  "Ġbahsed": 8190,
  "ĠCum": 6542,
  "ĠÅŁaÅŁ": 3508,
  "ĠteÅŁekkÃ¼r": 3416,
  "ĠtatlandÄ±rÄ±cÄ±": 14524,
  "Ġdal": 1999,
  "Ġsorted": 11802,
  "Ġpart": 4110,
  "Ġseminer": 14651,
  "Ġhazin": 8914,
  "ĠarkadaÅŁlarÄ±yla": 8908,
  "cast": 11281,
  "rue": 1897,
  "ĠgeÃ§it": 16024,
  "Ġpratik": 4236,
  "ĠGoogle": 3573,
  "Ġnew": 6357,
  "zger": 11690,
  "7": 42,
  "ĠkullanabileceÄŁi": 15019,
  "ĠhÄ±zda": 16043,
  "mesinin": 7595,
  "uyorum": 6562,
  "Ġdizin": 11087,
  "ĠdoÄŁrulamak": 11043,
  "ĠdÃ¼ÅŁÃ¼ncelerini": 9388,
  "Ġenerjisini": 11900,
  "Ġgelmek": 10672,
  "ĠSat": 4740,
  "ĠemisyonlarÄ±nÄ±n": 13378,
  "Ġverilerin": 2456,
  "Ġmecazi": 14147,
  "Ġverebilir": 3991,
  "iyi": 1204,
  "osyal": 1102,
  "Ġkampanyas": 13385,
  "ĠyÃ¼rÃ¼y": 9834,
  "ĠbaÅŁvur": 3753,
  "Ġikinci": 3260,
  "unk": 3213,
  "Ġmadencil": 7308,
  "ps": 3347,
  "ĠAyak": 13742,
  "ĠTemel": 5404,
  "ĠsÄ±klÄ±kla": 4554,
  "ĠatÄ±f": 5677,
  "indow": 4091,
  "Ġbinlerce": 8082,
  "Ġbulama": 15103,
  "Ġdenemek": 12208,
  "ĠEthernet": 15676,
  "Ġistat": 5643,
  "ĠgÃ¼Ã§lendirmeye": 12001,
  "Ġdolar": 1988,
  "ĠaÃ§an": 7489,
  "rosoft": 6486,
  "undan": 1721,
  "Ġkurnaz": 15136,
  "Ġetraf": 2271,
  "urt": 4227,
  "Ã§Ä±n": 8815,
  "ĠhayatÄ±nda": 9815,
  "Ġres": 1188,
  "ĠÃĩoklu": 13400,
  "ĠbulaÅŁ": 8870,
  "tim": 2964,
  "download": 5418,
  "dÄ±r": 326,
  "Ġisyan": 16121,
  "ĠÃ¶zgÃ¼n": 15089,
  "Checked": 14144,
  "Ġ2017": 8784,
  "ĠÃ¶rneÄŁini": 4480,
  "ĠyapÄ±landÄ±r": 4660,
  "ĠaracÄ±n": 10020,
  "Ġad": 823,
  "ĠAnketler": 15610,
  "ĠdÃ¶nÃ¼ÅŁtÃ¼rÃ¼r": 14500,
  "ĠhenÃ¼z": 8470,
  "Ġber": 5850,
  "ĠsilahlÄ±": 15534,
  "ĠbÃ¶lÃ¼n": 3616,
  "rac": 11810,
  "Ġpop": 1620,
  "ĠtaÅŁÄ±yor": 13888,
  "ĠuÃ§urum": 14810,
  "aÄŁÄ±t": 2131,
  "Ġett": 2061,
  "ĠFibonacci": 8865,
  "ie": 4576,
  "Ġuzay": 3236,
  "fac": 10584,
  "ĠetkilediÄŁi": 16102,
  "aÅŁ": 322,
  "ess": 2021,
  "liliÄŁi": 1815,
  "ĠaÃ§Ä±klayan": 4706,
  "!": 20,
  "ĠQTextEdit": 16165,
  "ĠSebz": 5485,
  "ĠBirinci": 13119,
  "Ġhikayeye": 9117,
  "Î": 149,
  "ĠException": 7304,
  "ĠÃ§ekil": 13277,
  "Ġdiy": 3211,
  "Ġetmektedir": 9525,
  "lerimizi": 7929,
  "ĠBaÅŁlÄ±ÄŁÄ±": 16172,
  "Ġ400": 9782,
  "uk": 571,
  "ĠiÃ§ten": 15842,
  "Ġ[\"": 4751,
  "lerimiz": 7475,
  "umlarÄ±": 10643,
  "Ġmekaniz": 13451,
  "ilm": 520,
  "Ġdamla": 14109,
  "Ġkompostlama": 14098,
  "Ġsans": 14939,
  "ĠPlatform": 12191,
  "ĠbaÄŁlantÄ±da": 9580,
  "Hayat": 13520,
  "iÄŁiniz": 3294,
  "Ġbenzinli": 11244,
  "ikip": 7931,
  "armup": 13545,
  "ahat": 1717,
  "adde": 15892,
  "Ġmutlu": 3548,
  "ĠolasÄ±": 1554,
  "ĸ": 180,
  "ĠkiÅŁiselleÅŁtirilmiÅŁ": 3287,
  "ĠAÄŁustos": 9488,
  "ĠCinsiyet": 12067,
  "Ġform": 2550,
  "ĠrahatsÄ±z": 7857,
  "ĠMakine": 2199,
  "illiam": 8800,
  "Ġsekiz": 8208,
  "ĠcoÄŁraf": 7947,
  "ĠdavranÄ±ÅŁÄ±": 10138,
  "ĠkÃ¼mesi": 3520,
  "asÄ±dÄ±r": 12210,
  "Ġtencer": 6424,
  "Ġhissettim": 9597,
  "ĠoÄŁ": 12115,
  "Ġmateryal": 4044,
  "Ġhev": 9718,
  "Ġkonfer": 6867,
  "ĠRichard": 12507,
  "ĠyarattÄ±": 4851,
  "ĠhÄ±rs": 7431,
  "ĠÃ§apta": 11179,
  "Ġanlama": 1664,
  "leÄŁen": 8225,
  "ĠkÄ±zdÄ±": 16268,
  "ĠÃĸn": 2668,
  "ÄŁÄ±ndan": 3645,
  "Ġbant": 10261,
  "ĠdaÄŁÄ±tÄ±lmÄ±ÅŁ": 8786,
  "Ġq": 10926,
  "Ġaciliyet": 14701,
  "ĠyavaÅŁ": 2431,
  "ĠBunu": 8092,
  "emeye": 5297,
  "ĠyÃ¶netir": 11861,
  "ĠgÃ¼Ã§lÃ¼ydÃ¼": 15692,
  "C": 54,
  "oid": 9984,
  "ĠMahal": 14114,
  "Ġbulunur": 1990,
  "Ġ\"\"\"": 2318,
  "ĠLe": 3779,
  "Ġmola": 5889,
  "iÃ§ek": 2989,
  "Ġseviyelerinin": 8918,
  "qu": 1263,
  "ĠRahat": 7361,
  "oint": 11678,
  "pattern": 4671,
  "ĠbÄ±rak": 2294,
  "ĠaltÄ±": 6436,
  "Ġpalindrom": 12479,
  "Ġrobot": 2013,
  "enti": 10263,
  "olik": 10960,
  "Ġpiyasa": 5463,
  "ignal": 11237,
  "dropout": 6920,
  "ĠyatÄ±rÄ±mcÄ±": 10431,
  "rist": 12558,
  "ĠformatÄ±": 11837,
  "Ġifadesi": 3938,
  "Ã¼nÃ¼": 1037,
  "Ġonline": 10084,
  "ĠPlanlama": 15603,
  "ĠdÃ¶nÃ¼k": 8514,
  "ekli": 1948,
  "ĠsaldÄ±rgan": 10510,
  "AL": 9016,
  "Ġdeniz": 2102,
  "abilirler": 2635,
  "ĠgeÃ§erek": 13759,
  "ĠkullanÄ±labileceÄŁi": 11538,
  "ĠondalÄ±k": 8331,
  "ĠQu": 11088,
  "inÃ§": 1454,
  "op": 444,
  "LM": 7451,
  "Ġuyar": 4598,
  "ĠiliÅŁkiyi": 6884,
  "ĠYaz": 2139,
  "ĠÃ¶zenle": 13476,
  "ĠReturn": 14389,
  "ĠyoÄŁ": 5995,
  "tÃ¼nÃ¼n": 9702,
  "ĠET": 12656,
  "Ġfayda": 1206,
  "50": 2727,
  "now": 4879,
  "Ġprotest": 9517,
  "elenmiÅŁ": 6164,
  "ĠnÃ¼fus": 3192,
  "larÄ±nÄ±z": 2897,
  "ĠOrmanÄ±n": 11098,
  "ĠyÃ¼rÃ¼yordu": 8912,
  "target": 8701,
  "ĠsanatÄ±n": 14580,
  "olek": 4013,
  "ĠatÄ±klarÄ±nÄ±": 13977,
  "Ġhikayeleri": 11450,
  "Ġpr": 1167,
  "Ġgerektirmez": 10413,
  "Ġrehb": 14742,
  "Ġdoludur": 5891,
  ":</": 9971,
  "masÄ±nÄ±": 1223,
  "ĠdÃ¼ÅŁÃ¼ndÃ¼rÃ¼cÃ¼": 16099,
  "ĠmasraflarÄ±": 15641,
  "ĠHaf": 5372,
  "ĠGeniÅŁ": 8553,
  "ness": 6408,
  "ehir": 1346,
  "ĠKelime": 7432,
  "Ä±lgÄ±n": 9281,
  "ĠHar": 2081,
  "Ġkend": 1210,
  "args": 3360,
  "Ġpozisyonu": 12888,
  "ab": 342,
  "Ġkaybo": 14378,
  "ĠNum": 11789,
  "Ġpadded": 9658,
  "lst": 11290,
  "ĠlÃ¼k": 7198,
  "Ġorman": 1876,
  "ĠkarÄ±n": 8113,
  "tiÄŁi": 5117,
  "ĠInc": 8206,
  "ĠSebzeler": 10853,
  "Ġyapay": 1367,
  "ĠNY": 14374,
  "ĠuygulamasÄ±": 3707,
  "ander": 14933,
  "ĠparÃ§": 1718,
  "Ġsahiplerine": 12696,
  "Ġattn": 9788,
  "Ġcolor": 6958,
  "lamadÄ±": 11753,
  "role": 10321,
  "documents": 8056,
  "ĠGÃ¼c": 11758,
  "ĠendÃ¼strisinde": 7265,
  "leye": 3110,
  "Ġbatch": 5524,
  "ĠinanÃ§larÄ±": 12807,
  "ĠRap": 8686,
  "Ġslog": 3950,
  "iyiz": 5935,
  "veya": 7598,
  "20": 1704,
  "ĠÃ¶ÄŁeyi": 5388,
  "Ġoyunculu": 15581,
  "Ġword": 7817,
  "px": 2516,
  "ĠyazÄ±lÄ±mÄ±n": 9137,
  "Ġdiplo": 10557,
  "yÃ¼ksek": 9680,
  "ĠneÅŁeyle": 13433,
  "Ġmeyv": 4406,
  "Ġperson": 5602,
  "ĠbaÅŁarÄ±lar": 14477,
  "ĠÃ¶lÃ§ek": 3026,
  "ĠprogramÄ±nÄ±": 16116,
  "ĠHala": 15065,
  "hone": 4499,
  "artma": 5512,
  "Ã¼kemmel": 1797,
  "Ġkalabil": 13390,
  "aÄŁÄ±": 405,
  "ĠÃ¼retme": 10728,
  "ĠVerimli": 13740,
  "miyor": 10587,
  "ĠaÅŁkÄ±n": 8909,
  "setCon": 10727,
  "Ġferah": 13522,
  "ĠLas": 13756,
  "ĠaÅŁina": 16164,
  "ĠbaÅŁlÄ±yor": 12663,
  "ĠhÃ¼kÃ¼metlerin": 16288,
  "imiÃ§i": 1312,
  "tÄ±lan": 15077,
  "Ġverilerle": 9571,
  "ĠtanÄ±nan": 11221,
  "Ġlimon": 6067,
  "Ġaks": 11821,
  "Ġmevcuttur": 10417,
  "Ġekonomi": 5591,
  "Ġelinde": 13741,
  "lek": 2306,
  "Ġfloat": 5078,
  "Ġuzunluk": 8162,
  "ĠkarmaÅŁÄ±k": 1571,
  "le": 229,
  "madan": 2378,
  "Ä±yla": 1675,
  "Ġsordu": 13196,
  "ĠkurmayÄ±": 10696,
  "mezden": 12843,
  "':": 7186,
  "Ġyenil": 4607,
  "orn": 10009,
  "ĠÃ¶rneÄŁin": 3681,
  "Ġekosistemlerin": 13440,
  "ĠÃ¶yle": 7760,
  "ĠiletiÅŁime": 10401,
  "ĠaraÅŁtÄ±rmak": 9835,
  "ĠÃ§evresini": 9107,
  "ĠargÃ¼manlar": 13945,
  "ĠkolaylÄ±k": 7829,
  "mekte": 5431,
  "Ġlogosu": 15462,
  "Ġkategoriye": 6049,
  "ĠDiy": 9060,
  "ĠAh": 9726,
  "Ä±mÄ±n": 8654,
  "ĠsÄ±rlarÄ±nÄ±": 9542,
  "ĠatÄ±ÅŁtÄ±rmalÄ±k": 6488,
  "ĠbaÄŁlanÄ±r": 11812,
  "Ġbulabilir": 10056,
  "Ġbab": 10602,
  "Ġrestor": 2480,
  "ĠDok": 7621,
  "ĠÃ¶dÃ¼llendirin": 13460,
  "Ġ6": 817,
  "ÅŁÄ±k": 1321,
  "ĠpaylaÅŁmak": 8369,
  "GÃ¼neÅŁ": 13003,
  "ulu": 1061,
  "Ã¼st": 1162,
  "ĠAralÄ±k": 8902,
  "ĠKaranlÄ±k": 5888,
  "row": 5942,
  "Ċ": 156,
  "ĠAgile": 12469,
  "mkdir": 10918,
  "pacing": 14152,
  "ĠAvusturya": 14169,
  "Ġkara": 13679,
  "ĠKav": 9056,
  "Ġdarb": 11220,
  "Ġnota": 15000,
  "ĠEs": 4643,
  "ĠunsurlarÄ±": 5977,
  "oya": 8451,
  "Ġhizmetlerin": 7370,
  "eri": 285,
  "certainty": 13030,
  "ĠsipariÅŁ": 3529,
  "Ġ--": 12159,
  "Ġbildirimleri": 12372,
  "Ġlog": 3275,
  "avori": 6224,
  "nap": 13585,
  "Ġresmi": 2420,
  "ora": 12596,
  "Ġdiler": 7751,
  "ĠYeterli": 12963,
  "ĠdÃ¼ÄŁmesine": 15430,
  "teki": 3186,
  "Ġuyk": 13153,
  "ĠÃ¶zn": 7083,
  "messages": 8245,
  "ĠbÃ¶lgelerinde": 14582,
  "Ġraporu": 10806,
  "istal": 8495,
  "imum": 6946,
  "oss": 11783,
  "Ġih": 995,
  "ĠhatÄ±rlatÄ±cÄ±": 7140,
  "ption": 1898,
  "ĠyanlÄ±ÅŁ": 2051,
  "buf": 12884,
  "Thread": 9224,
  "ĠkonuÅŁmacÄ±nÄ±n": 12330,
  "_": 82,
  "ibi": 416,
  "ĠolabileceÄŁini": 4407,
  "ĠsayÄ±yÄ±": 3498,
  "ĠgÃ¼venliÄŁini": 7235,
  "ĠonlarÄ±n": 6032,
  "Ġsalg": 10426,
  "ĠÄ°stat": 14028,
  "Ġ[[": 11052,
  "ĠbasÄ±ncÄ±": 12940,
  "Ġetkiler": 5721,
  "imde": 5552,
  "ĠÃ¶m": 4308,
  "ĠkÄ±vr": 8047,
  "Ġzorluklar": 6475,
  "ĠÃ¼lkelerdeki": 14749,
  "ĠinsanlarÄ±n": 1496,
  "ĠnazikÃ§e": 10481,
  "yun": 698,
  "j": 93,
  "ĠFosil": 7355,
  "ley": 361,
  "ĠdÃ¼ÅŁÃ¼ncesi": 16302,
  "Ġsok": 3506,
  "ĠiÅŁgÃ¼cÃ¼": 10864,
  "ĠiÅŁver": 7791,
  "Ġprof": 2310,
  "Ġsonucunu": 8041,
  "Ġstratejisi": 4763,
  "ĠbaÅŁlangÄ±": 9765,
  "arasÄ±": 2315,
  "čĊ": 6306,
  "Ġjest": 14574,
  "ĠsÄ±raya": 5954,
  "ĠfaydalarÄ±ndan": 16161,
  "ody": 7227,
  "ÅŁtÄ±": 1078,
  "Ġbool": 4112,
  "ĠAraÅŁtÄ±r": 5010,
  "ĠÃ§Ä±kÄ±p": 15124,
  "ĠkarÅŁÄ±laÅŁtÄ±": 4087,
  "ĠMary": 4593,
  "ĠalÄ±ÅŁ": 1543,
  "ĠkullanÄ±yor": 6971,
  "\",": 564,
  "nown": 9455,
  "curacy": 6479,
  "ĠendÃ¼strisinin": 11905,
  "score": 15791,
  "indrom": 11459,
  "Ġdizisi": 5589,
  "ĠĠĠĠĠĠĠĠĠĠĠĠĠĠĠĠĊ": 7515,
  "ĠMutlu": 10205,
  "ildiÄŁi": 4359,
  "ĠbulmuÅŁtu": 14355,
  "Ġzarafet": 15714,
  "ĠbotlarÄ±": 8597,
  "ĠgÃ¼n": 541,
  "Ġtermost": 13821,
  "Ã¼cÃ¼": 2211,
  "ĠĠĠ": 261,
  "Ġaktivitelerin": 15444,
  "Ġyeterli": 3499,
  "Ġoldular": 9301,
  "dÃ¼str": 1603,
  "ĠsaÄŁa": 15935,
  "ĠKÃ¼m": 14300,
  "ta": 379,
  "Ġyoktur": 6782,
  "Ġaksine": 14833,
  "Ġzengin": 3072,
  "Ġpu": 3051,
  "Ġab": 6425,
  "ĠÃ§evreyi": 6664,
  "94": 10896,
  "ĠkÄ±s": 1096,
  "ĠAzalt": 12465,
  "izden": 5190,
  "etimsiz": 15309,
  "ĠdÄ±ÅŁÄ±ndaki": 13904,
  "iyecek": 6731,
  "Ġtespit": 2133,
  "ĠkurbaÄŁa": 11807,
  "Ġotomasyon": 4758,
  "mayan": 5926,
  "ĠÃ¼zerinden": 4063,
  "ĠEÄŁ": 1970,
  "ĠÃ¶zelliklere": 4717,
  "Ġtutk": 4027,
  "ĠbahÃ§e": 9378,
  "Ä±mÄ±zdaki": 14480,
  "https": 9874,
  "onavirÃ¼s": 6497,
  "ĠadlandÄ±r": 6133,
  "ĠLo": 5728,
  "ĠEgzersiz": 6227,
  "orth": 13255,
  "ulabilir": 7741,
  "ĠBek": 6947,
  "daydÄ±": 14726,
  "Ġpack": 10626,
  "ĠaraÅŁtÄ±r": 1333,
  "kah": 14211,
  "Ġonlara": 5089,
  "url": 5123,
  "Ġkorurken": 16049,
  "Ġgib": 9475,
  "ĠGettysburg": 15673,
  "lenin": 3139,
  "informa": 14235,
  "ometre": 8867,
  "ĠyaÄŁlÄ±": 7850,
  "ĠartÄ±r": 886,
  "ĠÃ¶rt": 14647,
  "avi": 4510,
  "ĠgÃ¼c": 1792,
  "didate": 14339,
  "ĠgÃ¼nd": 11408,
  "Ġgerektiren": 4721,
  "ĠDeÄŁiÅŁken": 15484,
  "setChecked": 16106,
  "Ġbun": 3209,
  "Ġstratejilerini": 11914,
  "Ġ62": 15190,
  "deÄŁer": 8609,
  "ocab": 2356,
  "Ġrandevu": 10233,
  "ĠkaybÄ±na": 9187,
  "Ġetkilerini": 3586,
  "ĠTahminsel": 11245,
  "Ġ14": 3650,
  "Ġatmosfere": 6055,
  "ersiz": 1136,
  "data": 2214,
  "Ġ55": 13176,
  "ection": 12150,
  "Ġser": 1134,
  "Ġormana": 10770,
  "olojinin": 12725,
  "ĠgÃ¼zeldi": 12799,
  "Ġmimar": 7033,
  "ĠalÄ±rken": 10142,
  "imizle": 9564,
  "ĠdÃ¼zenlemeler": 7878,
  "Ġverimlidir": 11094,
  "Ġmor": 6318,
  "Ġtipiyle": 16341,
  "Ġnumber": 13883,
  "una": 1044,
  "Ġeleman": 5105,
  "edd": 2445,
  "ĠyÃ¶nde": 12213,
  "ĠMalzemeleri": 14672,
  "ilin": 3900,
  "Ġidam": 15819,
  "ebilecekleri": 14675,
  "ĠadamÄ±n": 9598,
  "Ġsavunu": 8732,
  "gas": 14903,
  "ĠhazÄ±rlan": 6679,
  "ĠgeliÅŁme": 11516,
  "ĠTwitter": 7184,
  "Ġkatmanlar": 12897,
  "ĠsÃ¼reli": 9083,
  "Ġpadd": 4634,
  "ii": 8629,
  "ĠÄ°kisi": 11896,
  "ĠgÃ¼nÃ¼": 3112,
  "ĠKenar": 16380,
  "pektif": 5326,
  "illa": 13605,
  "Ġparametr": 6443,
  "ĠadanmÄ±ÅŁ": 13552,
  "ĠbaÅŁlayÄ±n": 4512,
  "Ġsadece": 1750,
  "ĠAr": 985,
  "Ġasistanlar": 9634,
  "Ġpiknik": 9002,
  "ĠkullanÄ±l": 2562,
  "Ġokyanust": 12732,
  "lerle": 1411,
  "var": 14916,
  "Ġerkek": 7105,
  "am": 282,
  "ĠkatÄ±lmak": 5525,
  "BÃ¼yÃ¼k": 14871,
  "Ġsadakat": 3374,
  "ĠyakÄ±ndan": 10360,
  "Ġmaliyet": 1216,
  "ĠyerÃ§ek": 6981,
  "ĠaÅŁaÄŁÄ±": 7333,
  "viÃ§": 5071,
  "ĠÄ°l": 6643,
  "Ġbulutlu": 16284,
  "ĠÃ§eviri": 7684,
  "Ġalb": 15057,
  "ĠKadÄ±n": 8057,
  "aya": 743,
  "Ġ---------": 10656,
  "ĠsanatÃ§Ä±": 8189,
  "ĠTed": 13131,
  "eti": 1602,
  "ron": 5358,
  "pport": 11297,
  "Ĵ": 176,
  "ahtarÄ±": 7765,
  "ĠMuhaseb": 15564,
  "ĠEfend": 14140,
  "ĠkonuÅŁun": 10740,
  "jder": 4132,
  "Ġtelefonu": 10424,
  "kaÃ§": 1350,
  "Ġgeriye": 12718,
  "ĠkiÅŁiliÄŁi": 13768,
  "=%": 11266,
  "Ġantrenman": 8993,
  "ĠIz": 9548,
  "ĠKÄ±rmÄ±zÄ±": 6396,
  "Ġkoydu": 11986,
  "Ġadapt": 5903,
  "ĠbalÄ±klar": 14014,
  "Ġveren": 3137,
  "eya": 1094,
  "ĠSanal": 4726,
  "ĠUI": 16066,
  "za": 3667,
  "ĠStres": 9185,
  "ĠaÅŁaÄŁÄ±daki": 2159,
  "ĠMer": 2114,
  "Ġyola": 7201,
  "Ġbireyler": 6573,
  "ĠgÃ¼Ã§lerini": 10375,
  "lanÄ±yordu": 14268,
  "imin": 5779,
  "lamadan": 9743,
  "ĠÄ°liÅŁ": 10038,
  "Ġyasak": 8182,
  "ĠpaylaÅŁÄ±n": 12821,
  "icel": 9072,
  "finished": 11226,
  "Ġbildirin": 8032,
  "Ġdurumuna": 13816,
  "eceÄŁim": 3189,
  "Ġhesapla": 11867,
  "Ġbile": 2510,
  "ĠHey": 8853,
  "ĠÃ¶ÄŁeler": 5652,
  "ĠhÃ¼creleri": 15478,
  "lab": 1363,
  "Ġmalzemelerden": 11581,
  "ĠdaÄŁÄ±tÄ±k": 13435,
  "insel": 2286,
  "ĠÅŁirketin": 3823,
  "tre": 8671,
  "ebz": 1860,
  "ĠÃĸd": 5501,
  "Ġkurtul": 10215,
  "Ġpanelleri": 15658,
  "Ġaramak": 5446,
  "ĠYun": 5862,
  "callback": 13054,
  "ĠÃ§Ä±karÄ±yor": 13807,
  "etorik": 9963,
  "ĠeÅŁitlik": 14575,
  "\"<|": 15731,
  "Ġhacim": 14761,
  "Ġtespiti": 8938,
  "chain": 6346,
  "ĠAWS": 15862,
  "obik": 8343,
  "ĠKurul": 9396,
  "ĠdÃ¼ÅŁÃ¼nÃ¼yorsunuz": 9640,
  "likle": 3584,
  "iberi": 13139,
  "lÃ¼lÃ¼k": 12043,
  "long": 10197,
  "ĠÄ°nanÄ±lmaz": 13526,
  "ĠÃ¼niversite": 7889,
  "Ġrol": 2190,
  "manlar": 13144,
  "Ġayarlamak": 8188,
  "Ġesneklik": 5979,
  "ord": 2196,
  "Ã¼yorum": 7841,
  "ĠÃ§imen": 12476,
  "Ã¼mÃ¼": 5128,
  "dÄ±ÄŁÄ±m": 15899,
  "ĠÃ¼lkede": 9353,
  "Ġnihayet": 9003,
  "Ġseq": 7284,
  "ĠJames": 9526,
  "ĠÃ¶zlem": 11392,
  "sun": 1998,
  "etition": 12118,
  "ĠayÄ±rÄ±n": 2840,
  "vel": 11305,
  "Ġmalzemelere": 9362,
  "ĠendÃ¼strisi": 10427,
  "ling": 7737,
  ")\"": 12518,
  "ĠÃ§Ä±karabilir": 13267,
  "ON": 6599,
  "oin": 8450,
  "ĠtatlandÄ±rÄ±n": 14523,
  "Ġpre": 14985,
  "ĠsÄ±nÄ±fa": 11065,
  "ĠÃ¶zyin": 14361,
  "ĠÅŁikayet": 11630,
  "Ġveterin": 15817,
  "Ġyazan": 15941,
  "ĠÃ¶n": 365,
  "ĠiÅŁbirliÄŁi": 3206,
  "ÅŁek": 8081,
  "ĠyapraklÄ±": 15474,
  "sidebar": 15693,
  "ĠzÄ±p": 12156,
  "Ġsunum": 4551,
  "Ġlezzet": 5978,
  "ĠolmadÄ±ÄŁÄ±": 4319,
  "ĠBlu": 14974,
  "ive": 6507,
  "ÄŁr": 344,
  "IM": 11273,
  "irler": 4190,
  "emiÅŁ": 8828,
  "ĠĠĠĠĠĠĠĠĠĠĠĠĊ": 4339,
  ")]": 12519,
  "ĠDur": 4889,
  "Ġziyaret": 2418,
  "Ġdalg": 5746,
  "Ġsevilen": 11047,
  "ĠkontrolÃ¼nÃ¼": 14488,
  "ommended": 7034,
  "Ġduygular": 13300,
  "akliye": 12119,
  "ĠhayatÄ±n": 3737,
  "duk": 3992,
  "ĠbulaÅŁÄ±cÄ±": 14120,
  "ence": 3577,
  "ret": 5240,
  "ĠormansÄ±z": 8010,
  "ĠYiyecek": 7075,
  "Ġyoksa": 4237,
  "ĠkaybÄ±": 6585,
  "[]": 9686,
  "lÃ¼ler": 13214,
  "Ġsot": 15815,
  "idebar": 11897,
  "ĠsÃ¶": 10269,
  "Ã¶valye": 5235,
  "ĠrahatlÄ±k": 12830,
  "ĠgÃ¼Ã§": 832,
  "ĠÃ¶nlemek": 4390,
  "ĠBirliÄŁi": 5791,
  "Ä±ntÄ±lÄ±": 15377,
  "ĠÄ±spanak": 10236,
  "Ġhikayenin": 6669,
  "ĠÄ°ngilizce": 3764,
  "ĠAdele": 14673,
  "Ġkayb": 3541,
  "Ġettir": 6322,
  "iÄŁinizi": 11369,
  "Ġsaha": 15814,
  "ĠOrtaya": 14087,
  "ĠWilliam": 9345,
  "ĠkaynaÄŁÄ±nÄ±": 12993,
  "ĠseÃ§eneÄŁi": 6922,
  "Ġut": 10927,
  "Ġmetindeki": 10762,
  "Ġifadesini": 7852,
  "Ġyasalara": 14699,
  "manÄ±zÄ±": 5518,
  "39": 12076,
  "ĠKÄ±ÅŁÄ±n": 15600,
  "ĠBenzersiz": 13470,
  "Ġnumara": 9601,
  "ĠÃ§Ä±n": 15859,
  "ĠzamansÄ±z": 15965,
  "lenirken": 16350,
  "ĠeÄŁ": 805,
  "ĠCatcher": 12513,
  "ĠKaliforniya": 8804,
  "ĠhavuÃ§": 7550,
  "Ġtasarlama": 15172,
  "ĠFrancis": 6381,
  "duÄŁum": 8761,
  "Ġmeslek": 5742,
  "ĠYazÄ±lÄ±m": 3268,
  "ĠtÃ¼k": 1492,
  "Ġ13": 3696,
  "alse": 1851,
  "ensor": 3762,
  "z": 109,
  "ĠyÃ¼rÃ¼yÃ¼ÅŁ": 3479,
  "SS": 5014,
  "etik": 1978,
  "ĠÃ§Ä±karmayÄ±": 16112,
  "ĠÃĩadÄ±r": 13746,
  "ĠhafifÃ§e": 6161,
  "Ġbilgilere": 7806,
  "ĠFi": 6110,
  "ĠyanÄ±t": 1891,
  "Ġ\"\\": 14308,
  "Ġmarka": 6277,
  "Ġmelod": 10865,
  "ĠaÄŁÄ±rlÄ±ÄŁÄ±": 14638,
  "Ġr": 305,
  "arken": 2319,
  "ĠbaÄŁlan": 6762,
  "oun": 2515,
  "Ġmemnuniyeti": 8964,
  "lendi": 4943,
  "ĠendiÅŁeler": 16359,
  "Ġsor": 559,
  "Ġmas": 3608,
  "Ġoto": 1235,
  "ĠakÄ±ÅŁlÄ±": 14691,
  "Dataset": 7731,
  "Ġlora": 8814,
  "76": 6186,
  "swith": 12952,
  "Ġortak": 3339,
  "lasik": 3964,
  "ĠgÃ¼cÃ¼nÃ¼n": 14544,
  "ĠRÃ¶nesans": 13751,
  "ĠLezzetli": 8238,
  "ĠoluÅŁum": 14522,
  "Ġsesle": 5887,
  "Ġcon": 1518,
  "Ġekleyin": 1509,
  "ĠyardÄ±m": 544,
  "lerinizle": 11793,
  "ĠkontrolsÃ¼z": 16167,
  "Ġtarget": 9078,
  "ĠgeliÅŁti": 15934,
  "ĠkullanÄ±cÄ±nÄ±n": 4085,
  "Ġprensibi": 15458,
  "Ġdepo": 1561,
  "ĠSÄ±fÄ±r": 9618,
  "ĠRestor": 8510,
  "ĠTartÄ±ÅŁma": 15646,
  "ladÄ±lar": 7659,
  "ti": 367,
  "Ġverecektir": 15052,
  "json": 5685,
  "W": 74,
  "per": 1625,
  "Ġsuik": 16044,
  "Ġtembel": 12225,
  "ĠeÅŁittir": 5052,
  "Ġoyun": 1101,
  "ĠHipot": 12034,
  "ĠeÅŁya": 7132,
  "Ġsitelerine": 16142,
  "Ġedilen": 2735,
  "Ġem": 941,
  "ĠfÄ±rtÄ±n": 4605,
  "ĠgetirdiÄŁi": 13784,
  "Ġmarul": 14621,
  "ektr": 1487,
  "iste": 9297,
  "Ġekle": 8318,
  "ĠEnerj": 12421,
  "ĠkonuÅŁmak": 9561,
  "Ġtip": 2925,
  "cap": 12539,
  "eklilik": 14948,
  "iyat": 1285,
  "parent": 7689,
  "ĠKullanÄ±cÄ±nÄ±n": 13352,
  "Ġgi": 10276,
  "ĠÃ§ev": 1930,
  "ah": 267,
  "geleri": 9688,
  "Ġhizmetler": 3314,
  "ĠalanÄ±": 2541,
  "Ġpuan": 4299,
  "Ġverilir": 7071,
  "ilenebilir": 1723,
  "ĠsÃ¼rdÃ¼rÃ¼lebilirliÄŁi": 15435,
  "oter": 6539,
  "Ġkaf": 4099,
  "Ġdikkatli": 4559,
  "Ġtoplu": 3926,
  "Ġerken": 4904,
  "Ġhaberleri": 8573,
  "ĠÃ¼retin": 4181,
  "deniz": 12171,
  "ĠbaÄŁÄ±ÅŁ": 6658,
  "ib": 383,
  "ĠrÃ¼y": 15889,
  "ĠÃľn": 7376,
  "Ġilerlemek": 15286,
  "Ġklav": 12575,
  "ĠalanlarÄ±nÄ±": 9328,
  "Ġet": 298,
  "ende": 4969,
  "core": 4924,
  "Ġediyor": 2600,
  "ĠHuzurlu": 12497,
  "ĠBildir": 9831,
  "X": 75,
  "dÄ±": 327,
  "ĠgerÃ§ekleÅŁen": 12436,
  "ĠMusk": 12506,
  "ĠvatandaÅŁlarÄ±n": 8968,
  "Ġgeril": 9809,
  "arner": 12875,
  "ĠkavramÄ±nÄ±": 2851,
  "Ġdakik": 6685,
  "ĠyemeÄŁi": 2438,
  "ĠdeÄŁiÅŁkenler": 15510,
  "Ġbeyaz": 2774,
  "ĠtaÃ§": 14951,
  "Ġkalite": 9595,
  "Ġfiili": 6900,
  "Ġnes": 4635,
  "ĠGeÃ§en": 6909,
  "enler": 5244,
  "Ġhedefler": 3786,
  "siz": 993,
  "ileÅŁ": 5477,
  "Ġnn": 8835,
  "Ġsava": 9470,
  "Ġkaplum": 15215,
  "Ġhal": 661,
  "lÄ±kla": 2245,
  "ĠBeÅŁ": 2409,
  "04": 13034,
  "Ġhipotez": 4823,
  "ĠyÃ¼r": 1284,
  "uter": 7345,
  "Ġberrak": 14071,
  "obiler": 14090,
  "ĠalanlarÄ±": 5145,
  "Ġbeslenir": 13918,
  "ÅŁtir": 368,
  "Ġsamimi": 15707,
  "ĠkanatlarÄ±": 11568,
  "ĠAlgoritma": 5287,
  "Ġyararlan": 4375,
  "ĠbilgisayarlarÄ±n": 7828,
  "ĠSatÃ¼rn": 15533,
  "ĠgÃ¶kyÃ¼zÃ¼nden": 16238,
  "ĠVic": 10676,
  "ĠkatÄ±lÄ±yor": 15198,
  "ĠÃ§ay": 1833,
  "Ġkonulara": 10348,
  "ĠÃ¶ngÃ¶rÃ¼": 6169,
  "ĠÃ§ocuklarÄ±n": 7542,
  "bat": 9024,
  "Ġmo": 1264,
  "ĠAl": 1254,
  "ĠgÃ¶nÃ¼llÃ¼": 10772,
  "Ġmeyveler": 7892,
  "ĠbunlarÄ±": 7024,
  "Ġresults": 8792,
  "Ġtemsilcisi": 11933,
  "Ã¼nÃ§": 10951,
  "Ġitem": 3625,
  "Ġbilgilerini": 6347,
  "//": 3744,
  "iyodik": 7063,
  "Ġayak": 2523,
  "Ġhesap": 1110,
  "ĠbÃ¶yle": 1879,
  "Ä±ldÄ±ÄŁÄ±nda": 4659,
  "jistik": 13575,
  "Mutlu": 13047,
  "ĠKaÄŁÄ±t": 9734,
  "ĠtÃ¼ketimi": 11135,
  "ĠFrost": 12676,
  "Ġserin": 7748,
  "ÅŁan": 5614,
  "ĠpaylaÅŁÄ±lan": 10140,
  "Ä±ydÄ±": 4896,
  "Ġ44": 15115,
  "ĠsayÄ±larÄ±n": 6768,
  "ĠÃĸzgÃ¼rlÃ¼k": 10872,
  "Ġ37": 9075,
  "ings": 3450,
  "Ġdeneyim": 1131,
  "ago": 15440,
  "Ã¼rÃ¼n": 14997,
  "Ġfilepath": 10544,
  "ĠdaÄŁÄ±": 3668,
  "Ġsad": 2353,
  "ĠDev": 1685,
  "Ġsayfa": 4668,
  "Ġkitlen": 13820,
  "ĠHavada": 15451,
  "Ġsolid": 8060,
  "848": 15566,
  "ĠPap": 14349,
  "Ġtable": 14473,
  "ĠBanka": 10867,
  "Ġfinanse": 11124,
  "ĠAlÄ±": 6094,
  "ĠplatformlarÄ±": 10775,
  "Ġfind": 7766,
  "Ġeve": 4519,
  "urdu": 9720,
  "Ġisinstance": 5881,
  "Ġdavet": 3935,
  "ĠKarbondioksit": 12432,
  "ela": 4876,
  "ĠTropikal": 13134,
  "laska": 11480,
  "ĠÃĸzellik": 9383,
  "ld": 11289,
  "ĠMod": 4639,
  "Ġyaratmak": 3609,
  "ĠtaÅŁÄ±": 2268,
  "ĠStratej": 10886,
  "Ġatmak": 13743,
  "Ġopt": 1966,
  "ĠsÄ±nÄ±rlÄ±": 4613,
  "ala": 1641,
  "Ġtaban": 6997,
  "ĠyaratÄ±cÄ±lÄ±k": 7843,
  "Ġedem": 11755,
  "ĠkÃ¶r": 9254,
  "Ġsistemi": 1609,
  "caklarÄ±": 15076,
  "ĠÅŁÄ±k": 9051,
  "ĠyazdÄ±ran": 14714,
  "Ġsalata": 11702,
  "anlÄ±k": 2307,
  "Ä±ldÄ±": 1181,
  "ĠAmerikalÄ±": 7280,
  "ĠadayÄ±n": 15194,
  "lic": 6620,
  "ĠÅŁifreler": 11980,
  "usu": 1494,
  "ist": 432,
  "ĠSizi": 11358,
  "fed": 10910,
  "Ġbirimi": 8088,
  "Ä±lmÄ±ÅŁ": 1478,
  "ĠsorunlarÄ±na": 16184,
  "ikan": 13620,
  "\",\"": 11018,
  "Ġhabit": 5896,
  "ĠAÄŁÄ±r": 8577,
  "Ġhaberler": 15360,
  "obe": 13808,
  "ilendir": 2655,
  "ĠdolaylÄ±": 14051,
  "ilerinden": 10365,
  "tarÄ±": 3898,
  "ilmektedir": 15807,
  "ĠarabayÄ±": 8974,
  "main": 5615,
  "ĠkaldÄ±rÄ±m": 16324,
  "iyordu": 1859,
  "Button": 4304,
  "ĠkarÄ±ÅŁÄ±mÄ±nÄ±": 9402,
  "erÃ§": 4462,
  "nÄ±n": 1159,
  "ect": 2589,
  "ĠhÃ¼kÃ¼meti": 9433,
  "Ġufukta": 12053,
  "ĠBirinin": 12160,
  "Ġde": 591,
  "ĠkullanÄ±mÄ±nÄ±n": 4483,
  "Ġcevap": 2385,
  "ĠdeÄŁildi": 6783,
  "lacaÄŁÄ±": 14233,
  "lass": 2529,
  "Ġsorunlar": 8357,
  "Ġyerlere": 11815,
  "encode": 11566,
  "evrimi": 4648,
  "RE": 10574,
  "ĠJill": 15147,
  "Ġdemokras": 9639,
  "Ġhip": 2844,
  "erin": 295,
  "ĠyaklaÅŁÄ±k": 2153,
  "Ġgrubuna": 14063,
  "Ġbelge": 6854,
  "lanan": 1355,
  "ĠyasalarÄ±nÄ±": 11596,
  "Ġbelgeler": 12886,
  "Ġ_____": 15567,
  "Ġdokunu": 13373,
  "ĠKeyif": 15678,
  "ĠÃ¶nÃ¼mÃ¼zdeki": 8119,
  "ĠetrafÄ±nda": 3324,
  "ĠFik": 11398,
  "limp": 12745,
  "Ã¼cut": 4395,
  "ĠÃ¼cretleri": 14682,
  "ĠortamÄ±nda": 7399,
  "ĠnotlarÄ±": 16189,
  "aham": 12614,
  "cÄ±lar": 4429,
  "ĠbiÃ§": 3899,
  "ĠalÄ±cÄ±": 7786,
  "ĠtasarlanmÄ±ÅŁ": 6129,
  "i": 92,
  "bak": 10905,
  "ĠSen": 4887,
  "ĠtÃ¼rdeki": 10705,
  "Ġyakalamaya": 15456,
  "Ġetiketli": 9373,
  "Ġvermesi": 15051,
  "ĠÃľÃ§genin": 9866,
  "ĠÃ¼zÃ¼n": 13757,
  "Ġfak": 2071,
  "Ġ5": 488,
  "ĠTakÄ±mÄ±": 15491,
  "Ġap": 15844,
  "ĠtaÅŁÄ±nabilir": 7401,
  "ĠÃ¼cretsiz": 6173,
  "ĠuygulamalarÄ±nÄ±n": 12737,
  "Ġeylemleri": 13380,
  "artesi": 12286,
  "Ġuygulamalara": 12736,
  "Ġkova": 11418,
  "mÄ±ÅŁtÄ±": 3767,
  "ita": 13638,
  "ĠÃĩÃ¶zÃ¼m": 10860,
  "Ġdetaylara": 16354,
  "+": 30,
  "Ä±nÄ±zda": 8168,
  "Ġvakit": 8463,
  "Ġsunmaya": 15186,
  "<|system|>": 16,
  "Ġenstr": 15910,
  "encer": 2946,
  "ĠsaÄŁla": 11764,
  "mey": 4577,
  "ĠoynayÄ±n": 15337,
  "Ġyapmaya": 3901,
  "Ġsonraki": 4372,
  "<|explain|>": 10,
  "ayabil": 15167,
  "ĠaÅŁÄ±rÄ±": 2638,
  "ĠÃ¶ÄŁrencisi": 13328,
  "ĠiÃ§ecek": 5619,
  "K": 62,
  "ĠkarÄ±ÅŁana": 12403,
  "ĠChatbot": 8433,
  "Ġplatformlarda": 12357,
  "mediÄŁini": 10449,
  "ĠAyÄ±": 11024,
  "Ġistedim": 7554,
  "ĠÃ§ocuÄŁ": 9212,
  "ica": 12547,
  "ĠÃ¼retilen": 7993,
  "ĠUy": 2104,
  "Note": 8252,
  "Ġnazik": 3070,
  "Ġbetik": 9708,
  "ĠÅŁekeri": 13172,
  "ĠeÅŁit": 2077,
  "ĠFilm": 4173,
  "ĠyÃ¶net": 1050,
  "lÄ±ÄŁa": 3963,
  "ĠArama": 7418,
  "Ã¼man": 11739,
  "dum": 2358,
  "ĠBab": 14972,
  "ĠSaÄŁlÄ±ÄŁÄ±": 10133,
  "ĠRub": 12217,
  "ĠGaz": 15909,
  "ĠÃ¶zveri": 9769,
  "pek": 1558,
  "ĠGÃ¶rev": 3826,
  "Ġ256": 15455,
  "Ġzeytin": 15034,
  "ĠsÃ¶ylediÄŁini": 15407,
  "Ġmaskesi": 14797,
  "erler": 5419,
  "diÄŁini": 2592,
  "Ġdondur": 5596,
  "Ġgerek": 583,
  "ĠarasÄ±ndan": 7091,
  "utlu": 11749,
  "ĠArkadaÅŁlarÄ±nÄ±z": 15409,
  "pre": 14221,
  "ĠVerim": 10689,
  "ĠW": 1047,
  "Ġtotal": 5694,
  "ĠbÃ¶lgesinde": 10152,
  "gisel": 4459,
  "hr": 15779,
  "ĠgÃ¼lÃ¼ms": 4454,
  "ĠayrÄ±lÄ±r": 10143,
  "ĠaÃ§Ä±ktÄ±r": 10680,
  "ĠbarÄ±n": 4117,
  "osun": 15967,
  "ĠaÅŁÄ±k": 10743,
  "iv": 4680,
  "ekiÃ§": 12682,
  "hop": 12546,
  "ÅŁtur": 346,
  "Ġerdir": 14425,
  "Ġuygun": 930,
  "ĠÃĩev": 9095,
  "ĠTV": 8116,
  "Ġsorunun": 8135,
  "Ġobez": 12050,
  "Ġkararlar": 2567,
  "teÅŁ": 4221,
  "ĠSoÄŁuk": 6485,
  "ĠString": 15472,
  "lambaÃ§lÄ±": 13538,
  "Ġyem": 843,
  "Ġdavetkar": 7706,
  "Ġ10": 846,
  "luÄŁunu": 8186,
  "Ã¼kran": 10304,
  "ĠÃ§alÄ±ÅŁÄ±yordu": 12220,
  "ĠSenin": 7616,
  "Ġsulu": 11699,
  "Ġsorumluluk": 5906,
  "ĠĊ": 218,
  "ĠBas": 8280,
  "ĠpaylaÅŁÄ±m": 8181,
  "best": 4498,
  "ular": 10592,
  "paramet": 5401,
  "ime": 2571,
  "ĠuygulamasÄ±nÄ±": 10725,
  "ze": 15796,
  "16": 4676,
  "gress": 3678,
  "61": 13037,
  "ĠbaÄŁlar": 11421,
  "ĠdÃ¼nyadaki": 11481,
  "Ġust": 9103,
  "ptal": 8903,
  "ĠaÃ§Ä±k": 462,
  "Ġsesi": 6418,
  "ĠÃĸrn": 2143,
  "ĠKonuÅŁma": 7714,
  "ĠElektrikli": 6070,
  "lenir": 3053,
  "ĠyanÄ±tÄ±": 13994,
  "mel": 1546,
  "Ġkarar": 812,
  "Ġriskler": 9847,
  "evcut": 1353,
  "ĠÃ§eÅŁitlilik": 7119,
  "bir": 957,
  "Ġatmosferde": 11945,
  "Ġminimum": 9627,
  "Ġsap": 7469,
  "azik": 2676,
  "ĠsoÄŁumaya": 11242,
  "ones": 9480,
  "ĠBirleÅŁik": 1837,
  "alya": 5998,
  "ĠgÃ¶rmek": 5632,
  "sh": 3030,
  "ĠaÄŁaÃ§larÄ±": 7268,
  "Ġ{}": 7524,
  "Ġhayat": 900,
  "ĠAcil": 10955,
  "Ġbulunun": 15997,
  "ĠkiÅŁiye": 6351,
  "ĠdeÄŁiÅŁtirmeden": 11869,
  "Ġsola": 14596,
  "Ġneredeyse": 4038,
  "ĠÃ§it": 8284,
  "cÄ±larÄ±n": 5626,
  "manager": 2857,
  "ĠMarka": 13993,
  "ĠÃĩiftÃ§i": 13499,
  "sup": 9988,
  "ĠmanzarayÄ±": 12951,
  "ĠgeliÅŁmekte": 13880,
  "ĠcezalandÄ±r": 13485,
  "filepath": 10199,
  "ĠFiziksel": 6491,
  "eleriniz": 13208,
  "Ġhayran": 3677,
  "moothi": 7574,
  "ĠVahÅŁi": 14354,
  "ĠtanÄ±yan": 4917,
  "tÃ¼lÃ¼": 8078,
  "ÄŁretim": 7781,
  "Ġkonum": 3958,
  "John": 8808,
  "ĠZÃ¼rafa": 16105,
  "Ġzevk": 8109,
  "ĠMc": 13121,
  "Ġstratejileri": 5664,
  "ĠÃĸl": 5502,
  "elerinde": 4475,
  "ĠmÃ¼r": 14274,
  "Ġpromosyonlar": 13000,
  "Ġseven": 7983,
  "Ġelem": 2481,
  "Mar": 9974,
  "Downloader": 15705,
  "ĠtarafsÄ±z": 12714,
  "Ġinsanlar": 2046,
  "Ġolabilirim": 10075,
  "Ġolun": 2173,
  "lÄ±ÄŁÄ±nÄ±": 1892,
  "ĠhayvanlarÄ±n": 7124,
  "ĠanlamÄ±nÄ±": 3850,
  "arlÄ±": 2228,
  "ĠEÄŁitim": 3568,
  "n": 97,
  "ĠAÃ§Ä±k": 2785,
  "Ġyaratan": 10082,
  "ĠAnal": 5312,
  "Ġteorisi": 12923,
  "VM": 10576,
  "Ġdinlemek": 8737,
  "Ġsenin": 7603,
  "ĠEvr": 8727,
  "ĠDÃ¼nyayÄ±": 11558,
  "ĠPla": 3699,
  "ĠiÅŁgal": 12985,
  "Ġvermelidir": 12642,
  "ass": 2547,
  "uzu": 6102,
  "izi": 570,
  "Ġrow": 13111,
  "ĠsonuÃ§landÄ±": 16118,
  "larÄ±dÄ±r": 5624,
  "ĠstandartlarÄ±nÄ±": 14689,
  "ĠaraÃ§larÄ±nÄ±": 9826,
  "Ġkonaklama": 10087,
  "ĠKeÅŁfetmek": 14141,
  "ŀ": 187,
  "ĠÃ¶ÄŁrenirler": 15106,
  "ĠAÅŁaÄŁÄ±dakileri": 9434,
  "ĠkiÅŁilerarasÄ±": 13504,
  "layan": 935,
  "ĠTes": 5628,
  "Ġteknolojilerin": 9127,
  "Ġatan": 13201,
  "Ġcerr": 10307,
  "ĠsayÄ±nÄ±n": 3785,
  "ĠalmaktadÄ±r": 4470,
  "ĠdÃ¶nÃ¼ÅŁtÃ¼rmek": 7675,
  "Ġsipar": 11315,
  "tÄ±ÄŁÄ±nda": 10333,
  "ł": 189,
  "ĠKÃ¶r": 12630,
  "iyorlar": 7088,
  "Ġkonsantrasyon": 9001,
  "ĠdeÄŁiÅŁikliÄŁini": 12275,
  "Ä±ldayan": 13110,
  "Ġconsole": 12314,
  "ĠÃ§alÄ±ÅŁÄ±yor": 5208,
  "ore": 3004,
  "opy": 10049,
  "bool": 13896,
  "Ġdav": 1347,
  "yth": 2178,
  "Ġteori": 13284,
  "bined": 12890,
  "ĠKend": 3352,
  "Ġhabitat": 7175,
  "Ġhavada": 7121,
  "ĠNancy": 13542,
  "ĠyaÅŁÄ±nda": 6122,
  "ĠkapsamlÄ±": 4416,
  "Ġprenses": 13970,
  "Ġyoludur": 5397,
  "ĠÃ§evik": 11515,
  "liÅŁ": 9266,
  "liÄŁini": 1702,
  "ĠhiÃ§bir": 2828,
  "ĠuÄŁr": 4150,
  "ĠÄ°r": 15068,
  "files": 11227,
  "custom": 9105,
  "ĠkarÅŁÄ±sÄ±nda": 8881,
  "vol": 13065,
  "ĠkararlÄ±lÄ±k": 11954,
  "Ġkahverengi": 5003,
  "ĠSolunum": 14791,
  "ĠSom": 11736,
  "ĠrÃ¼zgarlar": 15375,
  "Ä±lÄ±": 755,
  "ĠfarklÄ±lÄ±k": 6990,
  "ĠbulunduÄŁu": 9309,
  "Ġifadenin": 6152,
  "Ġreddet": 10542,
  "Ġduygusal": 4119,
  "ck": 2475,
  "Ġunsurlar": 9892,
  "ĠÃ¼niversit": 5531,
  "Ġ-->": 15039,
  "ĠCal": 6022,
  "Ġverim": 1950,
  "Ġsentez": 9868,
  "ĠgeÃ§iyor": 16025,
  "Ġarka": 976,
  "ĠDeney": 6050,
  "])": 3599,
  "ating": 13091,
  "ĠdÃ¶v": 10505,
  "ecek": 531,
  "ĠgÃ¶stermektedir": 5649,
  "Ġvergisi": 13685,
  "iÄŁer": 678,
  "Ġrengi": 4978,
  "ĠBit": 3725,
  "Ġebeveynleri": 14741,
  "ĠyalnÄ±zca": 8205,
  "ĠMuhareb": 15565,
  "ĠmÃ¼hendisliÄŁi": 5166,
  "ĠgeliÅŁtirmektir": 16301,
  "Ġhata": 1956,
  "Ġtok": 11321,
  "ĠPh": 9509,
  "ayÄ±f": 4172,
  "OKEN": 5289,
  "ĠcihazlarÄ±n": 11117,
  "ĠÅŁeyin": 4397,
  "ĠKal": 2174,
  "Ġkayd": 2954,
  "Ġ/>": 10141,
  "EÄŁitim": 8427,
  "ĠgÃ¼bre": 12697,
  "Ġcreate": 9676,
  "Ġadapte": 14162,
  "Ġhavuz": 11935,
  "VID": 4783,
  "Ġfutbol": 5784,
  "ĠBelÃ§ika": 13028,
  "sas": 3716,
  "ĠazaltÄ±r": 4477,
  "embedding": 8982,
  "ĠkasÄ±r": 9143,
  "Ġharcanan": 14018,
  "AM": 7039,
  "ek": 219,
  "ĠdÃ¼ÄŁÃ¼m": 4162,
  "Ġprensipleri": 13466,
  "ĠEdebiyat": 11653,
  "Ġ0": 989,
  "ĠLog": 7363,
  "sit": 11682,
  "ĠyazdÄ±rmak": 12429,
  "ĠDair": 14108,
  "ABLE": 14082,
  "ĠdavranÄ±ÅŁlar": 14573,
  "umda": 15018,
  "Ġedebilmelidir": 14704,
  "ĠsÄ±rasÄ±nda": 2658,
  "status": 8100,
  "Ġfili": 14992,
  "Ġkendileri": 15264,
  "ĠsÃ¼rdÃ¼rÃ¼lebilir": 3028,
  "ĠModelManager": 12417,
  "Ġedebiliriz": 15366,
  "elendir": 6163,
  "mayacaÄŁÄ±m": 15121,
  "etler": 5546,
  "ĠhastalÄ±klara": 13906,
  "Ġoyunudur": 15501,
  "ĠhazÄ±r": 1506,
  "prÃ¼": 4362,
  "ĠOyuncu": 10804,
  "ĠMayÄ±": 10658,
  "Ġhang": 6089,
  "cÄ±": 323,
  "Ġcad": 14306,
  "ipariÅŁ": 3045,
  "ĠfaydasÄ±nÄ±": 5513,
  "ĠhayatÄ±nÄ±": 5733,
  "Bir": 3464,
  "shape": 7287,
  "Ġs": 209,
  "otoÄŁraf": 2834,
  "Ġbulundu": 9094,
  "ĠFotoÄŁraf": 7631,
  "ĠhayvanlardÄ±r": 11871,
  "ĠMercan": 14583,
  "Ġmalzemelerle": 10753,
  "ware": 13067,
  "Ġdair": 1768,
  "ĠmÃ¼zikal": 15426,
  "ĠtasarÄ±mÄ±": 4177,
  "ĠZih": 7660,
  "Ġolana": 5202,
  "iyesi": 10299,
  "nun": 1459,
  "Ġpoz": 3052,
  "ĠhaklarÄ±": 6026,
  "ilt": 11312,
  "Ġplaj": 3226,
  "iÄŁe": 6739,
  "Ġsabah": 4036,
  "ite": 2188,
  "Ġtemizleyin": 15378,
  "ĠparladÄ±": 8871,
  "Ġconversations": 8235,
  "ĠDayanÄ±klÄ±": 8623,
  "Ġvar": 609,
  "ĠgiriÅŁimciler": 14679,
  "evel": 13652,
  "oln": 12146,
  "Ġrobotlar": 6577,
  "ĠÃ§iÄŁ": 13635,
  "slar": 6509,
  "aktif": 8467,
  "________": 4561,
  "lardÄ±": 3276,
  "Ġmektup": 5604,
  "Ġcesaret": 2886,
  "Ġgiyim": 8028,
  "ĠilaÃ§lar": 12452,
  "ĠVi": 8862,
  "alel": 8091,
  "ĠTweet": 15917,
  "ĠHol": 7076,
  "Ġadapter": 16361,
  "ĠayÄ±r": 1557,
  "ĠfÄ±rsatlarÄ±": 4365,
  "Ġdeneme": 8874,
  "Ġihtiya": 1097,
  "ĠkavramdÄ±r": 12814,
  "ĠmÃ¼mkÃ¼ndÃ¼r": 12370,
  "dir": 308,
  "mÄ±ÅŁtÄ±r": 1794,
  "arr": 3031,
  "Ġodaklanarak": 10433,
  "ĠiÃ§eriÄŁin": 12872,
  "ĠdaÄŁar": 10176,
  "Ġzincir": 7296,
  "ĠyaratmayÄ±": 15160,
  "ĠolduÄŁunuz": 7968,
  "malarÄ±nÄ±": 3442,
  "ovaskÃ¼ler": 10892,
  "ĠSavaÅŁÄ±": 2922,
  "ĠAsistanÄ±": 14848,
  "fin": 6503,
  "laj": 12565,
  "gili": 3766,
  "ayÄ±p": 11782,
  "ĠkullanÄ±lmalÄ±dÄ±r": 11156,
  "izmin": 10292,
  "ĠApple": 3408,
  "Ġoyunlar": 9348,
  "ĠgeliÅŁtirilmesine": 8146,
  "work": 12100,
  "ĠaÅŁk": 4028,
  "ĠHepimiz": 10543,
  "ĠiÅŁleyiÅŁ": 14089,
  "Ġyum": 1918,
  "uÃ§": 3859,
  "Ġsindirim": 11118,
  "Ã¼kÃ¼met": 1926,
  "irin": 1295,
  "Ġbekliyorum": 10536,
  "Ġko": 614,
  "Ġmuazzam": 10458,
  "Ġseviyesini": 15295,
  "Ġsadakati": 13421,
  "ĠgevÅŁ": 13517,
  "ĠKÄ±zÄ±l": 12010,
  "vanced": 13231,
  "Ġgar": 3692,
  "Ġhedeflerine": 5810,
  "ĠdeÄŁiÅŁik": 1093,
  "ĠÅŁab": 8840,
  "ĠKarmaÅŁÄ±k": 6999,
  "ĠiÅŁit": 11768,
  "Ġkablos": 14472,
  "Ã¼nkÃ¼": 1629,
  "Ġona": 3056,
  "?\"": 3895,
  "ĠhayvanÄ±": 8428,
  "Ã¼le": 1273,
  "eci": 3231,
  "ĠgÃ¶rÃ¼ÅŁÃ¼": 6470,
  "ĠÅŁans": 4697,
  "head": 2898,
  "Ġmineraller": 11210,
  "ĠiÃ§erebilir": 2757,
  "ĠtekniÄŁi": 7097,
  "ĠKuantum": 8042,
  "Ġuygulanan": 9532,
  "Ġinceleyen": 14591,
  "ĠbaÄŁlamÄ±nÄ±": 12900,
  "Ġetmekten": 9524,
  "yanÄ±n": 1592,
  "ĠimkanÄ±": 4154,
  "Ġgelmesini": 15069,
  "oÄŁun": 1900,
  "Ġazaltabilir": 3118,
  "Ġdoldurun": 8209,
  "ĠbÄ±rakÄ±n": 8196,
  "Ġâ": 10595,
  "Ġtoplumda": 10164,
  "Ġbesinleri": 14707,
  "ĠbÃ¼yÃ¼yen": 8429,
  "ĠÃľzerindeki": 8967,
  "Ġnic": 14998,
  "!\")": 9446,
  "dÄ±ma": 10970,
  "Æ": 146,
  "Ġistemek": 14418,
  "antez": 7746,
  "ane": 2858,
  "ef": 449,
  "est": 587,
  "ĠolacaÄŁÄ±nÄ±": 5489,
  "[": 78,
  "Ã¼sÃ¼": 2938,
  "Ġemisyon": 2321,
  "ĠÃ¼rÃ¼nlere": 10713,
  "Ġtam": 1671,
  "ĠKarakter": 3333,
  "ĠaÄŁ": 861,
  "ĠkÄ±lar": 14615,
  "Ġsistemini": 7981,
  "ĠÅŀÃ¼ph": 15206,
  "ĠBayan": 13627,
  "ĠmÃ¼cadel": 5337,
  "ĠSÄ±nÄ±r": 7067,
  "layt": 15021,
  "ĠbaÄŁ": 651,
  "end": 607,
  "Ġkalk": 8873,
  "ĠOtob": 12896,
  "ĠKoro": 7567,
  "doÄŁu": 14896,
  "ĠChi": 9077,
  "ÅŁembe": 14237,
  "Ġkendisine": 12287,
  "ban": 2507,
  "Ġorganizasyon": 3596,
  "mÃ¼ÅŁtÃ¼": 13582,
  "(\"\"\"": 10096,
  "ĠokumayÄ±": 11521,
  "ilerinizi": 7369,
  "Ġplan": 1002,
  "ĠotobÃ¼s": 7171,
  "ĠÅŁansÄ±": 10642,
  "ele": 2433,
  "ĠSim": 12626,
  "Ġsayede": 11460,
  "ĠsÄ±rayla": 5955,
  "ĠulaÅŁÄ±m": 4001,
  "ĠÃ§ey": 14280,
  "Ġkrema": 9438,
  "Ġbelgel": 11396,
  "tab": 6197,
  "Ġkitle": 7831,
  "2": 37,
  "ĠGelir": 14604,
  "Ġteor": 4326,
  "ch": 629,
  "Ġtohum": 7172,
  "ĠsarÄ±msaklÄ±": 13410,
  "vantaj": 1686,
  "ĠyoÄŁurt": 8799,
  "ĠTok": 7220,
  "ĠHab": 7350,
  "ĠsÄ±fatlar": 13394,
  "Ġ95": 14481,
  "list": 3106,
  "ĠPolitika": 12992,
  "ĠtÃ¼rev": 10704,
  "ĠGeliÅŁ": 9876,
  "Ä±mÄ±za": 11875,
  "Ã¼kle": 4976,
  "Ġsitesi": 2065,
  "Ġ34": 9074,
  "ĠÃ¶lÃ§eklenebilirlik": 7583,
  "Ġcontent": 7004,
  "ezerv": 6398,
  "frequency": 12030,
  "Ġvb": 4687,
  "Ġbenzer": 2585,
  "malÄ±yÄ±z": 9873,
  "ĠgÃ¶revlere": 8156,
  "ĠDoÄŁada": 13333,
  "duct": 15053,
  "ĠĠĠĠ": 216,
  "ĠÅŁekillerde": 8131,
  "Ġedemey": 9287,
  "Ġgide": 8089,
  "ĠkullanÄ±rlar": 7858,
  "ĠYeniden": 12768,
  "landÄ±rmasÄ±": 16031,
  "ĠatayÄ±n": 8508,
  "59": 15737,
  "Ġyav": 2129,
  "dedir": 11671,
  "yetik": 9460,
  "Ġyinelen": 14800,
  "ete": 4384,
  "ĠkÄ±smÄ±": 11078,
  "Ġop": 8273,
  "Ġmercan": 11499,
  "esin": 1068,
  "ĠCÃ¼mlede": 8017,
  "ĠoluÅŁtururlar": 12880,
  "ĠkarÅŁÄ±laÅŁtÄ±rÄ±ldÄ±ÄŁÄ±nda": 12289,
  "Ġsegment": 6297,
  "Ġtoken": 2325,
  "Ġolmaya": 3331,
  "93": 15740,
  "GerÃ§ek": 14181,
  "widget": 5990,
  "ĠÃ¶fkeli": 14781,
  "Ġapt": 12600,
  "umu": 2113,
  "makas": 15866,
  "ĠalandÄ±r": 14272,
  "ĠÃ¶zÃ¼tÃ¼": 13007,
  "Ä±rp": 5618,
  "lenen": 3449,
  "unuz": 1464,
  "Ġdahil": 1871,
  "Ġacil": 4196,
  "Ġmali": 10042,
  "ĠGo": 3163,
  "ĠÂ°": 10257,
  "ĠkeÅŁfetme": 7005,
  "ĠdevrimleÅŁtirdi": 9427,
  "acÄ±": 4784,
  "Ġkaplan": 9119,
  "Ä±sÄ±na": 6544,
  "add": 1452,
  "ĠzorlaÅŁtÄ±r": 8149,
  "ĠortalamasÄ±nÄ±": 7545,
  "ĠGÃ¶rsel": 11532,
  "iÅŁ": 278,
  "lanÄ±r": 1488,
  "Ġkad": 612,
  "ĠkiÅŁilik": 5505,
  "ĠBitki": 7887,
  "Ä±ÅŁma": 1889,
  "fo": 2642,
  "ĠgÃ¶revlendir": 15191,
  "ĠkalmasÄ±na": 8682,
  "ĠÃ¼r": 532,
  "Ġayr": 1899,
  "ĠArizona": 15225,
  "ĠOtomatik": 5061,
  "ĠbardaÄŁÄ±": 1882,
  "<|context|>": 13,
  "ĠGeridÃ¶nÃ¼ÅŁÃ¼m": 13543,
  "ĠistikrarlÄ±": 9936,
  "ĠKonfederasyon": 14150,
  "ĠGizlilik": 15549,
  "ĠgÃ¶lÃ¼": 15028,
  "Ġtalimatlar": 7870,
  "Ġcom": 6736,
  "ĠvÃ¼cudun": 12000,
  "Ġmilyon": 2826,
  "Ġmut": 1412,
  "ĠyapÄ±lmÄ±ÅŁ": 6634,
  "siler": 10254,
  "isy": 6428,
  "))": 2486,
  "ĠÃ§alÄ±ÅŁmalarÄ±": 12319,
  "ĠDep": 10654,
  "Ġorij": 4894,
  "Ġmatr": 12662,
  "ĠsayÄ±sÄ±z": 7984,
  "Ġkilometr": 12396,
  "ĠdeÄŁiÅŁtirme": 8714,
  "ĠsÃ¼rdÃ¼rÃ¼lebilirlik": 14652,
  "output": 3518,
  "ayÄ±cÄ±": 5373,
  "ĠsaÄŁlamaya": 5520,
  "ĠÃ§oÄŁu": 6066,
  "Ġimza": 10108,
  "ĠaraÃ§lar": 3240,
  "lanacak": 9481,
  "tuk": 9700,
  "ĠtartÄ±ÅŁmak": 11159,
  "Ġkendimi": 11084,
  "tern": 1139,
  "tun": 9247,
  "itab": 2224,
  "30": 4677,
  "aket": 3251,
  "lam": 578,
  "ĠuzmanlaÅŁ": 9905,
  "wa": 13066,
  "Ġbiliyor": 15931,
  "Ġtamamlamak": 4155,
  "ekn": 8820,
  "kish": 3690,
  "www": 7572,
  "ĠGÃ¼venli": 10490,
  "ĠyaÅŁayan": 2656,
  "acher": 4183,
  "sek": 784,
  "ĠkalÄ±r": 4440,
  "ĠNesne": 6921,
  "larÄ±nÄ±za": 11171,
  "į": 171,
  "ĠsÃ¼recinde": 7389,
  "ĠanlayÄ±ÅŁÄ±": 8021,
  "Ġblu": 14238,
  "Ġgelirli": 14506,
  "Ġgenetik": 4845,
  "Ġuyak": 10995,
  "qt": 11298,
  "ĠKulesi": 10830,
  "ĠfÄ±rlat": 12269,
  "mÄ±zÄ±": 2200,
  "ĠolmalÄ±dÄ±r": 1881,
  "train": 4070,
  "ĠiÅŁletmenin": 7123,
  "ĠKil": 9733,
  "kedi": 10586,
  "ren": 2930,
  "iyel": 1049,
  "Ġbulmaya": 6852,
  "Ġ199": 4556,
  "ĠSevgili": 5009,
  "ĠĠĠĠĠĠĠĠĠĠĠĠĠĠĠĠĠĠĠ": 1455,
  "Ġsinir": 2504,
  "ĠdikdÃ¶rt": 8540,
  "ĠÃĩikolata": 13207,
  "12": 3133,
  "Ġkategor": 1955,
  "Ä±nÄ±n": 625,
  "tandart": 3551,
  "Ġkahkaha": 9594,
  "ĠÃ§if": 13103,
  "Ġgezegeni": 13388,
  "ĠfaktÃ¶rlerden": 16273,
  "ĠbaÅŁlat": 3217,
  "R": 69,
  "ĠKork": 12155,
  "kalÄ±": 15781,
  "Ġprotesto": 13011,
  "ĠKÄ±sa": 5841,
  "ĠBulutlar": 14697,
  "Ġarkada": 6138,
  "Ġbanka": 3975,
  "Al": 8438,
  "abled": 8025,
  "ĠdeÄŁiÅŁtir": 1155,
  "ĠyetiÅŁ": 5317,
  "imizin": 4486,
  "ĠWeb": 2265,
  "ambu": 12143,
  "ĠOyun": 2833,
  "able": 2896,
  "ĠdavranÄ±ÅŁlarÄ±": 6162,
  "unda": 662,
  "maya": 550,
  "ĠkonuÅŁma": 1757,
  "muz": 3715,
  "deb": 10015,
  "On": 10900,
  "Cursor": 13534,
  "Ġverileri": 1630,
  "ĠÅŁidd": 3557,
  "Ġsof": 7551,
  "Ġetmenize": 15201,
  "ĠkiÅŁinin": 2255,
  "isindeki": 11348,
  "ĠNo": 6342,
  "tedir": 1711,
  "ĠgeliÅŁtir": 699,
  "ĠJoe": 6400,
  "ĠatÄ±fta": 5913,
  "ĠakÄ±llÄ±ca": 10800,
  "ihdam": 7639,
  "ĠbaÅŁlangÄ±cÄ±nÄ±": 14132,
  "ĠmÃ¼mkÃ¼n": 2379,
  "Ġbas": 1203,
  "Ġyapma": 1672,
  "ĠOh": 9069,
  "ĠKut": 7215,
  "Ġanswer": 12515,
  "YÄ°": 7733,
  "Ġhikayeler": 5734,
  "Ġmesaj": 2273,
  "latÄ±r": 6610,
  "Ġpep": 15857,
  "Ä±mÄ±zÄ±n": 9830,
  "Ġgraf": 8823,
  "ĠZeytinyaÄŁÄ±": 12257,
  "Ġkullan": 299,
  "Ġdepolayan": 12804,
  "ĠdeÄŁerlendirmesi": 16194,
  "ĠÃĩocuklar": 7295,
  "Ġitibariyle": 13497,
  "learning": 6088,
  "NN": 6404,
  "ĠdeÄŁerlendirme": 8001,
  "ĠaraÃ§tÄ±r": 7835,
  "ire": 5922,
  "up": 1111,
  "lerinizin": 13734,
  "Ġiken": 8269,
  "letiÅŁim": 5726,
  "ortakal": 2767,
  "Ġmask": 7568,
  "ĠkolaylaÅŁtÄ±rmak": 9629,
  "Ġetkilenen": 12917,
  "Ġarayarak": 15370,
  "ĠbaÄŁla": 9099,
  "simize": 8453,
  "ĠbeyanÄ±": 14703,
  "ĠNob": 9780,
  "ĠHome": 12654,
  "Ġsah": 518,
  "Ġkorkusu": 11140,
  "Ġpaha": 13634,
  "ĠsÃ¼recine": 13856,
  "ut": 328,
  "ĠDeÄŁerlendirme": 15655,
  "ĠMantÄ±k": 15718,
  "âĸģ": 6072,
  "omotiv": 14127,
  "ĠÅŁiiri": 5276,
  "ich": 6748,
  "Ġvermesine": 11373,
  "Ġtekil": 15973,
  "ĠayÄ±ran": 14525,
  "hing": 12089,
  "ĠKullan": 2028,
  "ĠYazÄ±lÄ±mÄ±": 15461,
  "Ġortalama": 1977,
  "Ġfasulye": 10547,
  "ĠyalnÄ±z": 2974,
  "ĠTem": 2688,
  "ĠyararlÄ±": 9295,
  "asal": 13631,
  "ĠYolculuÄŁu": 15583,
  "ĠyargÄ±": 6850,
  "Ġifade": 1032,
  "Ġedecek": 6016,
  "Tensor": 4046,
  "ĠNelson": 14852,
  "ĠartÄ±k": 4663,
  "imser": 7054,
  "gen": 1303,
  "Ġolmadan": 2779,
  "the": 9701,
  "else": 12578,
  "Ġifadesinin": 10135,
  "Ġdisip": 8998,
  "Ġeylem": 2350,
  "iktir": 3603,
  "ĠmesajlaÅŁma": 11530,
  "Ġkalacak": 7901,
  "ĠsÃ¼reÃ§leri": 5460,
  "Ġola": 450,
  "Ġrit": 10305,
  "Ġlez": 2726,
  "altÄ±n": 12587,
  "ĠÄ°htiya": 7726,
  "Ġgezegenimizin": 13426,
  "Ġlistel": 1728,
  "ĠsaÄŁlanmasÄ±": 13693,
  "Ġ<": 971,
  "ĠdevrimleÅŁtir": 5675,
  "Ġted": 2477,
  "ĠTarih": 4370,
  "ĠCEO": 10337,
  "Ġhafifletmek": 12037,
  "Ġfosil": 3986,
  "ĠamaÃ§lÄ±": 4157,
  "ĠinÅŁ": 3138,
  "sÄ±": 324,
  "ĠbasÄ±nÃ§": 8606,
  "ĠGogh": 9013,
  "St": 11661,
  "ĠuÃ§tu": 13332,
  "ement": 15851,
  "Ġnon": 15869,
  "Ġdoldurur": 10814,
  "ĠÃľcr": 13256,
  "stos": 9273,
  "ĠPotter": 5606,
  "ĠkÃ¶p": 4997,
  "28": 14867,
  "ĠLise": 16021,
  "diÄŁin": 11817,
  "gah": 14904,
  "des": 7454,
  "ĠÅŁapka": 12147,
  "lanÄ±yorum": 10285,
  "ĠĠĠĠĠĠĠĠĠĠĠ": 363,
  "ĠgÃ¼vence": 9533,
  "gul": 6712,
  "Ġplaja": 12402,
  "Ġazaltmaya": 2298,
  "iliar": 6860,
  "ahtar": 2326,
  "ĠfÄ±rsatlar": 6048,
  "miss": 13058,
  "ksiyon": 15782,
  "ĠHikaye": 4821,
  "ec": 301,
  "ĠdÃ¶nÃ¼ÅŁ": 2985,
  "ĠkÃ¶ÅŁ": 5384,
  "Ġbakarak": 10380,
  "Ġmesafe": 6807,
  "ĠfÄ±rtÄ±na": 5214,
  "ave": 4057,
  "Ġfare": 8834,
  "ľ": 185,
  "Ġtalebini": 15560,
  "ĠCelsius": 4985,
  "ĠÄ°nternet": 2869,
  "ĠhastalÄ±klarÄ±": 6796,
  "ET": 6821,
  "Ġazalt": 807,
  "ĠÃ§Ã¶zmek": 2927,
  "isyon": 1598,
  "lÄ±klÄ±": 7949,
  "remove": 14778,
  "medik": 3688,
  "ĠkomÅŁ": 9590,
  "ĠDa": 7776,
  "Ġilgili": 967,
  "akat": 3212,
  "akal": 2545,
  "ĠDarw": 13013,
  "Ġbilinen": 5104,
  "ĠGÃ¼ney": 4481,
  "ĠeriÅŁim": 1830,
  "ĠGÃ¼zel": 6331,
  "Ġbelirlemeye": 8787,
  "ĠScot": 9951,
  "Ġkre": 7200,
  "Ġpolis": 10447,
  "ĠyapmalÄ±dÄ±r": 14324,
  "ĠyaratÄ±cÄ±lÄ±ÄŁÄ±": 11097,
  "ĠBeklen": 10218,
  "ĠYaÅŁ": 4430,
  "Ã¼ms": 3839,
  "ĠbugÃ¼nÃ¼n": 13968,
  "Ġkullanmak": 1931,
  "Ġkendine": 3882,
  "ĠAnayasa": 15609,
  "ĠArk": 7826,
  "ĠgeniÅŁliÄŁi": 13294,
  "Ġparadig": 15977,
  "ĠDoÄŁ": 1663,
  "ĠÃ¶nlemler": 6803,
  "rom": 1209,
  "ĠAnna": 13775,
  "ĠPlastik": 5530,
  "ĠkarÅŁÄ±ya": 3846,
  "Ġtasvir": 5569,
  "ĠRÃ¼ya": 11031,
  "ank": 15802,
  "ĠgÃ¶rÃ¼lmemiÅŁ": 8033,
  "Ġdilidir": 9197,
  "ĠdÄ±ÅŁarÄ±": 4334,
  "Ġrandom": 9493,
  "ĠK": 306,
  "Ġfasul": 7479,
  "ĠhatÄ±rlatÄ±r": 9864,
  "ĠkolaylÄ±ÄŁÄ±": 11461,
  "ĠÃ¶lÃ§Ã¼t": 12780,
  "60": 6818,
  "ĠolmanÄ±zÄ±": 15856,
  "ĠaÄŁa": 12247,
  "mit": 9241,
  "Ġharekete": 4661,
  "Ġressam": 13835,
  "ĠbaÅŁa": 3843,
  "Ġveriye": 10313,
  "found": 14900,
  "ĠGand": 13129,
  "ĠNehri": 7802,
  "Ġseti": 6830,
  "ĠFace": 7085,
  "Ġpotansiyelini": 12288,
  "ĠFarklÄ±": 3000,
  "esi": 378,
  "ĠyÃ¶netiminin": 14694,
  "ĠBitk": 6390,
  "umuza": 16381,
  "Ġkonularda": 11033,
  "3": 38,
  "pad": 8452,
  "ĠgÃ¶rmezden": 13696,
  "econd": 15885,
  "kelime": 15694,
  "lamayÄ±": 4389,
  "ĠgÃ¼lÃ¼msem": 14716,
  "ĠBil": 1195,
  "Ġsevinci": 15169,
  "ĠinanÄ±yoruz": 16210,
  "ĠgÃ¶sterirler": 11580,
  "ilal": 14206,
  "ĠettiÄŁinde": 15343,
  "ĠihtiyaÃ§larÄ±nÄ±": 3204,
  "Ġinternetin": 15450,
  "gin": 1689,
  "lerinden": 1743,
  "Ġdairenin": 7395,
  "lerken": 6616,
  "ĠMedyanÄ±n": 10201,
  "Ġgaler": 12984,
  "ĠeriÅŁebil": 10124,
  "Ġdezavantaj": 3404,
  "ĠIoT": 14447,
  "ĠÅŁark": 3470,
  "Ġrenkleri": 7385,
  "Ġduygus": 4859,
  "ĠÃ¶nleme": 13688,
  "ĠÄ°s": 5943,
  "ips": 13701,
  "texts": 7012,
  "ĠyalÄ±": 10004,
  "ĠiÅŁlet": 1157,
  "kuÅŁ": 12093,
  "Ġbelirleyen": 11003,
  "ĠtarÃ§Ä±n": 10053,
  "Ġtruncation": 14153,
  "beti": 14198,
  "ĠdeÄŁiÅŁikliklere": 6689,
  "irket": 1000,
  "itleri": 12616,
  "orat": 8279,
  "Ġzaferle": 14789,
  "omm": 5799,
  "ĠgenÃ§": 1951,
  "ozzarella": 15728,
  "acy": 6123,
  "ĠÃ§alÄ±ÅŁtÄ±ÄŁÄ±nÄ±": 5754,
  "atÄ±n": 3468,
  "ĠkenarlarÄ±": 11181,
  "gi": 491,
  "Ġoyuncunun": 11618,
  "Ġiddi": 7553,
  "igan": 11429,
  "ĠÅŁirketinin": 15273,
  "rupa": 3321,
  "Ġmoda": 6039,
  "ĠRusya": 10870,
  "Ġhatas": 14266,
  "Ġzamanda": 2122,
  "ĠGeÃ§miÅŁte": 15425,
  "ĠNicel": 14376,
  "iciyi": 13711,
  "Bar": 9972,
  "Ġbecerileri": 4495,
  "ĠGÃ¶zlem": 15535,
  "Ġetki": 3674,
  "Ġgelirler": 14505,
  "ĠÅŁirketler": 5740,
  "ĠYÄ±ldÄ±zlar": 10533,
  "cd": 9451,
  "fix": 11955,
  "ĠbÃ¼tÃ§eleme": 11207,
  "Ġzencefil": 12063,
  "ĠiÅŁletim": 6253,
  "ĠÅŀap": 15205,
  "Ġkonuyu": 5572,
  "Ġseni": 5925,
  "ĠdalÄ±ÅŁ": 12837,
  "we": 2517,
  "ĠolmamasÄ±": 13219,
  "ĠyÃ¼zleÅŁmek": 13484,
  "Ġdesenleri": 2873,
  "Ġtrainer": 12387,
  "Ġposta": 14782,
  "Ġbesleyici": 7552,
  "ĠbaÄŁlantÄ±sÄ±": 9581,
  "ĠGelecekteki": 15520,
  "ĠÄ±sÄ±yÄ±": 9869,
  "uyucu": 4328,
  "ĠKir": 6626,
  "ĠÅŁeh": 3121,
  "ĠKaf": 14301,
  "ĠÅŁem": 9492,
  "ĠeÄŁlenceli": 4674,
  "ĠÃ¶ÄŁenin": 8166,
  "ĠcanlÄ±sÄ±": 15348,
  "Ġzamanlar": 2162,
  "Ġperakende": 6565,
  "ĠadamÄ±": 5101,
  "ĠinÃ§": 4840,
  "ĠseÃ§imi": 6869,
  "aÄŁan": 11349,
  "ĠÃ¶ÄŁretir": 13897,
  "ĠNobel": 9966,
  "Ġmedeniyet": 11339,
  "Ġgetiriyor": 10092,
  "ĠsalÄ±n": 9854,
  "ĠfarklÄ±lÄ±klar": 9333,
  "Ġeserleri": 9927,
  "cis": 5683,
  "Ġblockchain": 14239,
  "GB": 6822,
  "Ä±yoruz": 5642,
  "ĠeÅŁkenar": 15283,
  "ilecek": 8262,
  "ĠolduÄŁumuz": 11017,
  "ĠMars": 7558,
  "Ġkronik": 8352,
  "Ġkred": 15276,
  "duÄŁunuz": 8195,
  "ĠgÃ¶zden": 4662,
  "Ġ\",\"": 10025,
  "Ġteknolojiler": 6248,
  "Ġnegatif": 7241,
  "ĠgÃ¼venmek": 16038,
  "aban": 4837,
  "ĠBirden": 10657,
  "Ġomurg": 10936,
  "ĠdÃ¼ÄŁÃ¼mÃ¼": 14700,
  "Ġpeyn": 3407,
  "Ġkamera": 9400,
  "atÃ¶r": 7202,
  "LE": 3857,
  "eyerek": 5299,
  "Ġpolitikalar": 13419,
  "ĠkÃ¼ltÃ¼rler": 11917,
  "ĠBaÅŁkanÄ±": 12775,
  "Ġiyi": 619,
  "Ġriskli": 11114,
  ")-": 15734,
  "ĠhayÄ±r": 5725,
  "niÅŁ": 12095,
  "Ġ*": 1673,
  "umlu": 1145,
  "ĠgÃ¼br": 10693,
  "ĠMÃ¼hend": 8230,
  "ĠÃ§Ã¶p": 8791,
  "ĠsÄ±nÄ±rsÄ±z": 10769,
  "ĠmaÄŁazadan": 15318,
  "likler": 11372,
  "ĠbaÅŁlamak": 9070,
  "iram": 10259,
  "ĠyÃ¼zd": 13266,
  "Ġizolasyon": 15182,
  "Ġbulutu": 14609,
  "ĠdÃ¼zgÃ¼n": 9793,
  "ĠeÅŁleÅŁtirin": 12785,
  "graf": 1495,
  "trainer": 5894,
  "Ġistikrar": 5414,
  "rep": 7110,
  "cular": 7237,
  "Ġdeneyimine": 16143,
  "Ġtitle": 11324,
  "ĠSiyah": 9210,
  "Ġifad": 1622,
  "ĠÄ°spanyolca": 6594,
  "Ġdirenc": 14630,
  "Ġtamamen": 3501,
  "ĠdezavantajlarÄ±nÄ±": 10488,
  "Ġortadan": 5879,
  "ĠkeÅŁfeden": 16136,
  "ĠGÃ¶r": 2282,
  "ĠtÃ¼y": 5122,
  "ĠiÃ§gÃ¶rÃ¼ler": 9943,
  "ĠgeÃ§iÅŁi": 16027,
  "epe": 16096,
  "Ġhob": 10942,
  "ĠfigÃ¼r": 4141,
  "ĠtÃ¼rlerinin": 9322,
  "ĠuÃ§ur": 8924,
  "erinden": 15015,
  "ĠNijerya": 15711,
  "Ġmemel": 8736,
  "mo": 3943,
  "ĠÃ§oÄŁun": 5193,
  "Ġjob": 16261,
  "lÄ±klar": 3035,
  "ND": 10898,
  "ĠDÄ±ÅŁarÄ±da": 11635,
  "ĠMÃ¼c": 10971,
  "ĠdoÄŁruluÄŁunu": 6117,
  "Ġkodunu": 11113,
  "ĠFavori": 13720,
  "Ġbuldular": 13983,
  "Ġsat": 1053,
  "ĠÄ°k": 1551,
  "Son": 15757,
  "ĠEleÅŁtir": 15939,
  "alarÄ±": 2805,
  "laÅŁtÄ±rma": 10726,
  "ĠiyileÅŁtir": 1539,
  ".</": 13033,
  "ĠbaÅŁlangÄ±Ã§": 4513,
  "Ġhedefine": 16138,
  "]": 80,
  "ĠCins": 11000,
  "ĠKod": 7946,
  "ate": 646,
  ":.": 11265,
  "Ġalanlara": 11434,
  "ĠdÃ¶nÃ¼ÅŁtÃ¼r": 1343,
  "ĠÂ": 6608,
  "ĠMÃĸ": 15046,
  "Ġederek": 2244,
  "Ġmes": 1405,
  "ith": 1894,
  "temperature": 10731,
  "ĠayrÄ±mcÄ±lÄ±ÄŁÄ±": 14766,
  "``": 8442,
  "Ġnehir": 3389,
  "eyen": 1342,
  "Ġodada": 13432,
  "Ġkonut": 10714,
  "ĠdiÄŁerine": 8052,
  "Ġkarakterini": 12310,
  "Ġdirectory": 14631,
  "Ġdestek": 1325,
  "aÄŁaÃ§": 15863,
  "Ã¼ttef": 9805,
  "ĠsÃ¼bvans": 14163,
  "Ġ(\"": 11400,
  "uyor": 1182,
  "Ġaritmet": 13649,
  "Ġmusun": 12018,
  "ĠBiy": 8471,
  "Ġdramatik": 8425,
  "ĠFÄ±rsat": 13979,
  "ĠfÄ±rÄ±n": 4998,
  "ustom": 11196,
  "ĠTwain": 14053,
  "ĠdolandÄ±rÄ±cÄ±lÄ±k": 9221,
  "Ġklas": 14936,
  "odi": 10588,
  "das": 15848,
  "ĠHayÄ±r": 7262,
  "Ġparlar": 11006,
  "ĠPr": 4203,
  "ĠÃľÃ§gen": 13350,
  "ĠBalÄ±k": 7059,
  "Ġterim": 4482,
  "ĠsayfalarÄ±": 12350,
  "Ġmetal": 6238,
  "ĠAyr": 15999,
  "ĠOlumlu": 6389,
  "enin": 552,
  "ĠSÄ±ra": 15586,
  "(\"#": 11449,
  "ĠFahrenheit": 5137,
  "ĠazalmasÄ±na": 10352,
  "ned": 9243,
  "Ġkullanmaktan": 12340,
  "ĠBazÄ±": 4540,
  "su": 2226,
  "ĠMaÄŁ": 4231,
  "Ġseviyesi": 10414,
  "ĠZekanÄ±n": 13531,
  "idx": 9779,
  "ĠtanÄ±n": 6108,
  "44": 6402,
  "ang": 2830,
  "Ġduyar": 9536,
  "ĠSan": 1981,
  "ĠÃĩerÃ§eve": 15712,
  "ĠyeniliÄŁi": 12433,
  "ĠgerÃ§ekler": 12246,
  "ĠparÃ§alara": 7016,
  "ĠDonald": 14056,
  "ĠayÄ±nda": 15085,
  "Ġher": 515,
  "kisi": 12549,
  "ĠyapÄ±lacaklar": 10855,
  "ĠOtobÃ¼s": 15703,
  "ĠÃ§evresel": 3025,
  "iklet": 3533,
  "Ġsunan": 4852,
  "ĠÅŁemsiy": 14815,
  "Ġkarn": 15048,
  "ĠyeteneÄŁine": 5051,
  "Ġrenkler": 5219,
  "Ġyemeklerin": 14471,
  "masÄ±z": 5434,
  "ĠgÃ¼v": 8137,
  "amp": 1127,
  "ĠgÃ¼ce": 10346,
  "ĠtanÄ±mlayÄ±cÄ±": 15174,
  "eft": 8863,
  "Kon": 14183,
  "Ġbilginin": 8880,
  "Ġmuhtem": 5755,
  "ĠkavramlarÄ±": 7538,
  "Ġdevrimi": 14943,
  "onlar": 4834,
  "go": 3554,
  "isayarÄ±": 9543,
  "anas": 11698,
  "ĠuygulamanÄ±n": 8692,
  "Ã¶mer": 7927,
  "Ġetm": 871,
  "dat": 3830,
  "ĠkarÄ±ÅŁtÄ±rarak": 8015,
  "ĠsaÄŁlamak": 1381,
  "Ġtercihlerine": 8764,
  "ĠtanÄ±yÄ±n": 14671,
  "ĠKa": 10964,
  "ĠMot": 15043,
  "itim": 2666,
  "ĠhatasÄ±": 7142,
  "ĠKamera": 12965,
  "Ġhead": 9422,
  "Ġteknolojisinin": 6459,
  "<|": 3487,
  "ally": 11545,
  "Ġlistesini": 1835,
  "ĠkalmasÄ±nÄ±": 13735,
  "Ġhash": 8176,
  "Ġdilin": 9804,
  "BM": 13041,
  "lÄ±klarÄ±": 3005,
  "Ãĩok": 9910,
  "ĠkitabÄ±nÄ±n": 12004,
  "Ġvol": 9033,
  "Ġbak": 939,
  "ĠunsurlarÄ±nÄ±": 10468,
  "ĠBerlin": 10551,
  "Ġnicel": 14286,
  "ĠsÄ±nÄ±fta": 12248,
  "Ġdizide": 11126,
  "ĠdÃ¼ÅŁÃ¼ndÃ¼": 10097,
  "ĠHaziran": 5908,
  "ĠYemek": 5031,
  "ĠyÃ¼zyÄ±l": 3590,
  "Ġsep": 10270,
  "Ġkaynaklar": 5042,
  "ĠÃ¶zelliÄŁi": 4401,
  "iÅŁtir": 494,
  "Ġpantolon": 12499,
  "Ã¼ler": 1318,
  "ĠKarÄ±ÅŁÄ±mÄ±": 15700,
  "ĠseÃ§in": 2311,
  "ĠPatatesleri": 14101,
  "Ġmaksimum": 5143,
  "ĠdÃ¶ndÃ¼ren": 10820,
  "¢": 115,
  "Ġrobotik": 5595,
  "Com": 8807,
  "ĠÃ¶lÃ§Ã¼lebilir": 13305,
  "ĠdevrimleÅŁtirmek": 14645,
  "ĠÃ§aÄŁÄ±": 14987,
  "ĠeÄŁitimin": 8726,
  "Ġakan": 10361,
  "Ġkelimeyle": 5497,
  "ĠmÃ¼lk": 7478,
  "Ġlezzetli": 4039,
  "Ġfrom": 1772,
  "ĠÃ¶ÄŁrenimi": 1813,
  "ython": 2247,
  "ĠYavaÅŁÃ§a": 12498,
  "ĠAÄŁaÃ§lar": 8222,
  "cal": 6076,
  "ĠDil": 4230,
  "Ġedin": 778,
  "ĠsaÄŁlamalarÄ±na": 13346,
  "ĠTam": 7951,
  "ĠtarayÄ±cÄ±": 6853,
  "inference": 7601,
  "ĠFÄ±rtÄ±na": 15471,
  "Ġuygular": 13226,
  "Ġdurgun": 13238,
  "mali": 4348,
  "ĠmeÅŁ": 7339,
  "ĠkÃ¶peÄŁi": 14735,
  "Ġ1990": 9656,
  "ĠTakÄ±m": 5603,
  "ĠoluÅŁturulmasÄ±": 12405,
  "yo": 3769,
  "ĠÃ§Ä±karÄ±m": 11853,
  "ĠplanlarÄ±": 8534,
  "ĠÃ¼lke": 3320,
  "modin": 14136,
  "Ġisten": 3188,
  "ĠgÃ¶rselleÅŁtirmesi": 15619,
  "layer": 7772,
  "Ġneyin": 11353,
  "Ġmec": 11338,
  "ĠVÃ¼cu": 15082,
  "lan": 238,
  "Ġfamiliar": 6931,
  "ĠdayanmaktadÄ±r": 16198,
  "Ġomuz": 13085,
  "ĠyaklaÅŁÄ±mlarÄ±": 15473,
  "ĠAnahtar": 7651,
  "Ġkes": 2035,
  "Ġ22": 5630,
  "lardÄ±r": 1521,
  "ĠdÃ¼zeye": 14396,
  "ĠKalem": 14592,
  "ĠbÃ¼yÃ¼c": 8869,
  "Ġekler": 15109,
  "elerin": 603,
  "ĠsorunlarÄ±": 3936,
  "Ġtez": 8276,
  "ĠFizik": 15546,
  "lanmalÄ±": 15837,
  "ĠWindows": 9683,
  "ĠalÄ±ÅŁveriÅŁ": 2313,
  "56": 14868,
  "ĠkullanÄ±ma": 12670,
  "ĠkaranlÄ±k": 3109,
  "ĠVEYA": 11259,
  "Ġmodel": 1036,
  "bini": 14889,
  "fek": 5766,
  "ĠÃ§aba": 2572,
  "Ġindirimler": 5983,
  "Ġrenkte": 11092,
  "ĠDurum": 9663,
  "vans": 11685,
  "ĠdÃ¼zenlemeye": 12893,
  "tÄ±n": 1798,
  "ĠyÄ±llar": 6769,
  "ĠHay": 1389,
  "al": 227,
  "ĠaylarÄ±nda": 13710,
  "ĠfarklarÄ±": 4318,
  "ĠML": 13120,
  "Con": 3304,
  "onical": 12124,
  "ĠanlatÄ±mÄ±": 13982,
  "ĠpaylaÅŁ": 1771,
  "ĠBaÅŁ": 1281,
  "ĠbasitleÅŁtir": 15365,
  "Ġegzersiz": 2338,
  "ĠEndonez": 12999,
  "gu": 442,
  "ĠyabancÄ±": 4242,
  "ĠhayvandÄ±r": 12765,
  "Ġtuttu": 9557,
  "eler": 406,
  "ĠSaÄŁlanan": 8734,
  "Ġyou": 4079,
  "ĠProj": 4523,
  "ĠOkyanus": 7412,
  "Ġazda": 15105,
  "turkish": 16340,
  "ĠBe": 10288,
  "ĠdÃ¶nÃ¼ÅŁtÃ¼rerek": 12781,
  "ĠSÄ±r": 6321,
  "text": 1825,
  "opt": 11775,
  "Ġkullanabil": 9052,
  "ĠdeÄŁere": 16078,
  "ĠasistanÄ±": 7896,
  "bi": 1507,
  "Ġdtype": 8268,
  "Ġalan": 761,
  "Ġmetr": 6862,
  "ellikle": 792,
  "ĠDÃ¼ÅŁ": 3651,
  "Ġancak": 1013,
  "VBoxLayout": 6933,
  "UI": 14884,
  "ĠBost": 9721,
  "chroma": 14394,
  "ĠÃ¶nerilen": 11924,
  "ĠyazÄ±yorum": 6229,
  "Ġtorch": 2220,
  "ĠolmalarÄ±na": 9317,
  "dÄ±k": 1716,
  "ĠiÃ§eriyor": 9789,
  "ĠDik": 4979,
  "Ġkodu": 3497,
  "ĠÃľzerine": 9636,
  "eller": 14255,
  "Ġantik": 7779,
  "ĠXYZ": 10484,
  "ĠmeÅŁgul": 11626,
  "Ġol": 258,
  "irli": 1920,
  "CÃ¼mle": 9432,
  "Ġcurrent": 11640,
  "fet": 3379,
  "ĠorganizasyonlarÄ±n": 12408,
  "Ġeri": 14924,
  "Ġhiperparametre": 13491,
  "a": 84,
  "Ġmini": 10624,
  "Ġ^": 14923,
  "ĠKenned": 11983,
  "Ġn": 281,
  "deri": 8254,
  "ĠsensÃ¶r": 12025,
  "ĠfaktÃ¶rÃ¼": 13902,
  "ĠmonitÃ¶r": 14756,
  "ĠtÄ±p": 7474,
  "Ġadet": 6242,
  "eka": 914,
  "ustr": 6305,
  "ĠkardeÅŁ": 6741,
  "lanÄ±rken": 15292,
  "ĠÃ§alÄ±ÅŁanÄ±n": 16015,
  "Ġpolitik": 5227,
  "arka": 11388,
  "tÃ¼sÃ¼": 7439,
  "ĠyaÅŁamanÄ±n": 11427,
  "Ġyerini": 8143,
  "Ġ197": 10406,
  "=-": 12079,
  "Ġkalbinde": 15550,
  "cÃ¼l": 10579,
  "iÄŁinin": 9741,
  "ĠkarÅŁÄ±laÅŁtÄ±lar": 15509,
  "ĠantivirÃ¼s": 13673,
  "ĠtÃ¼ket": 2201,
  "ĠdezavantajlarÄ±": 5904,
  "Ġedilir": 2281,
  "erÃ§ev": 4621,
  "ain": 3574,
  "sterol": 12959,
  "ĠisrafÄ±nÄ±": 10224,
  "emizi": 7203,
  "ĠMet": 2090,
  "adapter": 8919,
  "Ġstresi": 5507,
  "Ġbask": 7837,
  "lambaÃ§": 10854,
  "Ġyank": 15250,
  "Ġettim": 6052,
  "ĠDaÄŁÄ±": 10653,
  "ĠAdÄ±": 4101,
  "ĠAÃ§lÄ±k": 15364,
  "ikolatalÄ±": 14158,
  "B": 53,
  "Ġbelgeleri": 8957,
  "unuza": 12794,
  "Ġaraba": 2060,
  "lm": 14214,
  "ĠMask": 15047,
  "makta": 12621,
  "ĠsavunmasÄ±z": 8972,
  "ĠEjder": 12657,
  "ĠÃ¼lkesidir": 13291,
  "ĠformÃ¼le": 6904,
  "anÄ±m": 4502,
  "sÄ±zlÄ±ÄŁÄ±": 9114,
  "ĠtanrÄ±": 9772,
  "landÄ±rÄ±cÄ±": 5087,
  "ĠMaÄŁaza": 13459,
  "ĠÅŁifr": 3375,
  "ova": 13401,
  "$": 23,
  "ĠiÅŁletme": 3370,
  "ĠÃ§evreye": 6353,
  "Un": 15762,
  "ĠkarÅŁÄ±laÅŁtÄ±rÄ±n": 1801,
  "ĠÃ§alÄ±ÅŁmanÄ±n": 8141,
  "Ãĸn": 11999,
  "ÅŁ": 198,
  "ink": 11692,
  "Ġhiper": 6905,
  "Ġmakul": 10354,
  "ĠvazgeÃ§ilmez": 12472,
  "sed": 2050,
  "Ġproje": 4121,
  "ĠkaybolmuÅŁ": 15529,
  "dah": 5125,
  "ĠLider": 14404,
  "ĠsoÄŁut": 11510,
  "ĠkararlÄ±lÄ±kla": 14627,
  "ĠYaklaÅŁ": 7879,
  "Ġrisk": 1621,
  "ĠÂ½": 10540,
  "Dialog": 8624,
  "Ġfiz": 1591,
  "ĠboÅŁ": 3009,
  "ĠSanti": 12835,
  "Ġile": 597,
  "ĠipuÃ§larÄ±": 4528,
  "Ġazot": 14373,
  "dÄ±rlar": 12638,
  "ĠyÃ¼rÃ¼yor": 9136,
  "ĠPark": 6647,
  "ĠÃ§Ä±karÄ±r": 9553,
  "cÄ±lÄ±ÄŁÄ±": 7778,
  "ĠDayanÄ±klÄ±lÄ±k": 11243,
  "ĠbuzullarÄ±nÄ±n": 13492,
  "ĠsÄ±rt": 10094,
  "Ġtuzu": 9177,
  "Ġzihin": 12353,
  "ometr": 5722,
  "ĠarkadaÅŁlarÄ±nÄ±": 15261,
  "ĠÃ¶ÄŁrenir": 7499,
  "Ġdey": 4225,
  "ĠParkÄ±": 3775,
  "ĠBÃ¼yÃ¼": 16233,
  "Ġceviz": 11513,
  "Ġve": 214,
  "ĠVerilen": 602,
  "True": 2804,
  "Ġyapmak": 1020,
  "tents": 10922,
  "CHAR": 14142,
  "ĠÃľretim": 14579,
  "ĠBenzer": 10209,
  "Ġtest": 1680,
  "liyÃ¶": 15221,
  "Ġtatil": 5098,
  "ĠgÃ¶rdÃ¼m": 9294,
  "ĠAniden": 6552,
  "tps": 4683,
  "ecated": 14297,
  "Ġnum": 2001,
  "ĠyaklaÅŁÄ±mÄ±": 6886,
  "ew": 6935,
  "lil": 842,
  "Ġyaralan": 8857,
  "ĠmÃ¼cadele": 3550,
  "ĠbaskÄ±n": 10741,
  "laÅŁtÄ±": 1973,
  "ĠgÃ¶rÃ¼ÅŁlerini": 11123,
  "ĠyÄ±ldan": 13244,
  "ĠÃ§alÄ±ÅŁkan": 8688,
  "Ġiter": 11710,
  "iir": 1617,
  "ĠÄ±ÅŁÄ±": 2653,
  "ĠÃ¶fk": 15598,
  "lacak": 2243,
  "ĠgÃ¶mlek": 13480,
  "ĠbulunmaktadÄ±r": 3995,
  "Ġderecelendir": 8576,
  "onun": 12592,
  "ĠBÃ¶ylece": 9673,
  "Ġfar": 8097,
  "ĠiÃ§erikleri": 11943,
  "ĠYas": 10668,
  "oodle": 14074,
  "ĠSoyut": 9050,
  "ĠMeÅŁe": 14131,
  "ĠargÃ¼m": 2855,
  "ĠsÃ¼rÃ¼kleyici": 15663,
  "Ġhipot": 3974,
  "ĠÃ§alÄ±ÅŁanlarÄ±n": 7546,
  "ĠyansÄ±tÄ±r": 11569,
  "Ġhamur": 8599,
  "umerate": 15882,
  "Ġkazanma": 10123,
  "Ġtasarruflu": 11528,
  "ĠdÃ¶nÃ¼ÅŁtÃ¼rÃ¼n": 2284,
  "ĠAj": 14989,
  "Ġyan": 1129,
  "ĠÅŁekli": 5136,
  "oÄŁ": 691,
  "ĠtartÄ±ÅŁÄ±n": 8948,
  "dioksit": 3956,
  "ĠPolis": 12991,
  "ĠGeÃ§miÅŁ": 10475,
  "Ġmeyve": 3436,
  "ĠÄ°Ã§erik": 9609,
  "ĠsÃ¼rÃ¼c": 8503,
  "isinden": 6217,
  "ĠCO": 3754,
  "Ġvocab": 7199,
  "ĠPop": 8124,
  "Ġnoh": 14999,
  "ĠKodlama": 12998,
  "ĠsevinÃ§le": 11182,
  "ĠuygulanmasÄ±": 7645,
  "Ġkeyifli": 5464,
  "ĠExcel": 12440,
  "diff": 9757,
  "kÃ¼t": 6824,
  "Ġyaramaz": 10675,
  "ĠTal": 10979,
  "ĠElma": 2940,
  "ĩ": 165,
  "ĠÃ§eÅŁitli": 1270,
  "Ġmark": 2665,
  "Ġsorusu": 7233,
  "ĠArtÄ±r": 12259,
  "Ġportakallar": 11595,
  "setup": 7992,
  "answer": 7229,
  "Ġĉ": 5473,
  "Ġ\"\",": 11748,
  "space": 14513,
  "ĠpaylaÅŁtÄ±lar": 14792,
  "iosity": 14844,
  "mem": 1614,
  "at": 236,
  "Ġhum": 13090,
  "ĠbÃ¼yÃ¼klÃ¼ÄŁÃ¼": 13752,
  "ĠÃĸÄŁe": 12007,
  "Ġ\"<|": 5303,
  "dro": 4419,
  "Ġtemizleme": 12369,
  "Ġtedavileri": 15415,
  "ĠYazÄ±cÄ±": 15355,
  "alim": 10277,
  "etr": 2488,
  "Ġheps": 11188,
  "ĠsÄ±rasÄ±yla": 13246,
  "Ġmerkez": 2421,
  "Ġedilebilir": 4640,
  "ĠdeÄŁiÅŁtirdi": 5655,
  "Ġkar": 338,
  "ĠYÃ¶neticisi": 12446,
  "Ġhava": 1135,
  "([": 6073,
  "leki": 14907,
  "ĠÃĩÄ±kar": 9900,
  "Ġgiyin": 10480,
  "ðŁ": 5177,
  "Ġhangisinin": 9214,
  "\"\"": 1676,
  "Ġalabilen": 15538,
  "Ġkaynaklanabilir": 13786,
  "Ġediyordu": 9064,
  "ĠdÃ¼ÅŁÃ¼ÅŁ": 6763,
  "ĠTav": 4252,
  "ineral": 5162,
  "ĠsÃ¼rÃ¼k": 9778,
  "Ġistiyoruz": 12946,
  "ĠKontrol": 8585,
  "ary": 1939,
  "ĠÃ§erÃ§evesi": 15557,
  "AV": 12525,
  "langu": 2788,
  "Ġpartisi": 7430,
  "unÃ§": 5696,
  "engi": 3002,
  "abilen": 4153,
  "ĠarkadaÅŁlarla": 10393,
  "oga": 6040,
  "ĠkiÅŁiselleÅŁtir": 15313,
  "ĠbÃ¼yÃ¼meye": 13368,
  "ĠalÄ±ÅŁkanlÄ±klarÄ±": 11197,
  "Ġyama": 14285,
  "Ġseviyelerinde": 14519,
  "ĠHipotez": 12514,
  "Ġetmesi": 8339,
  "ĠÃ¶zlÃ¼": 4021,
  "ĠparÃ§asÄ±nÄ±": 11904,
  "ĠÃ¶r": 2901,
  "Ġnok": 1267,
  "Ġokumaya": 14585,
  "ektroman": 15636,
  "ind": 1019,
  "ĠÃ¶rn": 795,
  "red": 5847,
  "Ġabar": 14969,
  "Ġdok": 2296,
  "Ġpik": 6950,
  "ĠbunlarÄ±n": 10179,
  "ĠÃ¶dÃ¼llendirici": 11607,
  "Ġbub": 15102,
  "Ġhissettir": 5899,
  "ĠayÄ±rarak": 12802,
  "Ġprojeyi": 9146,
  "Ġverici": 2955,
  "Ġsar": 4009,
  "------": 16173,
  "wh": 11686,
  "ĠHaber": 9440,
  "unuslar": 10338,
  "Ġkule": 15373,
  "layarak": 1611,
  "h": 91,
  "Ġpiyasaya": 5749,
  "ĠdepolanÄ±r": 16206,
  "attr": 5188,
  "Ġbu": 508,
  "Ġkoru": 1324,
  "ĠEkstra": 16163,
  "bab": 14891,
  "ĠÄ°ki": 1344,
  "ĠtamsayÄ±": 5819,
  "sa": 831,
  "arning": 3376,
  "ĠÃ": 381,
  "ektif": 8821,
  "ĠyasasÄ±": 10429,
  "ĠUÃ§": 6354,
  "Ġgidin": 10416,
  "poz": 9320,
  "ell": 5853,
  "gest": 8447,
  "Ġberaberinde": 14842,
  "ĠMark": 3729,
  "Ġ123": 11121,
  "Ġner": 2654,
  "Ġsoluk": 13420,
  "Ġblog": 3248,
  "ĠendÃ¼strilerde": 11906,
  "ĠalÄ±ÅŁveriÅŁe": 16286,
  "Ġprofesyoneller": 15467,
  "Ġekosistem": 4024,
  "veti": 8455,
  "ĠyapÄ±": 1186,
  "Ġtrans": 2593,
  "lanabilecek": 14269,
  "lar": 213,
  "Ġert": 15176,
  "ĠyanÄ±lgÄ±": 14115,
  "Ġseb": 12112,
  "self": 836,
  "ĠkiÅŁ": 715,
  "ĠzorluklarÄ±": 9604,
  "Ġinputs": 10193,
  "ĠÃĸnceden": 13524,
  "imdeki": 15840,
  "Ġgeri": 1121,
  "Ġdesteklemek": 5516,
  "ĠsevinÃ§": 3337,
  "uydu": 3215,
  "Ġkartal": 13680,
  "ike": 12122,
  "ulmasÄ±": 14979,
  "Bil": 9973,
  "Ġsentence": 14805,
  "siye": 3945,
  "Ġdat": 5927,
  "past": 7045,
  "Ġmisafir": 15437,
  "Ġnesnelerin": 8556,
  "lanmÄ±ÅŁtÄ±r": 3952,
  "ĠiÅŁaret": 2169,
  "Ġfinc": 6733,
  "AG": 14869,
  "Z": 77,
  "ĠsaÄŁlayacaktÄ±r": 9939,
  "Ġsebzeleri": 12853,
  "Ġdokun": 5829,
  "ĠBiliÅŁim": 16158,
  "ĠbalÄ±k": 4168,
  "tagon": 12032,
  "from": 5069,
  "ĠiÅŁlemini": 13844,
  "Ġpandem": 4564,
  "Ġprensiplerini": 14054,
  "radient": 12450,
  "ĠÃ§Ã¶l": 6729,
  "ĠKer": 15023,
  "ĠAbraham": 14165,
  "Edit": 9685,
  "anne": 15805,
  "ĠGandhi": 15708,
  "Ã¼ce": 13069,
  "Ã¶rn": 6447,
  "compatibility": 12338,
  "sili": 11301,
  "Ġkral": 4067,
  "ĠalacaÄŁÄ±m": 14809,
  "meyeceÄŁim": 12931,
  "ĠEnstit": 15244,
  "Ġrisklerin": 15305,
  "ork": 2434,
  "Ġmakine": 1600,
  "lacaÄŁÄ±nÄ±": 9995,
  "ĠgizliliÄŁi": 10125,
  "ĠÃ¶dÃ¼lleri": 12868,
  "Ġkalmaya": 6113,
  "Ġkopya": 7166,
  "ĠResim": 11605,
  "ĠÅŁeklim": 6339,
  "Ġyeniden": 913,
  "oll": 5366,
  "ĠOb": 9508,
  "ĠyÃ¶netmek": 5149,
  "lang": 6835,
  "Ġyalan": 11352,
  "ĠoluÅŁturarak": 6742,
  "pter": 6078,
  "Ġgelen": 1941,
  "Ġnefret": 11968,
  "osition": 4708,
  "Ġdeneyin": 6771,
  "Ġkah": 1749,
  "Ġposition": 9045,
  "Ġinternet": 3126,
  "Ġrestoranda": 10494,
  "Ġizliyor": 14427,
  "sim": 2068,
  "elerdeki": 13147,
  "ĠMetin": 4035,
  "ÄŁÄ±nÄ±": 765,
  "Ġrep": 6527,
  "lines": 13985,
  "sol": 10253,
  "ĠgÃ¶rÃ¼nen": 8709,
  "Ġâķĳ": 15696,
  "ĠyÃ¶ntemlerini": 9840,
  "ĠKiÅŁi": 2732,
  "ĠkÄ±t": 6084,
  "ĠÅŁarkÄ±yÄ±": 16383,
  "okado": 6738,
  "Ġsel": 5019,
  "yum": 3979,
  "Ġdinlenmek": 12474,
  "Ġverdiler": 8298,
  "tÃ¶r": 1374,
  "ĠÃ¼retkenlik": 9650,
  "Ġkaya": 8130,
  "ĠÃ§evresindeki": 13779,
  "Ã¼ndeki": 6092,
  "Ä±lmasÄ±na": 5250,
  "Ġtepki": 7697,
  "ston": 13646,
  "ĠdÃ¶ndÃ¼": 5036,
  "ĠbarÄ±ÅŁÃ§Ä±l": 13465,
  "Ġbirim": 4424,
  "ĠÃ§izgisi": 16237,
  "ĠArtan": 6557,
  "ĠQCom": 14485,
  "ebileceÄŁiniz": 16133,
  "ĠDoÄŁal": 2660,
  "ĠDenetimsiz": 16246,
  "SatÄ±r": 7589,
  "ĠsayÄ±larÄ±": 4752,
  "Ġtakv": 8713,
  "ĠÃ¶rgÃ¼t": 8026,
  "Ġailenin": 9937,
  "eÄŁini": 2879,
  "Ġverirken": 8368,
  "Ġzordur": 8884,
  "Ġyedek": 6178,
  "ĠÃ§ak": 11346,
  "Ġnavig": 6953,
  "Ġokunabilir": 10851,
  "ĠBeceriler": 15616,
  "yanus": 2657,
  "Ġlogger": 14231,
  "ĠgÃ¶rdÃ¼k": 11382,
  "ynamic": 13472,
  "ĠsayfasÄ±": 4767,
  "kanÄ±": 2729,
  "ĠsÄ±cak": 1074,
  "Ġtekn": 683,
  "ake": 7330,
  "ĠeÅŁitliÄŁi": 14576,
  "ĺ": 182,
  "Ġitibar": 7445,
  "ĠkapÄ±": 5448,
  "evrim": 1989,
  "top": 3624,
  "alat": 6502,
  "lere": 793,
  "ĠyerleÅŁtirin": 4175,
  "ĠbileÅŁenler": 11966,
  "ĠÃ¶ÄŁrenmesinin": 15107,
  "eneksel": 2260,
  "ĠTelefon": 7031,
  "ĠSadece": 3673,
  "The": 4921,
  "Ġgez": 1606,
  "name": 2056,
  "Ã¼ldÃ¼": 9081,
  "lor": 2462,
  "ĠÃ¶ÄŁren": 513,
  "ĠCor": 11776,
  "ĠZorluk": 14019,
  "ĠÃ§iÃ§ek": 3445,
  "ĠsÃ¼reÃ§te": 14554,
  "Ġbecerilere": 8953,
  "ĠÅŁiir": 1783,
  "Ä±lma": 3751,
  "ĠhissettiÄŁi": 15330,
  "Ġmalzeme": 6780,
  "Ġbot": 3576,
  "cription": 7702,
  "ĠsÃ¶zd": 7011,
  "ĠyÃ¶rÃ¼n": 9715,
  "ĠyÃ¶netilen": 11464,
  "ĠmolekÃ¼l": 4778,
  "Ġam": 3981,
  "ay": 233,
  "ĠgeliÅŁtirilmiÅŁ": 4293,
  "ĠOna": 13705,
  "ĠOpt": 13704,
  "ĠdÃ¼n": 1283,
  "Ġ($": 9777,
  "Ġyazmak": 6645,
  "ĠazaltmanÄ±n": 5093,
  "ĠeriÅŁ": 1467,
  "Ġyolunu": 4709,
  "Ġvalue": 5692,
  "raw": 5804,
  "Ġzorunlu": 12229,
  "Ã¼ller": 12673,
  "ler": 228,
  "ĠoluÅŁturulur": 8211,
  "ĠYap": 1086,
  "hay": 11286,
  "ĠOrtalama": 7560,
  "ĠortalamasÄ±": 8564,
  "Ġyasalar": 10430,
  "ĠmÃ¼ÅŁteriler": 2182,
  "Ġgr": 8649,
  "ĠalgÄ±lama": 12941,
  "ĠÃ¶nc": 1858,
  "Ġindex": 15724,
  "ĠTop": 2591,
  "ĠTac": 15915,
  "ĠyapmaktadÄ±r": 16122,
  "Ġetiketler": 15476,
  "Ġmuh": 2864,
  "land": 5698,
  "Ġtutar": 6877,
  "elerinden": 6118,
  "ede": 926,
  "ĠkulÃ¼b": 9216,
  "ĠiÅŁlemek": 6228,
  "ĠTehlike": 12038,
  "Ġuse": 4500,
  "Ġkanal": 7875,
  "ĠiÅŁ": 402,
  "---": 6983,
  "Ġkelimeye": 8324,
  "Ġtut": 1054,
  "point": 1806,
  "ĠbaÅŁladÄ±ÄŁÄ±nda": 11926,
  "ĠyerÃ§ekimi": 7447,
  "ĠWH": 6362,
  "Ġistihdam": 8518,
  "Ġbotu": 7293,
  "Ġ50": 3235,
  "ĠkullanÄ±mlarÄ±nÄ±": 15256,
  "Ġkabar": 8543,
  "kÄ±na": 11677,
  "ky": 1373,
  "ĠÃ§ekiÅŁ": 16130,
  "Ġbahset": 14587,
  "ĠbaskÄ±": 6036,
  "ĠProgramlama": 7705,
  "ĠinÃ§lik": 12012,
  "Ġlisteyi": 9097,
  "ĠuzmanlÄ±k": 11981,
  "Ġneden": 562,
  "ĠkaÃ§Ä±n": 3886,
  "ĠYenilik": 11168,
  "ĠFranklin": 12501,
  "ĠyardÄ±mÄ±yla": 8506,
  "ĠRoma": 6695,
  "io": 4186,
  "ĠOlasÄ±": 9764,
  "ĠbatÄ±yordu": 13911,
  "attention": 3469,
  "Ġmilyondan": 8391,
  "Ä±ÅŁtÄ±": 1811,
  "ĠGeze": 8426,
  "ĠgÃ¶nderildi": 16294,
  "Ġdurumunu": 5651,
  "ĠMemeli": 10501,
  "ĠFalse": 2702,
  "ĠÃ¼rÃ¼nleri": 3197,
  "Ġlayout": 3555,
  "suz": 1249,
  "edebil": 12254,
  "Ä±rÄ±": 2230,
  "ĠyazdÄ±rÄ±n": 10835,
  "ĠÃĸrnek": 7688,
  "Ġhayvan": 1173,
  "ĠForm": 15098,
  "ized": 10623,
  "ĠsÄ±fat": 2780,
  "ĠfÄ±s": 9490,
  "Ġ56": 15970,
  "sesu": 9407,
  "erik": 7465,
  "ĠTereyaÄŁÄ±": 14035,
  "memek": 11112,
  "ĠSovy": 12068,
  "lum": 5767,
  "Ä±cÄ±": 655,
  "Ġfeet": 15865,
  "ĠmÃ¼cevher": 9881,
  "la": 193,
  "Ġrekor": 14539,
  "Ġhedef": 1108,
  "uvarÄ±": 8549,
  "afir": 12182,
  "ĠHangi": 3730,
  "Module": 12484,
  "ĠfaktÃ¶rleri": 8192,
  "ĠgeÃ§ersiz": 16026,
  "Ġenfekte": 15617,
  "Ġekonomisi": 10119,
  "ukarÄ±": 5494,
  "Ġtas": 692,
  "ĠsÃ¼rekli": 2678,
  "ĠhÄ±zlÄ±ca": 4905,
  "ĠtasarlayÄ±n": 1932,
  "Ã¼yle": 5200,
  "o": 98,
  "mini": 4380,
  "Ġhorm": 14267,
  "Ġtoz": 2750,
  "asasÄ±": 5855,
  "Ġtelaff": 14823,
  "ĠCesur": 6808,
  "Ġaramaya": 12245,
  "@": 51,
  "ĠiÃ§erir": 1183,
  "ĠÄ°z": 6226,
  "ĠolaylarÄ±n": 9605,
  "ĠkullanÄ±cÄ±lar": 5318,
  "ĠÅŁekilde": 573,
  "Ġbiridir": 3788,
  "ĠKed": 12154,
  "ks": 6302,
  "Ġnehrin": 14287,
  "call": 11282,
  "ĠyÃ¶netici": 11862,
  "ĠhemÅŁ": 12307,
  "Ã¼zdan": 11746,
  "Ġhemen": 5392,
  "Ġskip": 9430,
  "mesiyle": 6825,
  "Ġuygulan": 7098,
  "tar": 790,
  "Ġrisklerini": 12811,
  "ĠÃ¼rkÃ¼tÃ¼cÃ¼": 7587,
  "ĠtasarÄ±": 8328,
  "ĲâķĲâķ": 9955,
  "tren": 5433,
  "ĠÃ¶ÄŁ": 1112,
  "abel": 5304,
  "ĠEnd": 7995,
  "siyon": 1703,
  "ĠuzaklÄ±k": 16221,
  "Ġtarif": 2023,
  "Ġhastan": 8915,
  "Ġac": 4425,
  "alaj": 11116,
  "esiyle": 2731,
  "oloji": 1197,
  "Ġsunacak": 12729,
  "Ġbaz": 4501,
  "ĠDr": 8484,
  "Ġtrendlerini": 10460,
  "ow": 1302,
  "igÃ¼r": 4062,
  "ĠdÃ¼ÅŁÃ¼nmeye": 11069,
  "('": 4875,
  "Ä±ma": 6414,
  "ĠÄ±sÄ±nmaya": 11152,
  "ĠkÄ±salt": 7381,
  "ĠFrancisco": 7180,
  "ĠatÃ¶ly": 13744,
  "Ġ</": 3077,
  "ĠkÄ±zarmÄ±ÅŁ": 13527,
  "ĠyazÄ±lÄ±mÄ±": 4760,
  "option": 6970,
  "ĠHeyec": 10323,
  "Dict": 4418,
  "Ġclass": 3537,
  "Ä±ldÄ±z": 4485,
  "ĠdÃ¼ÅŁer": 10703,
  "ĠhatalarÄ±ndan": 16242,
  "uÅŁu": 8699,
  "Ä±rak": 2231,
  "Ġa": 246,
  "Ġsessiz": 3592,
  "Ġbilgiler": 3996,
  "ĠgeliÅŁtirilir": 13764,
  "tivirÃ¼s": 12791,
  "elsius": 4580,
  "ock": 9340,
  "ĠKesinlikle": 8802,
  "ĠtÃ¼rÃ¼n": 10078,
  "({": 13555,
  "ĠyakÄ±tlara": 10466,
  "Ġtarama": 10052,
  "olly": 13107,
  "ĠMay": 11750,
  "ĠkonularÄ±": 4476,
  "Ġgirer": 9551,
  "Ã¶yle": 1148,
  "ladÄ±m": 8642,
  "ĠkavramÄ±": 6469,
  "Ġtekrar": 2031,
  "Ġmakas": 16030,
  "right": 10920,
  "ĠbanliyÃ¶": 16352,
  "14": 6074,
  "Ġreplik": 14780,
  "ĠFelsef": 9302,
  "ey": 268,
  "ĠotomatikleÅŁtirerek": 9924,
  "ĠÅŁan": 15016,
  "ĠPlajda": 13493,
  "requ": 11834,
  "Ġcm": 2454,
  "ĠiÅŁi": 5133,
  "ĠMed": 4467,
  "down": 15770,
  "ederal": 7437,
  "ĠEndiÅŁ": 15635,
  "ĠyangÄ±n": 7668,
  "ilek": 6203,
  "Ġiy": 497,
  "ĠÃ¼yeleri": 8029,
  "ĠaÄŁlar": 10722,
  "termedi": 11014,
  "ĠkasÄ±rga": 14813,
  "ĠÃ¶den": 13632,
  "progress": 5673,
  "Ġoldu": 473,
  "ĠgÃ¶Ã§men": 12457,
  "Ġvermelerine": 12165,
  "Ġhalk": 4088,
  "elere": 2511,
  "ĠsonuÃ§larÄ±nÄ±n": 11856,
  "ĠHukuk": 15930,
  "Ġpot": 10953,
  "ĠÃ¶beÄŁi": 14138,
  "ĠgÃ¶nderi": 13349,
  "ats": 3328,
  "ĠVenÃ¼s": 13160,
  "ĠOku": 7226,
  "sta": 5555,
  "idir": 2365,
  "ĠÃ¶zgÃ¼rlÃ¼ÄŁÃ¼": 9179,
  "ĠsÄ±nÄ±rlÄ±dÄ±r": 16236,
  "mask": 3113,
  "ĠÅŁirkete": 15272,
  "ĠolmasÄ±": 2366,
  "Ġistiyor": 5040,
  "ahren": 4739,
  "Ġfikirlerin": 10759,
  "ĠsÃ¶y": 1699,
  "Ali": 11268,
  "ĠgirdiÄŁinde": 15222,
  "tem": 1018,
  "ĠkÃ¶yÃ¼n": 11993,
  "ĠkÃ¶pek": 2870,
  "ĠsÄ±caklÄ±klar": 5399,
  "luÄŁuyla": 14572,
  "Ġgiren": 12747,
  "Ġtasarlamak": 8520,
  "ĠKonuÅŁ": 4492,
  "Ġheykel": 12508,
  "ere": 1995,
  "ĠAy": 588,
  "onuÃ§": 2404,
  "ĠparÃ§acÄ±": 9377,
  "alanmÄ±ÅŁ": 15315,
  "ĠÃ§izin": 14555,
  "ĠacÄ±masÄ±z": 10489,
  "Ġodaklanmaya": 13875,
  "Ġhissediyorum": 10482,
  "ader": 5367,
  "ĠuyanÄ±k": 12409,
  "ĠÃ¼rÃ¼n": 758,
  "(?": 14861,
  "Ġgetir": 773,
  "Ġokuyucunun": 15679,
  "ĠeÄŁlenc": 4037,
  "ĠmantÄ±klÄ±": 6917,
  "ĠgÃ¼ney": 15116,
  "yalarÄ±": 3534,
  "Ġharfleri": 13956,
  "ĠdÃ¶nemi": 12223,
  "Ã¼mÃ¼z": 3090,
  "ĠmÃ¼dahal": 7441,
  "ĠÃ¶ÄŁrendi": 9306,
  "ĠQGroupBox": 10564,
  "ĠGiriÅŁ": 3570,
  "Ġoldum": 8095,
  "Ġsisteminin": 4176,
  "ĠaraÃ§larÄ±nÄ±n": 15253,
  "ĠaÃ§Ä±klamak": 5308,
  "left": 14264,
  "Ġzamana": 15963,
  "ĠdoÄŁar": 12744,
  "Ġfaaliyetlerini": 12870,
  "yasÄ±nÄ±": 13068,
  "ĠpiÅŁirin": 2707,
  "ĠiÅŁletmelere": 8022,
  "Ġverirler": 14542,
  "ĠJÃ¼piter": 9968,
  "ĠilerledikÃ§e": 9217,
  "gun": 753,
  ",": 31,
  "ĠÃ¼reme": 15113,
  "ĠKuÅŁ": 4637,
  "erine": 1469,
  "ĠHarry": 5668,
  "Ġseviyeye": 15294,
  "Ä±yÄ±": 2156,
  "ĠdeÄŁiÅŁikliÄŁi": 2594,
  "Ġcerrahi": 15680,
  "Ä±lmalÄ±": 14298,
  "Ġpizza": 7762,
  "ĠgÃ¶steren": 3477,
  "ĠeksikliÄŁine": 13935,
  "ĠkazanÃ§": 13313,
  "ĠAir": 12611,
  "Ġifadeye": 9125,
  "Ġrobotun": 11132,
  "ĠsÃ¶zÃ¼": 11120,
  "tention": 2583,
  "Ġalanlar": 9537,
  "ĠbaharatlÄ±": 15621,
  "ĠiÃ§sel": 12128,
  "ĠFutbol": 11399,
  "Ġban": 3066,
  "ĠaÃ§Ä±klamaya": 9856,
  "ĠSÃ¼rekli": 11170,
  "ĠAmerika": 1648,
  "ediye": 11331,
  "oT": 7320,
  "Ġenerj": 1633,
  "ĠaÃ§Ä±": 3732,
  "ĠaraÅŁtÄ±rmasÄ±": 11485,
  "Ĺ": 181,
  "ondra": 5909,
  "isin": 14284,
  "lerine": 996,
  "ĠkarmaÅŁÄ±klÄ±ÄŁÄ±": 9141,
  "ush": 5374,
  "ĠNet": 6751,
  "Ġise": 1733,
  "ĠtÃ¼keticiler": 14597,
  "Ġmetadatas": 16042,
  "Ġatlar": 14388,
  "Ġgereklidir": 5522,
  "ĠbaÄŁlantÄ±": 1461,
  "Ġedici": 2590,
  "ser": 3207,
  "ĠbazÄ±larÄ±": 9138,
  "Ġgaranti": 9915,
  "tere": 4847,
  "ĠWil": 12265,
  "percent": 14143,
  "Ġkarakterlerin": 10750,
  "Ġcihaz": 1645,
  "ĠMÃ¼kemmel": 6435,
  "isiz": 6840,
  "Ġdizinin": 7256,
  "lamlÄ±": 14383,
  "ents": 3315,
  "ĠduyduklarÄ±": 10366,
  "tle": 9457,
  "ĠDÃ¼ÅŁÃ¼nc": 8970,
  "ĠalÄ±yor": 6637,
  "Ġkampan": 2506,
  "ital": 1734,
  "!\"": 4303,
  "Ġkaseye": 10758,
  "ĠÅŁaÅŁkÄ±n": 12905,
  "fÃ¶y": 10912,
  "Ġtada": 11714,
  "Ġhali": 9798,
  "idini": 15972,
  "ĠDo": 3990,
  ".*": 14865,
  "ĠHavuÃ§": 8419,
  "ĠyaÅŁam": 1504,
  "ĠfaydasÄ±": 4999,
  "ĠhakkÄ±": 7503,
  "ĠBur": 5424,
  "loss": 2852,
  "ĠfaktÃ¶rlÃ¼": 9382,
  "token": 1253,
  "Ġolsa": 3693,
  "Ġrast": 3869,
  "aki": 332,
  "ersini": 10686,
  "bo": 2135,
  "ĠkatÄ±lÄ±n": 7282,
  "ĠPeter": 12665,
  "um": 297,
  "ĠrÃ¼zgarÄ±n": 16289,
  "ĠiletiÅŁimde": 12773,
  "Ġkuvvettir": 15506,
  "(\"\\": 16095,
  "ĠÃĸnemli": 11553,
  "Ġmalzemeyi": 12801,
  "larla": 906,
  "ĠJos": 15146,
  "Ġkoruyan": 14754,
  "ĠZeki": 13263,
  "ĠsÄ±ralanmÄ±ÅŁ": 12790,
  "Ġipuc": 12373,
  "istil": 9299,
  "ĠgeÃ§irmez": 12327,
  "lerdir": 3277,
  "ĠkÃ¼melerinden": 13859,
  "ĠpolitikasÄ±": 8988,
  "ĠtanÄ±yabilir": 12268,
  "Ġbekliyor": 5815,
  "lÄ±ÄŁÄ±ndaki": 13838,
  "yen": 11306,
  "ĠEm": 4472,
  "Ã¼rÃ¼k": 10017,
  "ne": 1720,
  "ĠkÄ±r": 1502,
  "Ġdeneyimdi": 12761,
  "ĠBeyin": 14976,
  "Ġmutf": 3883,
  "cat": 4130,
  "ĠrÃ¼ya": 9055,
  "ĠeriÅŁebilir": 11493,
  "ĠraporlarÄ±": 14684,
  "Ġ24": 4842,
  "ĠdesteÄŁi": 5585,
  "ametr": 4792,
  "ĠpiÅŁmiÅŁ": 8002,
  "layabilirsiniz": 11491,
  "ĠyoksulluÄŁu": 12955,
  "ĠmÃ¼ÅŁterinin": 4992,
  "Ġolabil": 1820,
  "ĠgÃ¶reve": 11438,
  "ĠSonuÃ§ta": 14617,
  "ĠEylem": 9207,
  "board": 8191,
  "Ġtrendler": 11544,
  "ĠodaklÄ±": 4858,
  "Ġetik": 1895,
  "Ġoynayan": 14566,
  "ĠdolardÄ±r": 15073,
  "Ġsrc": 3862,
  "ĠSpor": 6586,
  "95": 10242,
  "ĠkÃ¼tles": 14636,
  "ĠArkadaÅŁlarla": 16322,
  "Ġerror": 10090,
  "mul": 15785,
  "Ġkons": 14424,
  "]],": 11279,
  "cim": 14200,
  "Ġrolde": 16275,
  "ohbet": 2937,
  "tÄ±labilir": 11770,
  "ĠpiÅŁ": 1553,
  "')": 8437,
  "ĠbuluÅŁma": 14052,
  "ĠgÃ¶rÃ¼yor": 13694,
  "Ġeb": 4829,
  "Ġtaraf": 745,
  "Ġtamamlan": 6367,
  "ĠOkuma": 10866,
  "Ġmiktar": 1644,
  "ĠcÃ¼m": 479,
  "elikler": 13335,
  "dÄ±ndan": 2204,
  "ĠdeÄŁiÅŁen": 5044,
  "Ġtelefonlar": 12367,
  "ĠEÄŁitimin": 14683,
  "ebil": 1080,
  "ĠÃ¶ÄŁrenim": 11405,
  "ĠDezavantaj": 13117,
  "ĠgerÃ§ekten": 3338,
  "ĠÃ§iz": 1884,
  "ĠulaÅŁabilir": 13302,
  "ĠanlamÄ±na": 2415,
  "van": 746,
  "dÄ±ÄŁÄ±nÄ±zÄ±": 13331,
  "Ġfen": 6732,
  "AT": 4457,
  "Ä°n": 6847,
  "ĠbÃ¶lmek": 14476,
  "ĠBey": 10289,
  "ĠkullanÄ±labileceÄŁine": 16297,
  "asyonel": 11843,
  "ĠgÃ¶l": 3309,
  "ĠdÃ¶k": 12416,
  "Ãľr": 9932,
  "ĠGÃ¼venlik": 6285,
  "ĠparÄ±ldar": 12035,
  "ĠVietnam": 11246,
  "Ġvermeden": 10315,
  "wo": 15794,
  "ĠkÄ±yasla": 8794,
  "util": 5859,
  "ĠmÃ¼hendis": 2663,
  "elerinin": 2795,
  "ĠÃ¶demek": 15287,
  "iran": 5689,
  "ĠbeÅŁinci": 15271,
  "ĠdoÄŁru": 689,
  "'.": 14172,
  "ĠulaÅŁ": 1300,
  "ĠAc": 8285,
  "Ġkapatmak": 9931,
  "ĠMal": 2978,
  "ĠPlaj": 7026,
  "ĠaÃ§Ä±klayÄ±n": 649,
  "ĠformlarÄ±": 15397,
  "ĠCheckpoint": 16370,
  "Ġkalb": 5204,
  "ĠbaÅŁladÄ±lar": 10146,
  "ĠalmalÄ±dÄ±r": 10317,
  "ĠdÃ¶": 3835,
  "ĠkÃ¶k": 4180,
  "emiz": 7758,
  "Ġsisteme": 15163,
  "Ġ\"#": 9282,
  "Ġfonksiyonu": 8773,
  "Ġetkinlik": 2461,
  "ĠattÄ±": 6030,
  "Ä±lÄ±m": 1014,
  "Ġdevriminin": 15423,
  "Ġes": 1508,
  "Ġdurumdur": 10385,
  "lemesine": 7082,
  "Ġyoksun": 15288,
  "ĠgÃ¶r": 388,
  "Ġikonik": 12733,
  "ĠolmadÄ±ÄŁÄ±nÄ±": 3095,
  "ĠtanÄ±ma": 2389,
  "Ġ2016": 13987,
  "addWidget": 3395,
  "ĠgÃ¶rselleÅŁtirme": 6793,
  "Ġinternete": 11178,
  "ark": 421,
  "ĠkÃ¼Ã§Ã¼k": 1084,
  "ĠKlasik": 10649,
  "ĠDayan": 7777,
  "ĠbaÄŁÄ±mlÄ±lÄ±k": 14001,
  "Ġengelleri": 9890,
  "iden": 2908,
  "Ġhay": 519,
  "ĠyansÄ±": 3058,
  "OKENS": 6296,
  "ĠalmalarÄ±na": 10977,
  "Ã¶mert": 8061,
  "ĠPazarlama": 8420,
  "ĠDevletleri": 2042,
  "ĠDalga": 11616,
  "ĠgÄ±dalar": 9384,
  "Ġalacak": 6619,
  "ĠtakÄ±mÄ±n": 8762,
  "inizde": 11830,
  "ĠÃ§Ä±tÄ±r": 8422,
  "ĠbaÄŁlantÄ±larÄ±": 16191,
  "Ä±ltÄ±sÄ±": 10187,
  "ĠÃ¶dÃ¼ller": 7866,
  "ĠOrganik": 7168,
  "Ġtarihini": 9361,
  "Mo": 8067,
  "Ġgece": 2221,
  "ĠoluÅŁtururken": 11965,
  "erindeki": 6956,
  "Ġverilerinin": 9168,
  "Ġyaprak": 3425,
  "iydi": 2452,
  "ĠgeÃ§mek": 5376,
  "ota": 7596,
  "ĠbaÅŁarÄ±larÄ±": 11872,
  "ĠdÃ¶nÃ¼ÅŁtÃ¼rÃ¼lebilir": 12304,
  "ong": 11328,
  "eÃ§miÅŁ": 9762,
  "Ġ**": 5459,
  "ĠsÄ±ralama": 5391,
  "ĠIs": 11070,
  "ĠgÃ¶zlemlemek": 13408,
  "Sample": 14882,
  "kin": 2728,
  "ĠsonuÃ§ta": 11855,
  "Ġsorununa": 11488,
  "dÃ¼ÄŁÃ¼m": 10454,
  "ĠKay": 4198,
  "ayÄ±": 474,
  "Ġdiyalog": 3856,
  "ĠsaÃ§": 4972,
  "ĠÃĸ": 668,
  "ipar": 2755,
  "Ġstring": 7104,
  "ĠCa": 10051,
  "Ġyoluna": 15117,
  "letin": 15141,
  "ĠpirinÃ§": 7763,
  "Ġpad": 8283,
  "Ġmuhtemel": 14068,
  "ĠÃ¶nemlisi": 16017,
  "ĠgeliÅŁtirilmesini": 13765,
  "Ġpencere": 10204,
  "ĠTokyo": 7588,
  "Ġbelgeyi": 12887,
  "ĠmesajlarÄ±": 14600,
  "system": 10255,
  "Ġsanki": 12754,
  "Ġtemsilc": 11932,
  "eam": 7912,
  "ĠadÄ±mdÄ±r": 13839,
  "ĠalÄ±narak": 12293,
  "tep": 13724,
  "ĠyakÄ±lmasÄ±": 7812,
  "Ġayarlama": 6265,
  "ategori": 5272,
  "ĠdeÄŁerlerin": 15192,
  "Ä±klÄ±ÄŁÄ±": 15868,
  "Ġarama": 2167,
  "ĠAB": 1473,
  "Ġmutl": 4951,
  "Ġoynama": 5970,
  "Ġmot": 2790,
  "itÃ¶r": 10016,
  "low": 3353,
  "ĠhÄ±zÄ±nÄ±": 6863,
  "Ġof": 2532,
  "Ġm": 256,
  "ĠyollarÄ±": 5871,
  "Ġhafta": 3286,
  "ĠseÃ§eneklerini": 12371,
  "6": 41,
  "ĠsimÃ¼lasyon": 14720,
  "ĠarasÄ±ndaki": 1009,
  "ĠHerhangi": 4855,
  "ĠFransÄ±zca": 10499,
  "ĠÃ¶ÄŁretmek": 8757,
  "Ġtart": 1735,
  "ĠkoÅŁtu": 5496,
  "Ġkalma": 4898,
  "ĠbÃ¼yÃ¼ÄŁ": 9084,
  "Ä±lc": 15887,
  "settings": 13264,
  "pool": 7365,
  "amaÅŁÄ±r": 9799,
  "Ġkoltuk": 11942,
  "acc": 11820,
  "ĠAÅŁÄ±rÄ±": 9644,
  "ĠiÅŁveren": 12481,
  "Ġbunlar": 8962,
  "olo": 606,
  "Ġkurut": 13211,
  "ĠistediÄŁiniz": 6382,
  "Ġnem": 10957,
  "[:": 6192,
  "full": 14899,
  "Ġpaketi": 14277,
  "ĠiÅŁler": 5565,
  "ĠEtkisi": 6898,
  "ĠgeÃ§iriyor": 13865,
  "ĠgÃ¶rev": 819,
  "Ġsit": 1130,
  "rit": 7046,
  "ĠNASA": 14168,
  "dÃ¼k": 4826,
  "ĠÃ¼Ã§gen": 5807,
  "ĠParti": 13356,
  "Ġ/": 1873,
  "gÃ¼n": 1400,
  "ume": 9277,
  "Ġuyumlu": 4744,
  "ĠBaÄŁlam": 11575,
  "ĠF": 475,
  "ĠNÃ¶tr": 12685,
  "Ġboynuz": 13015,
  "ĠkaygÄ±yÄ±": 11407,
  "Ġbilgisayarlardan": 13813,
  "Ġtaklit": 9827,
  "CD": 13560,
  "ĠayÄ±rt": 6785,
  "ĠprogramlarÄ±nÄ±": 16117,
  "Ġtoplumumuz": 14618,
  "lÄ±k": 353,
  "ĠGÃ¶kyÃ¼zÃ¼": 4530,
  "Ġduygu": 1289,
  "ĠzamanÄ±mÄ±": 15964,
  "ĠAz": 6320,
  "ĠayrÄ±ntÄ±": 4958,
  "Ġalev": 8300,
  "ĠQP": 4809,
  "Ġ}": 1605,
  "Ġazal": 663,
  "Ġir": 7599,
  "ception": 5945,
  "Ġhaklar": 9786,
  "ĠSÃ¼r": 2890,
  "samples": 5768,
  "maktadÄ±r": 1441,
  "Ġheyecanla": 12383,
  "Ġeminim": 12820,
  "ĠBaÅŁvur": 12776,
  "ĠYukarÄ±": 12651,
  "ĠdÃ¼kkan": 12045,
  "Ġfinansal": 2670,
  "instruction": 7559,
  "ĠtÃ¼rÃ¼": 1778,
  "ĠcÃ¼zdan": 13116,
  "Ġsent": 8264,
  "ĠGeliÅŁtir": 6332,
  "setR": 10100,
  "well": 14918,
  "ĠyÃ¼kleme": 10702,
  "Ġoluyor": 7938,
  "ĠDÃ¼n": 2721,
  "ulus": 11723,
  "ĠmÃ¼dahale": 10208,
  "Ġfasuly": 14103,
  "Ġhesaba": 12262,
  "â": 151,
  "Ġabon": 12129,
  "Ġyemenin": 15196,
  "Ġbireyin": 6614,
  "ĠÄ°spanya": 8410,
  "Ġmemeliler": 13515,
  "alias": 16209,
  "ĠiÅŁle": 2334,
  "ĠKasaba": 15568,
  "ĠalÄ±nmasÄ±": 6781,
  "ĠHiÃ§": 7077,
  "UL": 8441,
  "__(": 3848,
  "rin": 4827,
  "special": 5393,
  "ĠaÅŁkÄ±m": 15504,
  "Ġevlen": 12749,
  "parts": 15542,
  "ĠkeÅŁif": 4234,
  "ĠTarihi": 7712,
  "ĠKullanÄ±mÄ±": 16255,
  "ĠÃ§alÄ±ÅŁ": 641,
  "ĠtÃ¼ketimini": 5349,
  "ji": 611,
  "ync": 14065,
  "Ġpathlib": 9918,
  "ĠuygulayÄ±n": 4945,
  "ĠiÃ§eriyordu": 16002,
  "Ġdemektir": 15669,
  "Ġkamer": 8958,
  "Ġoutput": 2929,
  "ĠsalÄ±nan": 15664,
  "ĠAvantajlarÄ±": 14845,
  "ĠSu": 2410,
  "Ã¼rÃ¼l": 3446,
  "malÄ±": 2235,
  "ĠkonuÅŁmaya": 9562,
  "ĠKarar": 6038,
  "ĠÃ§Ä±karan": 15224,
  "ametre": 10190,
  "ĠSch": 15011,
  "ĠProje": 7302,
  "ĠkaÅŁÄ±": 1573,
  "ĠEkip": 13292,
  "ĠÃ§apÄ±ndaki": 13414,
  "asÃ¶z": 5026,
  "ĠkÄ±sa": 1352,
  "ĠQPushButton": 6181,
  "Ġrange": 3308,
  "ĠbaÄŁlayÄ±n": 14402,
  "ĠrastladÄ±": 9919,
  "Ġhamuru": 10822,
  "ĠÃ¶ÄŁrenmeye": 6750,
  ".'": 6299,
  "Ġsayfada": 15339,
  "Ġ28": 7954,
  "ĠÄ°yileÅŁtirilmiÅŁ": 7905,
  "Ġyemek": 1158,
  "Ġper": 1322,
  "Ġharfler": 13954,
  "ranÃ§": 9112,
  "ayla": 3773,
  "ĠyaÅŁadÄ±ÄŁÄ±": 11192,
  "ĠsÃ¶zlÃ¼k": 13873,
  "eceÄŁini": 1590,
  "Ġgezegenin": 7415,
  "po": 687,
  "ima": 13574,
  "ĠKÃ¼ba": 10650,
  "Ġistenmeyen": 12399,
  "ĠMacer": 10515,
  "Ġticari": 11991,
  "available": 11054,
  "lerdi": 6944,
  "ĠgeldiÄŁinde": 9293,
  "ced": 12538,
  "ĠartÄ±rma": 7113,
  "Ġbec": 1444,
  "esine": 949,
  "ĠcÃ¼mle": 713,
  "ĠdoÄŁ": 929,
  "etsiz": 15827,
  "elem": 6210,
  "Ġsub": 10364,
  "ĠkÄ±zartÄ±n": 15644,
  "ĠFayda": 7356,
  "Merhaba": 5605,
  "ĠÃ¶ÄŁrenciler": 5892,
  "ĠCanyon": 12997,
  "ĠJiu": 13755,
  "Ġimz": 11864,
  "Ġrad": 4590,
  "Ġids": 5670,
  "Ġburaday": 9160,
  "ĠKon": 2582,
  "ĠkÄ±rÄ±klÄ±ÄŁÄ±na": 8985,
  "Ġnakit": 8288,
  "Ġtuv": 8277,
  "nb": 15787,
  "Ġzemin": 13666,
  "ĠtÃ¼rÃ¼dÃ¼r": 3343,
  "ĠÄ±sÄ±nmanÄ±n": 5597,
  "Ġgelecekteki": 4812,
  "ĠÃ¶ÄŁesi": 14462,
  "ĠĠĠĠĠĠĠĠĠ": 6243,
  "manÄ±z": 1784,
  "ĠcÃ¼mleye": 4437,
  "ĠÄ°ngil": 2017,
  "ĠAtÄ±": 13636,
  "ĠJennifer": 15698,
  "ĠlÃ¼ks": 7314,
  "ĠgÃ¶revleri": 1921,
  "ug": 8633,
  "Ġhissetti": 4959,
  "Ġseviyeli": 15293,
  "otosentez": 5759,
  "Ġattach": 16001,
  "89": 6187,
  "Ġvermeye": 10973,
  "eknoloji": 12495,
  "ĠTa": 13687,
  "sÄ±nÄ±": 1017,
  "Ġanalizi": 2917,
  "Ġyerli": 7976,
  "padd": 14222,
  "ĠÅŁahÄ±s": 8226,
  "ĠpaylaÅŁtÄ±": 7263,
  "ĠWordPress": 15637,
  "ĠyardÄ±mÄ±": 15118,
  "ĠStr": 3409,
  "cre": 4622,
  "general": 12420,
  "Ġfiilinin": 14648,
  "ĠdÃ¼ÅŁÃ¼r": 6661,
  "mstrong": 13583,
  "othi": 7490,
  "Ġdoldur": 3201,
  "ĠÅŁiddetle": 9418,
  "Ġumutsuz": 8783,
  "Ġhisse": 3959,
  "ĠÃ§evrelerine": 9808,
  "ĠGÃ¶zleri": 14730,
  "mede": 5538,
  "Ġderin": 1526,
  "Ġrakam": 9007,
  "Ġebeveyn": 5114,
  "ĠSev": 2648,
  "ĠtÃ¼r": 695,
  "Ġdilbilgisel": 9616,
  "Ä±yorum": 1902,
  "ĠgetirmiÅŁtir": 13785,
  "Ġparmak": 9518,
  "Ġcum": 13113,
  "Ġfer": 9272,
  "Ġcerrah": 11649,
  "Ġkilit": 8398,
  "oken": 947,
  "Ġment": 7761,
  "ĠgÃ¼l": 2842,
  "ĠÃ§Ã¼nkÃ¼": 1789,
  "Ġiade": 12580,
  "ics": 7629,
  "ĠÃ§Ä±rpÄ±n": 8617,
  "bilen": 5554,
  "stik": 2373,
  "ĠiyileÅŁtirme": 8729,
  "ĠulaÅŁmalarÄ±na": 13303,
  "ĠtartÄ±ÅŁma": 3911,
  "ĠÃ¼lkelerin": 8546,
  "Ġdenge": 7805,
  "ĠdoÄŁur": 15216,
  "flasyon": 13055,
  "Ġdek": 6312,
  "ĠgeÃ§miÅŁi": 11153,
  "Ġfilmi": 5270,
  "Ġimkan": 6143,
  "Ġkullanarak": 874,
  "Ġkendilerini": 7255,
  "ĠcÃ¼mledeki": 4651,
  "Ġdefault": 6991,
  "Ġz": 314,
  "Ġriskinin": 11898,
  "ver": 1076,
  "ĠedilmiÅŁ": 4201,
  "ĠhatayÄ±": 12836,
  "ĠzorluÄŁu": 9803,
  "Ġkonudur": 14391,
  "ĠMah": 8487,
  "Ġonu": 2259,
  "elif": 3633,
  "Ġpembe": 8476,
  "Ġdurum": 1026,
  "ĠYÃ¼rÃ¼yÃ¼ÅŁ": 9671,
  "ĠyarÄ±": 4942,
  "larak": 374,
  "leÄŁ": 5023,
  "ĠtanÄ±tmaktan": 11555,
  "ault": 5066,
  "ĠSorgu": 10189,
  "Ġbetimleyici": 11645,
  "ĠartÄ±": 9491,
  "ĠortamÄ±": 6471,
  "date": 5356,
  "ĠÅŁif": 2561,
  "ĠKÄ±yÄ±": 14303,
  "ĠdeÄŁeri": 3631,
  "ĠsÃ¼rede": 3777,
  "Ġkullanabilirsiniz": 8842,
  "spin": 3342,
  "rans": 2508,
  "laÅŁmasÄ±": 9085,
  "200": 5761,
  "ĠkirliliÄŁinin": 9667,
  "Ġteslim": 4094,
  "b": 85,
  "Ġka": 2749,
  "erate": 15798,
  "Ģ": 159,
  "ĠyaratÄ±n": 10362,
  "ĠahÅŁap": 9194,
  "ĠsÃ¶zc": 7541,
  "Ġfaaliyetlerinin": 15398,
  "ĠyÃ¼ze": 8530,
  "Ġtac": 11713,
  "<|eos|>": 18,
  "Ġortaya": 1821,
  "ĠyaÅŁar": 11042,
  "ĠsalÄ±nÄ±": 10763,
  ".,": 10239,
  "Ġileri": 5711,
  "Ġkontrol": 1268,
  "Ġanalit": 9812,
  "ĠÅŁah": 5249,
  "ĠTak": 3816,
  "Ġdekorasyon": 13012,
  "onom": 1040,
  "Ġveriler": 1311,
  "Ł": 188,
  "Ġchar": 7148,
  "p": 99,
  "Ġpant": 9486,
  "ĠÃ¶nerin": 1511,
  "biyotik": 15661,
  "Ġensure": 5488,
  "ĠgeÃ§irmek": 7008,
  "ĠDengeli": 6791,
  "ĠkaynaklanÄ±r": 16062,
  "Ġmodule": 15270,
  "Ġat": 595,
  "Ġefsan": 7028,
  "router": 7787,
  "ĠDeÄŁiÅŁ": 3742,
  "ĠFord": 15966,
  "ĠkÃ¶ÅŁesinde": 14057,
  "ĠgÃ¶sterimi": 11848,
  "ĠkÄ±vrÄ±mlÄ±": 14818,
  "Ġnefes": 3463,
  "icilerin": 4644,
  "ĠkayÄ±": 2625,
  "Ã¼nÃ¼n": 1893,
  "elerdir": 14342,
  "olina": 15008,
  "ĠÄ±ÅŁÄ±ÄŁÄ±": 4074,
  "ĠÃ¶rÃ¼mcek": 13399,
  "ĠEÄŁitimde": 13986,
  "Ġder": 1309,
  "ĠkaÃ§Ä±nÄ±n": 7135,
  "ĠÅŁimÅŁek": 13965,
  "ĠsatÄ±n": 1446,
  "Ġ27": 8493,
  "\"][": 16311,
  "matÄ±": 6421,
  "sistant": 6079,
  "sonraki": 13365,
  "ĠsaÄŁlÄ±klÄ±": 1960,
  "ĠbaÅŁarÄ±nÄ±n": 11936,
  "Ġlezz": 2770,
  "Ã¼rler": 12140,
  "ĠMÃ¼cad": 13540,
  "ĠsavaÅŁ": 3225,
  "Ġtedav": 2803,
  "ĠOcak": 13703,
  "ĠSol": 7066,
  "ĠÃĩeÅŁit": 4710,
  "ĠiÃ§gÃ¶r": 6316,
  "ht": 2251,
  "Ġbana": 3210,
  "Ġunsur": 2742,
  "ĠÃ¶ÄŁret": 2142,
  "ĠaÃ§Ä±sÄ±nÄ±": 14567,
  "ĠSh": 5248,
  "ĠkayÄ±t": 3892,
  "ĠaÄŁÄ±z": 11838,
  "Ġtic": 3669,
  "state": 3605,
  "ĠyaÅŁÄ±yorum": 16033,
  "Code": 6190,
  "lemenizi": 15087,
  "lerinize": 7965,
  "Ġhaber": 2202,
  "bus": 14892,
  "luklarÄ±": 6558,
  "Ġyerleri": 9318,
  "Ġkader": 12215,
  "ney": 11294,
  "33415": 14069,
  "ĠÄ°nan": 9545,
  "evi": 6098,
  "ĠDiz": 4545,
  "ĠbaÅŁkan": 6442,
  "Ġcos": 10968,
  "rama": 11034,
  "():": 4261,
  "ster": 5556,
  "enizdeki": 14664,
  "ĠyolculuÄŁu": 5820,
  "ĠbaÄŁÄ±ÅŁÄ±klÄ±k": 14403,
  "codemind": 3973,
  "ĠyaratÄ±cÄ±": 1399,
  "Ġhayata": 8680,
  "Ġkent": 14247,
  "Ġyol": 543,
  "Ġlaboratuvar": 9445,
  "Ġpas": 4139,
  "model": 1141,
  "ĠamaÃ§lar": 7685,
  "eos": 6194,
  "Ġotor": 7605,
  "Ġhedeflere": 7997,
  "oket": 10028,
  "Ġ4": 533,
  "utils": 7310,
  "ĠRestoran": 11636,
  "Res": 6600,
  "Ġbeceriler": 2907,
  "Ġarr": 2720,
  "Ġbelirsizlik": 13174,
  "ĠDenk": 7217,
  "ĠdÃ¼ÅŁÃ¼nmeyi": 12740,
  "+\\": 9014,
  "lÄ±yor": 1979,
  "celi": 12540,
  "Ġkim": 1351,
  "ĠkitabÄ±n": 9652,
  "Ġokyanusta": 15699,
  "ĠettikÃ§e": 14753,
  "Ġ2000": 11380,
  ".[": 13032,
  "ĠÃ¶zellikle": 3676,
  "EÄŁ": 6403,
  "ĠdeÄŁiÅŁken": 4089,
  "ĠkarÅŁÄ±laÅŁtÄ±ÄŁÄ±": 14009,
  "Ġaile": 2751,
  "Ġtweet": 3813,
  "ikolat": 13016,
  "Ġhindistan": 10280,
  "Ġkarakterize": 8362,
  "Ġmaliyetini": 5587,
  "Ġetkiledi": 9818,
  "stra": 4636,
  "ĠÃ¶zelliklerin": 10386,
  "ĠartmaktadÄ±r": 16176,
  "ĠyÃ¶netic": 11465,
  "dev": 2619,
  "adÄ±m": 9736,
  "async": 15854,
  "idth": 12203,
  "ĠverimliliÄŁ": 12343,
  "ĠyapÄ±sÄ±nÄ±": 5131,
  "38": 14175,
  "ĠanlatÄ±": 8595,
  "ĠSel": 15009,
  "Ġsoyun": 16278,
  "Ġ29": 12177,
  "ĠHarikalar": 10508,
  "Tra": 7041,
  "luklar": 9554,
  "age": 2586,
  "Ġtuhaf": 5931,
  "ĠekÅŁi": 8319,
  "Window": 12083,
  "Ġgitti": 4521,
  "ĠyapmalarÄ±nÄ±": 11503,
  "eyaÄŁÄ±nÄ±": 12276,
  "setStyleSheet": 4043,
  "Ã¼ks": 10646,
  "ĠaÃ§Ä±klayÄ±cÄ±": 10681,
  "Ġhed": 4689,
  "Ġbiriktir": 4503,
  "uro": 11720,
  "=[": 14177,
  "rid": 10591,
  "ĠmanzarasÄ±nÄ±": 15551,
  "Ġkasede": 5662,
  "mÄ±yor": 10917,
  "ĠsayÄ±lar": 6868,
  "ĠyapÄ±lmasÄ±": 8489,
  "ĠSir": 10301,
  "ĠBÃ¶lÃ¼m": 11614,
  "Ġinfo": 7221,
  "Ġedebilirler": 9385,
  "Ġstok": 10434,
  "Ġ41": 15114,
  "eceÄŁimiz": 7819,
  "Ġdeney": 844,
  "ĠOda": 7957,
  "elik": 1691,
  "Ġresmin": 16155,
  "Ġelma": 2500,
  "cih": 2285,
  "ĠCev": 5034,
  "Tool": 7042,
  "ĠMÃ¼ÅŁt": 1292,
  "ĠÃ§Ä±kana": 12691,
  "Ġkans": 5772,
  "Ġ32": 6106,
  "Ġetmemize": 13511,
  "Ġtatmin": 6569,
  "ĠPat": 4547,
  "Ġartan": 1640,
  "Ġbit": 1388,
  "ĠFinans": 5203,
  "Ġdost": 2555,
  "it": 270,
  "ĠÃĸÄŁret": 6031,
  "ĠkullanÄ±lacak": 9771,
  "Ġseviyordu": 16055,
  "Ġpazarlama": 1839,
  "ĠResmi": 10844,
  "uluÄŁun": 10765,
  "ĠTasar": 10497,
  "ĠsÃ¶mÃ¼r": 13532,
  "Download": 13044,
  "bar": 3525,
  "Ġcevaplar": 11537,
  "ĠOrmanÄ±": 16188,
  "ĠeksikliÄŁi": 4182,
  "Ġmev": 4935,
  "Ġbes": 2402,
  "().": 5045,
  "ĠAÅŁaÄŁÄ±dak": 6811,
  "ĠOlimp": 13152,
  "Ġteklif": 4919,
  "Ġevler": 15223,
  "ĠAbr": 13637,
  "ĠTool": 7349,
  "nettar": 5837,
  "ĠQt": 12769,
  "Ġbelirlenmesi": 15968,
  "versit": 3617,
  "Ġpotansiyeli": 5654,
  "Ġmaden": 5254,
  "ĠorganizmanÄ±n": 10783,
  "ĠÃĩÄ±k": 3023,
  "ĠÃ¶l": 919,
  "ĠYaÅŁlÄ±": 8223,
  "ĠdavranÄ±ÅŁÄ±nÄ±": 8013,
  "ĠdoÄŁruluk": 4746,
  "Ġyapabil": 2628,
  "oft": 4772,
  "ĠÃ¼stÃ¼nde": 12832,
  "Ġazaltmak": 1579,
  "Ġpen": 8830,
  "Ġ48": 13736,
  "Ġnedeni": 4436,
  "Ġgey": 14949,
  "ĠdikiÅŁ": 13823,
  "Ġyararlanarak": 11598,
  "ĠrekabetÃ§i": 6583,
  "ĠayrÄ±ca": 1146,
  "sure": 5334,
  "ĠLÃ¼tfen": 4849,
  "ĠBÃ¼y": 1864,
  "Ġbesin": 4305,
  "OR": 9234,
  "leriyle": 1714,
  "ĠhesaplamalarÄ±": 15480,
  "Ġkolektif": 7717,
  "ĠkullanÄ±r": 1934,
  "ĠÃ§eÅŁit": 1072,
  "Ġsine": 11314,
  "ĠyarÄ±m": 13698,
  "Data": 10571,
  "ĠdaÄŁ": 3048,
  "ĠaradÄ±": 6097,
  "Ġfark": 580,
  "Ġradikal": 14031,
  "fab": 7193,
  "ĠKah": 4143,
  "55": 10894,
  "ĠdeÄŁer": 820,
  "ĠSteve": 14151,
  "ĠdÃ¼zeyde": 6587,
  "mon": 13578,
  "ĠyakÄ±nda": 7811,
  "ĠsaÄŁlayarak": 2935,
  "stream": 12721,
  "strong": 12986,
  "Ġmevsim": 5986,
  "ĠdiÄŁerlerinin": 12226,
  "ily": 8462,
  "ĠMotivasyon": 14669,
  "vik": 1239,
  "Ġezici": 13418,
  "Ġbeyan": 10511,
  "Ġez": 3274,
  "ĠÃ¼cret": 3553,
  "context": 8529,
  "StandardButton": 13550,
  "\\": 79,
  "Ġilgi": 2535,
  "vir": 5118,
  "ĠyararlanÄ±n": 11198,
  "ĠgÃ¼nlerde": 11410,
  ";": 46,
  "ĠyÃ¶netimine": 14004,
  "ĠZor": 4262,
  "ction": 2841,
  "Ġrekabeti": 14540,
  "ĠartÄ±ÅŁa": 9189,
  "label": 2141,
  "Ġarab": 3987,
  "ĠJ": 635,
  "lop": 15784,
  "Ġkitleye": 8536,
  "Ġetmenin": 5263,
  "ĠistediÄŁini": 11952,
  "off": 11960,
  "tÄ±kÃ§a": 10198,
  "larÄ±mÄ±zÄ±n": 10790,
  "ĠE": 390,
  "Ġtaht": 15233,
  "ĠyÃ¼ksekliÄŁi": 7823,
  "Ġsemptom": 11567,
  "ĠSystem": 15012,
  "ĠkayÄ±tlarÄ±nÄ±": 11593,
  "Ġdinleme": 11901,
  "olojik": 2566,
  "Ġsistemde": 14415,
  "ĠdÃ¼zenli": 1997,
  "ĠÃ¶lÃ§Ã¼sÃ¼": 11886,
  "Ġbecerilerine": 8200,
  "|>": 3601,
  "ĠgÃ¶rÃ¼ntÃ¼lemek": 10767,
  "H": 59,
  "quence": 12771,
  "ĠemisyonlarÄ±": 6691,
  "unction": 14957,
  "Margins": 11252,
  "Ġparagrafa": 16274,
  "Ġhasattr": 9577,
  "Ġkarab": 4199,
  "istan": 1493,
  "ĠuyandÄ±r": 5348,
  "Manager": 8251,
  "Ġoyununun": 13822,
  "Ġekosistemleri": 12918,
  "ĠdeyiÅŁle": 12921,
  "Ġaras": 576,
  "ĠrÃ¼zgar": 2333,
  "usunun": 12679,
  "ĠyaÄŁÄ±": 4735,
  "Ġsuyla": 11700,
  "ĠkiÅŁil": 16039,
  "ĠTic": 12172,
  "afaz": 11384,
  "orf": 12127,
  "ĠtoplumlarÄ±n": 16306,
  "ĠÃ§antasÄ±": 10548,
  "iski": 5857,
  "Ġmotivasyon": 5216,
  "Ġbiy": 2807,
  "larÄ±ndaki": 4145,
  "ĠpaylaÅŁÄ±mÄ±nÄ±": 13869,
  "ikler": 4788,
  "ĠBot": 12602,
  "tur": 2924,
  "ĠÅŁehirde": 5973,
  "Ġfikrine": 10834,
  "Ġekonom": 1335,
  "Ġak": 712,
  "ĠsÄ±ralayÄ±n": 3480,
  "Ġlistedeki": 6232,
  "Ġalfab": 7950,
  "Index": 5013,
  "ĠalmalarÄ±nÄ±": 15354,
  "Ġbor": 2900,
  "ĠKamp": 7775,
  "Ġuzaktan": 6157,
  "ĠgerektiÄŁi": 5281,
  "Ã¼y": 398,
  "ĠyazarÄ±": 9296,
  "lon": 4219,
  "iyeli": 4694,
  "uyordu": 3908,
  "ĠAn": 734,
  "Ġkart": 4469,
  "Ġforum": 11441,
  "difficulty": 10238,
  "Ġkork": 2375,
  "Ġsystem": 14940,
  "Ġdili": 4306,
  "Ġkesinlikle": 5834,
  "ĠnÃ¶ron": 8050,
  "daÅŁ": 857,
  "Ġparser": 12683,
  "kr": 12091,
  "ĠgerÃ§ekleÅŁtiÄŁi": 16082,
  "Ġbilimi": 3924,
  "ĠyapÄ±lan": 3223,
  "Ġgirdi": 2616,
  "emsi": 10622,
  "Ġorgan": 1751,
  "ponses": 14685,
  "gener": 3934,
  "ĠanlaÅŁma": 11949,
  "Ġmessa": 12788,
  "Ġhar": 630,
  "Ä±nÄ±": 276,
  "ĠMAML": 14134,
  "btn": 3015,
  "ĠYoksul": 12516,
  "ĠaraÃ§larÄ±": 3851,
  "ĠKana": 4144,
  "di": 393,
  "ĠelemanÄ±": 12376,
  "Ġduyul": 6452,
  "ĭ": 169,
  "keli": 8448,
  "ĠzorundadÄ±r": 7692,
  "ĠÃ¶ÄŁrencileri": 7679,
  "Ġatar": 10694,
  "Ġta": 6423,
  "*.": 15736,
  "ĠPoli": 7491,
  "Ġkaydedin": 14740,
  "grad": 6029,
  "pu": 1954,
  "js": 11288,
  "Ġailesine": 16329,
  "ĠAkÄ±llÄ±": 4766,
  "Ġaptal": 15846,
  "Ġmakaleye": 14460,
  "gb": 13056,
  "fun": 5684,
  "Ġgeliyor": 4083,
  "Ġespr": 15300,
  "lÃ¼ÄŁÃ¼ne": 10465,
  "ĠDÃ¼zen": 3272,
  "Ġbeden": 9251,
  "ptom": 11073,
  "pp": 2643,
  "lamasÄ±": 2934,
  "Ġalabilirler": 11998,
  "Ġcall": 14307,
  "ĠplanlamasÄ±": 12753,
  "OS": 11277,
  "Ġkremsi": 13304,
  "Ġakademik": 9102,
  "ĠKor": 3606,
  "Ġtablonun": 15255,
  "eceÄŁimi": 11056,
  "Ġ2020": 3454,
  "cÄ±nÄ±n": 2416,
  "ĠKanguru": 15026,
  "ĠÃ§ar": 2580,
  "Ġgezegen": 3462,
  "ĠpekiÅŁtir": 10555,
  "ilim": 2859,
  "ĠNehir": 8316,
  "Ġperiyodik": 12301,
  "ĠdetaylarÄ±": 11177,
  "ilebileceÄŁi": 16070,
  "ÅŁÄ±": 575,
  "ĠalanÄ±nÄ±n": 13781,
  "Muh": 15750,
  "ĠEtik": 6745,
  "Ġkurulumu": 10464,
  "Ġsebep": 14838,
  "ĠOr": 1437,
  "Ã¼yÃ¼k": 12184,
  "ĠPart": 14350,
  "Ġgitmeyi": 11889,
  "gro": 2874,
  "ĠÃ§alÄ±ÅŁmalarÄ±nÄ±": 12809,
  "uÅŁak": 11049,
  "ĠyapabileceÄŁi": 8387,
  "Ġkonferans": 7446,
  "ĠÃ¶y": 9723,
  "Ġdetay": 3086,
  "Ġso": 2194,
  "Ġtokenizer": 3827,
  "Ġindir": 3801,
  "log": 1004,
  "Di": 8246,
  "ĠDost": 13669,
  "lement": 11774,
  "Ġkalitesini": 5897,
  "Ġsahibinin": 13482,
  "Ġgidip": 14820,
  "ĠÃ§Ã¶zÃ¼mleri": 7259,
  "ĠsayÄ±dÄ±r": 13237,
  "Ġargs": 6797,
  "Ġbekleniyor": 11134,
  "ĠsaÄŁlarlar": 7836,
  "ĠPara": 4020,
  "tic": 3842,
  "ĠRÃ¼zgarÄ±n": 14702,
  "ĠkÃ¼t": 2760,
  "ĠKorku": 8407,
  "ible": 10325,
  "ĠBay": 5699,
  "ĠFabrika": 12675,
  "ĠParalel": 16266,
  "ĠOluÅŁtur": 7727,
  ")'": 13556,
  "Ġliderlik": 10185,
  "ĠÄ°nsanlarÄ±n": 7540,
  "Ġservet": 14467,
  "Ġmahsul": 9921,
  "ĠuygulamadÄ±r": 12735,
  "-------": 13301,
  "ĠiÅŁÃ§": 5944,
  "ail": 14886,
  "Ġincelemesi": 10519,
  "Ġvaz": 6205,
  "Ġfitness": 8415,
  "ĠsaÄŁ": 387,
  "ĠGÃ¶z": 4795,
  "ĠSte": 11357,
  "Ġhafiflet": 7014,
  "ĠJohn": 1288,
  "Ä±s": 585,
  "ĠSovyetler": 14148,
  "ĠdÃ¼zenini": 16050,
  "ĠoluÅŁturulabilir": 9749,
  "ĠdeÄŁerli": 2781,
  "lÃ¼ÄŁe": 16314,
  "ĠÅŁeylerden": 16098,
  "eyi": 555,
  "Ġetmesine": 7242,
  "ĠuzunluÄŁu": 7118,
  "ated": 5483,
  "ForCausalLM": 11633,
  "ĠTy": 13130,
  "Ġhepimiz": 14002,
  "din": 8446,
  "ĠnoktayÄ±": 12860,
  "ĠbÃ¼yÃ¼mesi": 8939,
  "ĠNef": 11790,
  "hat": 1545,
  "Ġticareti": 14713,
  "ĠdalÄ±": 7051,
  "ĠzamanlÄ±": 4317,
  "etnam": 10937,
  "Ġtraj": 9893,
  "24": 7449,
  "ĠsaÄŁlÄ±k": 896,
  "Ġtersine": 5905,
  "ĠGarson": 14806,
  "u": 104,
  "out": 1196,
  "izim": 5189,
  "ĠSilah": 12962,
  "adaki": 6844,
  "ÅŁtÄ±k": 5247,
  "Ġsunarlar": 13905,
  "usunda": 15969,
  "ĠSalat": 15879,
  "ĠtatlÄ±": 3080,
  "tika": 2652,
  "Ġdoluydu": 4400,
  "ĠaÅŁÄ±": 9482,
  "ĠcanlandÄ±r": 8394,
  "ĠKo": 5428,
  "Ġ195": 12300,
  "ĠBasketbol": 14110,
  "Ġpes": 7340,
  "ĠbaÅŁarÄ±": 1179,
  "ĠyazÄ±": 2821,
  "Ġdinlenme": 8738,
  "Ġsaati": 12322,
  "ĠcÃ¼mlesi": 3876,
  "ÄŁa": 3795,
  "embeddings": 5910,
  "ĠÃ§ekirdek": 6589,
  "maÅŁÄ±k": 1421,
  "ĠyaÄŁ": 1522,
  "ĠÃ¼rÃ¼nÃ¼n": 3704,
  "arÄ±msaÄŁÄ±": 13336,
  "Not": 15751,
  "Ġkarde": 13123,
  "ĠKÄ±z": 4741,
  "ĠAdÄ±m": 2712,
  "ĠYÃ¼k": 2621,
  "ĠsÃ¶n": 10607,
  "ĠÃ§arpÄ±mÄ±": 14644,
  "ĠNor": 10059,
  "ĠÃ§ant": 7609,
  "Ġmek": 2470,
  "etli": 2059,
  "Ã¼f": 2058,
  "ĠPasif": 8231,
  "ĠtaÅŁÄ±ma": 3523,
  "diÄŁimiz": 10072,
  "iyorsa": 15985,
  "if": 505,
  "ĠAÅŁÄ±lar": 15656,
  "ĠkaÃ§Ä±nmak": 6918,
  "ĠkolaylaÅŁtÄ±rabilir": 16344,
  "Ġlitre": 15120,
  "ĠtemasÄ±": 5737,
  "izers": 11724,
  "erson": 9783,
  "ĠyÃ¼rÃ¼tmek": 13992,
  "tokol": 5758,
  "ĠbirÃ§ok": 1030,
  "ayabilirler": 14959,
  "Ġdengesi": 14379,
  "ĠgÃ¼rÃ¼ltÃ¼": 8977,
  "anya": 9465,
  "ĠTr": 5715,
  "Ġhizmeti": 2549,
  "ĠgÃ¶revler": 3929,
  "ĠrobotlarÄ±n": 7861,
  "ĠUz": 2170,
  "bel": 8443,
  "Ġrole": 11922,
  "Ä±z": 389,
  "language": 3271,
  "ĠMevcut": 4509,
  "Ġticaret": 4415,
  "Ġuzun": 1025,
  "Ġbitkisel": 14659,
  "ĠiÅŁlerini": 9759,
  "Ġman": 1445,
  "Ġhack": 11325,
  "ĠYÃ¶n": 3193,
  "Ġdomates": 3902,
  "Ã¼m": 293,
  "ĠkarÄ±ÅŁÄ±klÄ±k": 15904,
  "ĠduygularÄ±nÄ±": 7671,
  "ĠgÃ¶revi": 3199,
  "ĠyÃ¶ntemi": 5456,
  "ĠKÃ¶": 2062,
  "Ġlistesine": 16014,
  "lemeleri": 14359,
  "Ġolabilirler": 5441,
  "iyon": 7941,
  "Ġgetirecek": 13783,
  "Ġfaaliyetlerinden": 13927,
  "ĠDizi": 9061,
  "ĠBaÄŁlantÄ±": 8780,
  "inler": 3155,
  "ĠKardeÅŁ": 14487,
  "Ġmah": 4018,
  "Ġpan": 4506,
  "ĠÃĸz": 2183,
  "Ġold": 11727,
  "Ġizinsiz": 14509,
  "48": 8064,
  "®": 125,
  "iÄŁin": 4891,
  "-]": 14864,
  "ĠgÃ¼ncelleme": 12378,
  "eytinyaÄŁÄ±": 4302,
  "ĠdÃ¼ÅŁÃ¼k": 1915,
  "ĠCSS": 6649,
  "Ġ23": 6104,
  "ĠgerÃ§eÄŁe": 15572,
  "ĠteÅŁvikler": 7000,
  "ĠÅŁekil": 534,
  "Ġyetkil": 15589,
  "ĠgÃ¼Ã§lÃ¼": 1180,
  "ĠGr": 6965,
  "Ġpap": 9485,
  "Ġnadir": 7615,
  "ĠBaÄŁÄ±msÄ±zlÄ±k": 12987,
  "ĠdÃ¼zenledi": 16053,
  "Ġbildirimler": 11948,
  "ĠtemalarÄ±": 14468,
  "header": 13397,
  "Ġdahili": 13870,
  "ĠadÄ±mlarÄ±nÄ±": 14490,
  "ĠadÄ±mlarÄ±n": 12772,
  "teacher": 7800,
  "Ġtiyat": 14261,
  "Ġkombinasyon": 5757,
  "Ġcihazlar": 4863,
  "isp": 10014,
  "lÄ±dÄ±rlar": 14435,
  "ĠkardiyovaskÃ¼ler": 11254,
  "Ġgereksinimleri": 12938,
  "ĠimkansÄ±z": 8616,
  "Ġyaban": 2667,
  "ĠZeka": 2838,
  "laÅŁtÄ±k": 6938,
  "parametr": 12851,
  "ĠkÃ¼meleme": 9844,
  "ĠaÄŁÄ±n": 8890,
  "Ġkampanyalar": 15559,
  "Ġpatates": 4563,
  "Ġov": 15824,
  "erick": 11734,
  "ios": 12548,
  "ĠarÄ±yor": 8101,
  "adapt": 16199,
  "ĠsÃ¶zcÃ¼k": 8240,
  "ĠseÃ§mek": 8889,
  "ĠÃ§aÄŁÄ±r": 9397,
  "Ġkelimesini": 5641,
  "bileceÄŁi": 6095,
  "Ã§isi": 12108,
  "Ġkibar": 14816,
  "feri": 10583,
  "ĠSandal": 12031,
  "layacak": 3453,
  "Ġsunarak": 6667,
  "ĠunutmayÄ±n": 8775,
  "ĠGÃ¼neÅŁ": 1726,
  "[\"": 2988,
  "Ġboyut": 2505,
  "ĠavÄ±": 14643,
  "ĠĠĠĠĠ": 3951,
  "ĠAvrupa": 3397,
  "with": 14917,
  "2021": 9851,
  "Ãĩ": 3528,
  "~": 113,
  "Ġenfeksiyon": 10868,
  "ruf": 2132,
  "ĠÅŁey": 904,
  "azarÄ±": 12634,
  "ĠMatematik": 7586,
  "Ġcilt": 15891,
  "und": 3278,
  "Ġtime": 12121,
  "ĠÄ°Ã§eri": 8379,
  "eturn": 888,
  "ĠplanÄ±": 2690,
  "ĠElon": 13320,
  "ilerde": 8308,
  "s": 102,
  "ĠkarlÄ±": 11752,
  "ĠBÃ¼tÃ§": 14093,
  "alty": 10278,
  "Ġsonunu": 10687,
  "tiya": 1058,
  "cy": 9025,
  "ĠkÃ¶tÃ¼ye": 9222,
  "ĠdÃ¼zeltme": 12003,
  "ult": 2146,
  "Ã¶tr": 5693,
  "ĠgÃ¶rÃ¼ntÃ¼leme": 8009,
  "ĠÃĩeÅŁitlilik": 14037,
  "meler": 1740,
  "ese": 15836,
  "ĠLou": 15151,
  "ĠbelirteÃ§": 11548,
  "crip": 3373,
  "Ġbelirlen": 9773,
  "ĠEÄŁer": 3825,
  "Ġbelirley": 9082,
  "Ġah": 4248,
  "Ad": 5682,
  "Ġdevasa": 9573,
  "ĠÃĩiÃ§ek": 9311,
  "ĠgÃ¼ven": 704,
  "Ġserisi": 9350,
  "art": 1184,
  "ĠtutarlÄ±": 4907,
  "vaz": 12560,
  "config": 1519,
  "ĠdÃ¶kÃ¼n": 5980,
  "ĠYÃ¶ntem": 13413,
  "lak": 1125,
  "maliz": 5288,
  "ĠetkinliÄŁi": 6682,
  "Ä±stÄ±k": 8242,
  "Ġprotein": 5286,
  "ĠsÄ±caklÄ±klarÄ±": 12341,
  "mik": 7594,
  "lÃ¼l": 7456,
  "ĠverimliliÄŁi": 4409,
  "._": 1463,
  "Ġadr": 5313,
  "Ġgevr": 15821,
  "larÄ±nÄ±zÄ±": 4171,
  "ĠMetnin": 9606,
  "Ġistatistik": 8992,
  "Ġharfi": 9098,
  "ĠSuÃ§": 11539,
  "Ġkonuya": 11032,
  "ĠdeÄŁiÅŁ": 822,
  "ĠgÃ¶sterge": 15218,
  "Ġmax": 2335,
  "Ġkira": 8363,
  "ĠsÃ¶zleri": 11911,
  "isyen": 12467,
  "ĠÃ¼stÃ¼n": 8932,
  "Tuple": 15761,
  "Message": 5115,
  "Ġverin": 787,
  "oÄŁr": 1542,
  "ĠbirleÅŁtirin": 6478,
  "Ġhiyer": 10007,
  "erseniz": 11012,
  "Ġsitesinde": 13826,
  "Ġstabil": 13612,
  "Ġgenelinde": 3686,
  "Ġnereye": 8388,
  "Ä±ldar": 15888,
  "ĠÃ¶zellikleri": 2885,
  "ĠveritabanÄ±": 4618,
  "ĠZek": 10099,
  "ĠEl": 1550,
  "mayÄ±": 922,
  "Ġmadd": 5167,
  "Ġmetafor": 3055,
  "ĠÄ°htiyaÃ§": 13500,
  "ĠColumn": 9512,
  "ilmemiÅŁ": 13185,
  "Ġboyun": 1481,
  "ĠGe": 11374,
  "Ġmutluluk": 3853,
  "Ġmuam": 9886,
  "ĠTrainer": 14775,
  "ĠgÃ¶lg": 6806,
  "ĠÃĸÄŁle": 7435,
  "ĠsÃ¼rdÃ¼r": 1974,
  "ĠtÃ¼rlerini": 5503,
  "ĠGÃ¼nÃ¼": 9750,
  "ĠYapay": 1331,
  "adata": 3697,
  "ĠÃ¶lÃ¼mcÃ¼l": 11572,
  "alan": 1748,
  "ĠkÃ¶tÃ¼leÅŁtir": 16228,
  "Ġtuvalet": 12485,
  "azar": 1230,
  "imler": 6090,
  "ĠgÃ¶nderin": 11520,
  "Ġsosyal": 1449,
  "Ä±ÅŁÄ±": 1240,
  "ĠKÃ¼ltÃ¼rel": 14825,
  "Ġkariy": 10031,
  "akar": 10614,
  "ĠbaÅŁarÄ±yÄ±": 13361,
  "ĠiÃ§indeki": 4583,
  "ĠSaman": 14293,
  "lanmasÄ±na": 10284,
  "ĠAvantaj": 12612,
  "ĠseÃ§enek": 2399,
  "okratik": 9406,
  "larÄ±mÄ±za": 12865,
  "ĠdeÄŁerlendirmek": 4522,
  "Ġalay": 11332,
  "Ġharita": 8984,
  "Ġdurumunda": 5960,
  "Ġmodeller": 10106,
  "th": 1066,
  "ĠJuli": 4920,
  "Ġaktivit": 3082,
  "elen": 2236,
  "ĠHikayesi": 13960,
  "larÄ±nda": 1386,
  "ĠGu": 12170,
  "ĠgÃ¶rÃ¼ntÃ¼": 1869,
  "ĠSus": 10961,
  "elim": 574,
  "*(": 12074,
  "ĠHava": 3127,
  "ace": 3666,
  "Ġsonucu": 3781,
  "ĠseÃ§meli": 11832,
  "Ġyelp": 3648,
  "ĠsÃ¶ylÃ¼yor": 10235,
  "oruma": 7544,
  "ses": 3832,
  "ĠINT": 15214,
  "metadata": 5729,
  "yerinde": 6411,
  "Ġer": 772,
  "cpu": 9979,
  "ĠÄ°nsanlar": 3522,
  "Ġderec": 2384,
  "ĠBat": 15847,
  "-": 32,
  "ĠSi": 5785,
  "Ġrengini": 14149,
  "ul": 251,
  "ĠUzay": 6794,
  "ĠsatÄ±rÄ±": 10470,
  "YÄ±ldÄ±zlÄ±": 14843,
  "Ġx": 1559,
  "ĠBeklenmedik": 13019,
  "izasyon": 8094,
  "ndex": 4818,
  "liy": 942,
  "Ġdize": 5184,
  "Ġsegmentasyonu": 15584,
  "Ġbecerilerin": 13923,
  "ĠiÃ§ermelidir": 2563,
  "\">": 4532,
  "nums": 10444,
  "dÄ±ktan": 5743,
  "ĠHaklarÄ±": 15066,
  "ĠAlÄ±ÅŁver": 8059,
  "ĠoluÅŁturmanÄ±n": 10663,
  "mer": 1070,
  "vur": 3227,
  "ĠÅŁu": 3750,
  "oloj": 796,
  "Ġseviyor": 5379,
  "Ã§larÄ±": 3019,
  "N": 65,
  "Ġkritik": 8172,
  "uluk": 1237,
  "eet": 7592,
  "alar": 1810,
  "ĠMayÄ±s": 10891,
  "Ġetmenizi": 13795,
  "ĠkoÅŁullarÄ±na": 9620,
  "ĠalÄ±ÅŁkan": 4363,
  "ĠÃ§ekin": 7832,
  "Ġedil": 2753,
  "Ġteps": 7557,
  "ĠHTML": 3941,
  "ĠhesabÄ±": 10732,
  "ĠdiÄŁerleri": 8695,
  "tek": 13588,
  "ĠScott": 10562,
  "Ġbet": 10601,
  "13": 8805,
  "ĠÅŁifre": 5902,
  "ĠziyaretÃ§": 16299,
  "Ġmay": 6336,
  "Ġkuru": 4515,
  "Ġyerin": 7752,
  "ĠMas": 7780,
  "amb": 15002,
  "elli": 13613,
  "Ġide": 13082,
  "___": 13235,
  "ĠDoÄŁrudan": 16365,
  "Ġkuzey": 14249,
  "ĠÃ§ekici": 2528,
  "Ġkromozom": 14850,
  "ĠkorkunÃ§": 6579,
  "Ġbul": 435,
  "Ġkimya": 12782,
  "elerindeki": 13209,
  "Ġgetirerek": 7106,
  "ĠTamam": 7722,
  "utf": 6960,
  "sizlik": 3057,
  "Ġformatted": 14011,
  "ĠJavaScript": 5168,
  "Ä±dÄ±r": 3466,
  "udi": 11683,
  "Ġesinti": 7725,
  "Ġkuv": 3327,
  "ĠFiil": 7585,
  "Ġpotansiyel": 1226,
  "Ġortam": 1903,
  "Ġmu": 2489,
  "ĠdÃ¼ÅŁman": 8327,
  "ĠgÃ¼Ã§lendirir": 15515,
  "gÃ¼nÃ¼m": 16185,
  "ĠdokunuÅŁ": 14854,
  "85": 12077,
  "ĠÃ¼retimi": 5449,
  "ĠzayÄ±f": 4638,
  "ĠkÃ¼resel": 1753,
  "Ġtopluluklar": 15537,
  "ĠsÃ¼relerini": 15971,
  "aha": 331,
  "luÄŁa": 7862,
  "ath": 1117,
  "Ġtopluluk": 4911,
  "ĠsimÃ¼le": 14719,
  "ĠÃĩek": 8877,
  "ĠÃ§evirin": 2962,
  "Ä±ntÄ±": 2343,
  "Ġtavsiye": 4610,
  "bil": 269,
  "ĠÃ§ekirdeÄŁ": 11206,
  "Ġfelsef": 8287,
  "Ġetmeye": 2513,
  "bert": 8568,
  "ĠÅŀah": 12251,
  "Ġdi": 3812,
  "ens": 1646,
  "ĠYenilikÃ§i": 14827,
  "olu": 6734,
  "Ġtedarik": 8944,
  "ĠmaÄŁaz": 1787,
  "Ġcheck": 11931,
  "ĠdeÄŁiÅŁt": 9761,
  "Ġyeten": 1756,
  "Ġsiteleri": 6776,
  "Ġgarip": 5171,
  "ĠkahvaltÄ±": 8008,
  "ĠPas": 6337,
  "Ġverilen": 2039,
  "ĠÃ¶nyargÄ±lÄ±": 13442,
  "ĠDos": 15895,
  "ĠyanÄ±": 3772,
  ".)": 5415,
  "ĠsayfanÄ±n": 12839,
  "can": 5764,
  "ĠgeliÅŁtirici": 11819,
  "memiÅŁti": 12810,
  "ĠbÃ¼yÃ¼dÃ¼": 11579,
  "yolu": 14705,
  "emit": 11335,
  "ĠtÃ¼keticilerin": 15359,
  "Ã¼n": 257,
  "ĠkÃ¶peÄŁin": 8986,
  "ade": 716,
  "ĠmaaÅŁ": 6969,
  "dip": 11765,
  "Ġzamandan": 8501,
  "Ġolduk": 3075,
  "Ġbaharat": 7442,
  "ĠÃ§Ä±lgÄ±n": 12134,
  "rarÄ±": 14912,
  "ĠSayÄ±larÄ±n": 12919,
  "setEn": 9552,
  "CÃ¼m": 6711,
  "ĠUygu": 3484,
  "ĠÄ±lÄ±man": 15727,
  "ĠHakk": 10985,
  "eks": 4787,
  "ĠkeÅŁfettiler": 11110,
  "Ġifadeyi": 2884,
  "es": 237,
  "ĠgÃ¼zellik": 6518,
  "Ġorganize": 11506,
  "Ġverilerden": 4759,
  "ï¸ı": 13595,
  "re": 810,
  "Ġhidro": 6294,
  "Ġ120": 15029,
  "ĠkoÅŁu": 8004,
  "Ġansw": 12158,
  "Ġsam": 13076,
  "ĠiniÅŁ": 10669,
  "Ġrut": 4977,
  "Ġihlali": 13268,
  "ĠSalÄ±": 13108,
  "ĠTahmin": 8801,
  "ĠyÃ¼kselmesine": 12333,
  "5": 40,
  "ĠKonf": 12381,
  "Ã¼mkÃ¼n": 2079,
  "pe": 1567,
  "Ġbulma": 4147,
  "ĠdÃ¼ny": 1922,
  "Ġ1000": 8844,
  "ĠÄ±ÅŁÄ±ÄŁÄ±n": 13933,
  "Ġpeynir": 5346,
  "ĠÄ°ÅŁbirliÄŁi": 11634,
  "Ġkoord": 8140,
  "Ġodak": 1218,
  "ĠdoÄŁrusal": 6545,
  "ĠhastalÄ±klar": 11938,
  "dun": 5290,
  "meyen": 2710,
  "Ġhij": 14265,
  "ĠÄ±r": 8458,
  "Ġday": 2948,
  "Ġaza": 7801,
  "postalar": 11891,
  "Ġ2021": 6996,
  "orld": 12599,
  "Ġritim": 10963,
  "aseb": 6091,
  "lanabilen": 12595,
  "Ġproj": 1767,
  "ĠBaÅŁarÄ±": 2681,
  "liyor": 3514,
  "ĠÃ¼lkenin": 4210,
  "ĠÃ¶zerk": 13713,
  "Ġatmosf": 5279,
  "Ġsapma": 15622,
  "ĠgeÃ§miÅŁini": 13926,
  "Ġteker": 11005,
  "ĠsÄ±rasÄ±nÄ±": 14436,
  "Ĭ": 168,
  "Ġalmak": 1701,
  "arm": 12109,
  "Ġhisset": 1909,
  "Ġolmayabilir": 12899,
  "Ã¼rlÃ¼k": 6524,
  "ĠtanÄ±nabilir": 13170,
  "antin": 11866,
  "Ġikisi": 3200,
  "Ġyenilg": 14725,
  "ĠmÃ¼zeyi": 16254,
  "ĠdoÄŁrudan": 3220,
  "Ġkomut": 6375,
  "ndeki": 5239,
  "AÅŁaÄŁÄ±daki": 10897,
  "ĠMerkezi": 9004,
  "ĠhalkÄ±": 9529,
  "ĠBu": 386,
  "ĠNÃ¶r": 11791,
  "By": 13042,
  "ĠtereddÃ¼t": 11865,
  "ĠÃ§alÄ±ÅŁtÄ±lar": 16334,
  "Ġolmaz": 13218,
  "caÄŁÄ±m": 4612,
  "iÅŁim": 684,
  "05": 10565,
  "ĠyaptÄ±ÄŁÄ±mÄ±z": 16295,
  "Ġteklifler": 12443,
  "ĠdonmuÅŁ": 13386,
  "ĠbaÅŁlÄ±ÄŁÄ±nÄ±": 12188,
  "ekonomik": 12582,
  "ĠsaÄŁlÄ±ÄŁÄ±": 3872,
  "Ġindirmek": 15489,
  "oby": 16113,
  "ĠtakÄ±m": 2272,
  "ĠPandemi": 11228,
  "eld": 5479,
  "say": 3441,
  "ĠarasÄ±": 9310,
  "ĠbÄ±rakarak": 14606,
  "ausal": 8071,
  "ĠÃ¼lk": 1200,
  "ĠbaÅŁarÄ±sÄ±z": 6146,
  "Ġproblem": 1624,
  "Ġuygulamalar": 4064,
  "ĠHast": 14332,
  "Ġkus": 9468,
  "Ġalmaktan": 13866,
  "ĠKomik": 15552,
  "Ben": 7730,
  "ĠaralarÄ±ndaki": 10720,
  "Ġcount": 9496,
  "Ġkimyasal": 3685,
  "Ġyaymak": 12263,
  "Ġolanlara": 12669,
  "ĠharcamalarÄ±": 7881,
  "Ġkoruma": 3300,
  "Ġyana": 6833,
  "vey": 14228,
  "ĠÃ¶ÄŁrencilere": 5893,
  "dar": 4165,
  "Ġsum": 6939,
  "ĠsÄ±nÄ±flandÄ±rma": 4527,
  "Ġsantral": 13271,
  "Ġnavigasyon": 8619,
  "Ġanimasyon": 11624,
  "load": 1669,
  "Ġcesur": 2999,
  "ĠeriÅŁmelerine": 9139,
  "ĠdanÄ±ÅŁ": 6514,
  "Ġvideolar": 8389,
  "ĠĠĠĠĠĠĠĠĠĠĠĠ": 2957,
  "Ġsistemdir": 15164,
  ")\",": 6401,
  "ĠpahalÄ±": 4541,
  "Ġteriminin": 13453,
  "Ġunutulmaz": 7156,
  "se": 594,
  "Ġolacaklar": 16177,
  "larm": 13615,
  "ĠatÄ±ÅŁtÄ±rmalÄ±klar": 9655,
  "Oyun": 15752,
  "ĠardÄ±ÅŁÄ±k": 10232,
  "Ġodaklanma": 8929,
  "ĠCihaz": 15710,
  "ĠÄ±s": 2011,
  "Ġhayati": 8894,
  "ĠkanÄ±tlarÄ±": 15453,
  "Ġsevg": 8151,
  "Ġnehirler": 16377,
  "ĠsaygÄ±lÄ±": 10733,
  "states": 3351,
  "RO": 4679,
  "ĠdaÄŁÄ±t": 3691,
  "Ġekibi": 13733,
  "Ġtext": 2758,
  "ĠyapÄ±sÄ±dÄ±r": 15518,
  "atlÄ±": 14961,
  "Ġgir": 943,
  "ĠEx": 4798,
  "anti": 9466,
  "tacak": 13691,
  "bek": 14888,
  "Ġemir": 6556,
  "cÄ±nÄ±": 4075,
  "Ġgirdisi": 13989,
  "ĠÃľrÃ¼nÃ¼mÃ¼z": 11165,
  "Ġadam": 1924,
  "ĠTw": 5305,
  "lemeye": 5867,
  "gÃ¶z": 14905,
  "ĠGÃ¼Ã§lÃ¼": 5012,
  "ĠbakÄ±n": 9550,
  "ĠVejetaryen": 10791,
  "Ġkorumaya": 5814,
  "Ġmahal": 14007,
  "ion": 1095,
  "Â°": 2267,
  "tool": 8522,
  "ĠPeyn": 8311,
  "ĠGeorge": 6707,
  "Ġyoksulluk": 8795,
  "ÄŁÄ±mda": 8212,
  "NS": 14880,
  "ĠBig": 10620,
  "ĠdeÄŁerini": 4394,
  "ĠgÃ¶rÃ¼ntÃ¼leri": 7267,
  "Ġhesab": 6994,
  "eket": 1150,
  ".]": 14173,
  "ĠÃ¼Ã§": 750,
  "ĠuÄŁramÄ±ÅŁ": 14013,
  "lav": 5613,
  "ĠBaÅŁlangÄ±Ã§": 7257,
  "ĠHerkes": 5532,
  "liÄŁinden": 12200,
  "ĠAynÄ±": 5437,
  "act": 5504,
  "Ġkelimeleri": 2360,
  "Ġmain": 7628,
  "ĠoluÅŁtur": 351,
  "lÃ¼k": 1241,
  "Ġ1969": 14737,
  "ĠčĊ": 10258,
  "ĠyÄ±llarda": 6554,
  "ĠTeknoloji": 2827,
  "Ã¼ÅŁtÃ¼r": 1286,
  "Ġolmakla": 13801,
  "Ġ60": 6454,
  "ĠgÃ¶tÃ¼r": 5708,
  "pro": 2538,
  "ĠRezerv": 15140,
  "rop": 4349,
  "ĠdalgalarÄ±n": 11186,
  "exper": 7281,
  "Ġelektron": 14562,
  "ĠanlamamÄ±za": 14534,
  "ĠhastalarÄ±n": 10178,
  "ĠolaÄŁanÃ¼stÃ¼": 8126,
  "Ġloaded": 10839,
  "âķ": 5017,
  "ĠJack": 5207,
  "order": 10286,
  "enc": 2992,
  "ĠsÃ¼rÃ¼": 12202,
  "ĠSQL": 7342,
  "ilit": 14934,
  "Ä±lan": 1883,
  "Ġedilmesini": 8771,
  "Ġemin": 1764,
  "KÃ¶": 14878,
  "ĠpoÅŁet": 15677,
  "Ġnadiren": 12995,
  "tokens": 2741,
  "ĠbileÅŁenini": 13944,
  "verc": 9128,
  "ĠyÄ±ldÄ±zlar": 6380,
  "ĠaynÄ±": 1293,
  "ĠkimliÄŁini": 10749,
  "ĠÃ¶t": 4934,
  "Ġprompt": 6815,
  "Ġprojeye": 16224,
  "sul": 4136,
  "ĠaÄŁlarÄ±": 5262,
  "ĠÄ°m": 6966,
  "Ġplanlamak": 16120,
  "ĠiÅŁbirliÄŁini": 8947,
  "ĠÃ§oÄŁ": 3797,
  "Ġpost": 6622,
  "edeki": 2546,
  "leyici": 2155,
  "ĠHe": 13135,
  "Ġpiyas": 2344,
  "ĠkÄ±zart": 8570,
  "Ġolgu": 13633,
  "ĠsorumluluÄŁ": 14107,
  "Ġisteyen": 4804,
  "ĠyazÄ±mÄ±": 15943,
  "ĠbaÄŁÄ±mlÄ±": 3914,
  "TH": 13568,
  "tik": 1315,
  "Ġsunuyoruz": 16075,
  "Ġverecek": 13125,
  "loader": 10423,
  "Ġhayvanlar": 3880,
  "ĠkartlarÄ±": 9928,
  "ĠyÃ¼kÃ¼m": 13760,
  "Ġsk": 5994,
  "Ġbiriktirmek": 14027,
  "Ġbeyin": 8460,
  "ĠhaftalÄ±k": 12060,
  "Ġdenk": 2254,
  "Ġparalel": 10683,
  "ĠValue": 7958,
  "Ġdown": 9758,
  "Ġuygulamak": 4850,
  "ĠsÄ±caklÄ±kta": 11518,
  "ĠDeneyim": 14769,
  "ĠDerin": 3107,
  "pretra": 13855,
  "lib": 6838,
  "ĠTaze": 7625,
  "ĠÃ¶zgeÃ§miÅŁ": 10145,
  "Ġkok": 3719,
  "ĠDÃ¶nÃ¼ÅŁtÃ¼r": 14729,
  "buffer": 13549,
  "ĠMak": 1384,
  "Ġthat": 5997,
  "Ġ150": 9871,
  "Ġprofil": 7407,
  "ĠnÃ¼fusa": 8961,
  "lender": 11766,
  "ĠĠĠĠĠĠĠĠĠĠĠĠĠĠ": 16342,
  "Ġanda": 3800,
  "Ġkredi": 5218,
  "sum": 9987,
  "ĠÃĸÄŁrenme": 6472,
  "ĠMalzemeler": 4274,
  "Ġbilin": 2216,
  "ĠBugÃ¼n": 2979,
  "dialog": 10331,
  "ĠbÃ¼y": 501,
  "Ġ'": 1077,
  "ĠCon": 4844,
  "inans": 1596,
  "ĠiÅŁlemci": 10405,
  "Ġtarihte": 15301,
  "ĠgÃ¶rÃ¼le": 12181,
  "erÃ§ek": 2773,
  "tuned": 11251,
  "replace": 12477,
  "ĠtarzÄ±": 3817,
  "ĠtakÄ±ma": 12280,
  "ĠkÄ±zÄ±n": 14590,
  "Ġbize": 3834,
  "ĠYak": 3216,
  "ĠBaÅŁkan": 5453,
  "Ã¼rk": 14995,
  "ĠPi": 13154,
  "ĠÃ§Ã¶zÃ¼m": 1301,
  "ĠyapmayÄ±": 4056,
  "onav": 6212,
  "pon": 3600,
  "ĠOut": 12186,
  "ĠbaÅŁvurusu": 12412,
  "ĠÃĸÄŁren": 1952,
  "ĠanlaÅŁmaz": 9389,
  "utucu": 6631,
  "ia": 4218,
  "ĠsadÄ±k": 4367,
  "ĠYetenek": 14073,
  "Ġmisin": 7419,
  "Ġgen": 495,
  "ĠÄ°ÅŁbir": 8355,
  "ilmeyen": 15982,
  "ĠKi": 15022,
  "Ġeseri": 8364,
  "ĠyaÄŁÄ±ÅŁ": 6680,
  "yabilir": 7611,
  "Ã¼ÅŁÃ¼m": 9080,
  "ĠyapÄ±sal": 15670,
  "ĠtanÄ±dÄ±k": 12267,
  "abilecekleri": 9404,
  "Ġmerkezinde": 11144,
  "ĠNew": 2941,
  "ĠÅŁamp": 15880,
  "ĠuÃ§": 1660,
  "ĠCumhuriyeti": 15659,
  "Ġbenzet": 10736,
  "float": 8627,
  "Ã©": 8080,
  "Ġbellek": 5634,
  "iyeti": 5092,
  "ĠÃĸzellikle": 10446,
  "ayet": 6315,
  "ĠinÅŁaat": 13966,
  "ĠÄ±ÅŁÄ±klarÄ±": 11139,
  "ĠBorsa": 12039,
  "py": 10589,
  "Ġgizemli": 3224,
  "zeme": 6200,
  "Ġduruma": 12724,
  "Ġderinlemesine": 10415,
  "Ġkimse": 7131,
  "ĠormanÄ±n": 4800,
  "Lay": 4377,
  "Ġbeslen": 5974,
  "ĠelemanlarÄ±yla": 15547,
  "Ġgereksinim": 4848,
  "ledi": 3626,
  "ĠakÄ±l": 6765,
  "leyebiliriz": 14665,
  "esli": 10282,
  "Ġsenedi": 4811,
  "ĠaÄŁaÃ§larÄ±n": 6895,
  "ĠAray": 10103,
  "ĠÄ°ngiliz": 2442,
  "uzur": 2355,
  "ĠgÃ¶ÄŁÃ¼s": 13507,
  "ĠaldÄ±m": 5030,
  "ĠAltÄ±n": 7535,
  "ida": 9689,
  "Ä±lÄ±ÅŁÄ±": 5041,
  "ĠaralÄ±klarla": 15643,
  "ĠmedyayÄ±": 13849,
  "ĠIzgara": 10883,
  "thread": 6559,
  "Ġederken": 5265,
  "dem": 15767,
  "ĠtanÄ±tan": 13274,
  "Ġbilgileri": 3165,
  "ĠmalÄ±n": 14484,
  "Ġedemez": 15054,
  "ĠmotorlarÄ±": 12924,
  "avan": 3074,
  "Ġarmat": 15872,
  "irken": 4733,
  "del": 11283,
  "ansal": 10342,
  "ĠgÃ¶zetim": 11478,
  "leyebilir": 3254,
  "ĠbazÄ±": 1380,
  "ĠtÃ¼rde": 8145,
  "ĠbÃ¼tÃ§": 4867,
  "ĠÃ¶neri": 6641,
  "Ġtakdir": 3168,
  "Cur": 10570,
  "Ġkey": 1780,
  "Ġulus": 3621,
  "eyecek": 12615,
  "ĠkaygÄ±": 7635,
  "âķĲâķĲâķĲâķ": 15729,
  "Ġasistan": 3261,
  "Ã¶portaj": 13009,
  "haba": 2497,
  "ĠHÄ±zlÄ±ca": 9405,
  "Ġkeskin": 4524,
  "erobik": 8643,
  "hidden": 3504,
  "ĠgeliÅŁtirebilir": 9324,
  "Ġpainter": 11344,
  "ĠcihazdÄ±r": 13329,
  "ĠTas": 3538,
  "ĠsonrasÄ±": 9633,
  "sever": 7459,
  "Ġbirbir": 1906,
  "Ġkahraman": 3912,
  "II": 11658,
  "Ġparagrafta": 13362,
  "ĠyatÄ±rÄ±mÄ±": 11902,
  "ĠHÄ±z": 3281,
  "Ġod": 8650,
  "Ġhaberdar": 11136,
  "ĠJe": 12702,
  "Ġdataclass": 12022,
  "ĠhakkÄ±nda": 653,
  "ĠÃľrÃ¼nÃ¼": 12356,
  "ĠolasÄ±lÄ±ÄŁÄ±nÄ±": 8003,
  "Ġhab": 1828,
  "ĠSoÄŁan": 10509,
  "Ġsosu": 6613,
  "Â²": 9248,
  "ĠolduklarÄ±nÄ±": 9183,
  "ĠbuzdolabÄ±nda": 15702,
  "CI": 14872,
  "Ġgrub": 5676,
  "ĠsÃ¼rÃ¼cÃ¼": 5869,
  "ĠbitiÅŁ": 11096,
  "ĠUyum": 15349,
  "ĠSorun": 8215,
  "Ġotur": 3913,
  "ĠfÄ±r": 1063,
  "Ġaylar": 15084,
  "Ġtabs": 15254,
  "larÄ±": 284,
  "ĠalmasÄ±na": 8665,
  "aklarÄ±": 5777,
  "Ġhediye": 6810,
  "ĠFit": 8677,
  "TP": 7040,
  "ĠHeyecan": 13020,
  "lÄ±ÄŁÄ±nÄ±n": 5813,
  "Ġkodlama": 6468,
  ")": 28,
  "ografik": 7298,
  "ĠdoÄŁayÄ±": 15217,
  "ĠReact": 10850,
  "Ġtavsiyeler": 8417,
  "Ġsertif": 14466,
  "ĠyÃ¶ntemidir": 13852,
  "send": 9246,
  "abilmesi": 13814,
  "ĠKategori": 6325,
  "isiklet": 3535,
  "ĠÃ¼nlem": 14568,
  "Ġroller": 13903,
  "ĠolmaktÄ±r": 12253,
  "ĠkaÄŁÄ±dÄ±": 10606,
  "y": 108,
  "ĠKÃ¼p": 11745,
  "ĠdeÄŁiÅŁiklik": 2084,
  "ĠGenÃ§ler": 15573,
  "Ġmanuel": 4810,
  "ador": 10652,
  "bility": 8478,
  "Ġ//": 4408,
  "aman": 438,
  "ĠÃ¶f": 6621,
  "AS": 6500,
  "ĠArkadaÅŁÄ±m": 15408,
  "ĠAlÄ±ÅŁ": 7584,
  "layalÄ±m": 13658,
  "ĠmÃ¼dah": 5273,
  "ĠsunmayÄ±": 16071,
  "Ġbarda": 1838,
  "ĠMerkez": 7149,
  "Ġharflerle": 15428,
  "lÄ±ca": 13094,
  "mana": 2603,
  "rag": 12700,
  "Ġborder": 4128,
  "ĠmÃ¼hend": 2330,
  "que": 8911,
  "ĠÃ§alÄ±ÅŁÄ±r": 2320,
  "Ġlisteye": 14393,
  "Ġverimlilik": 5159,
  "amic": 12622,
  "ĠiPhone": 5064,
  "ĠkazandÄ±rÄ±r": 15594,
  "ĠgerÃ§eÄŁi": 8613,
  "ĠKur": 2817,
  "ĠgenÃ§lerin": 11519,
  "Ġdepolanan": 11109,
  "ider": 11004,
  "ilable": 10913,
  "Ġdevre": 15571,
  "Ġbilimci": 12813,
  "Ġk": 207,
  "Ä±ndÄ±k": 6416,
  "ĠUluslararasÄ±": 7886,
  "leÅŁtirilmiÅŁ": 2482,
  "ĠNep": 13729,
  "ĠfÄ±rtÄ±nalar": 13464,
  "Ġmis": 3050,
  "ĠÅŁeklini": 6165,
  "Ġverildi": 10314,
  "ĠemisyonlarÄ±nÄ±": 4366,
  "ĠbaÄŁÄ±r": 9527,
  "Ġyuvarlak": 6595,
  "Åŀ": 840,
  "clicked": 9958,
  "Ġmaym": 12969,
  "ili": 539,
  "ĠiÅŁlemlerini": 7673,
  "Ġbenzeri": 5096,
  "kitap": 13057,
  "Ġyiyecekleri": 7548,
  "Ġsonuca": 9330,
  "ĠHafif": 8229,
  "ulan": 4188,
  "ĠtasarlanmÄ±ÅŁtÄ±r": 5261,
  "ĠanlatÄ±n": 14676,
  "Ġ(": 486,
  "ĠgerÃ§ekÃ§i": 5647,
  "Ġdes": 1788,
  "ĠdÃ¶nÃ¼ÅŁÃ¼": 13957,
  "Ġprotokolleri": 13481,
  "ileri": 623,
  "abÄ±": 2327,
  "ĠÃ§evr": 759,
  "Ġmakineleri": 10166,
  "ĠCPU": 11779,
  "ĠON": 15944,
  "Ġtasar": 762,
  "ĠulaÅŁmak": 3565,
  "ĠCÃ¼mleyi": 3169,
  "ĠcevaplayÄ±n": 9611,
  "aboliz": 9747,
  "poch": 5310,
  "Ġ________": 13597,
  "ĠKendinizi": 13975,
  "EO": 8247,
  "ĠDÃ¼zenleme": 13973,
  "Ġpotansiyele": 10117,
  "masÄ±ndan": 7636,
  "ĠkÃ¼Ã§": 10266,
  "ĠCas": 15090,
  "ĠPortakal": 5201,
  "ĠkayalÄ±k": 14377,
  "75": 4824,
  "Ġtra": 2776,
  "ĠkÃ¼Ã§Ã¼ktÃ¼r": 14459,
  "Ġbez": 9996,
  "Ġkomp": 12817,
  "max": 2610,
  "Ġsaatleri": 10757,
  "Ã¼ltÃ¼r": 1791,
  "Ġdizenin": 10398,
  "ĠStrate": 9906,
  "ĠSÃ¼t": 9274,
  "ĠmantÄ±k": 5411,
  "ĠgÃ¶rÃ¼ntÃ¼ler": 12824,
  "Ġdeneyiminiz": 14464,
  "diye": 9452,
  "ĠdÃ¶n": 680,
  "Ġsonucunda": 12424,
  "ĠMant": 13676,
  "Ġcazibe": 11229,
  "ĠsÃ¼recinin": 9843,
  "ĠNewton": 9398,
  "ĠkaplayÄ±n": 12743,
  "Ġzeka": 1064,
  "ĠÄ°sim": 5631,
  "Ġfile": 6951,
  "trol": 1201,
  "ĠgÃ¶": 311,
  "Ġdengeli": 6977,
  "Ġteknolojidir": 12822,
  "ĠVeriler": 11016,
  "ĠolduÄŁunca": 8234,
  "ĠkarÄ±ÅŁ": 3232,
  "Ġkremi": 10118,
  "ĠihtiyaÃ§larÄ±na": 5455,
  "ĠkaynaklarÄ±nÄ±": 4653,
  "ĠIspan": 12741,
  "ĠantrenÃ¶r": 15575,
  "Ġerozyon": 10877,
  "ĠKapsamlÄ±": 12070,
  "ĠÃ§alÄ±ÅŁanlar": 8936,
  "anÄ±": 674,
  "Ġhikayelerini": 9547,
  "Ġotorite": 14798,
  "ĠPopÃ¼ler": 9959,
  "ĠkarÄ±ÅŁÄ±mÄ±": 7158,
  "Ġevine": 7523,
  "metadatas": 16028,
  "ÄŁÄ±r": 10931,
  "ĠÅŁ": 296,
  "Ġhedefleme": 12278,
  "Ġkip": 13074,
  "ĠkÃ¼melerini": 8365,
  "ĠgeliÅŁmeler": 9149,
  "Ġbilgisayar": 1005,
  "ĠAlgorit": 4118,
  "ĠaÃ§Ä±s": 2014,
  "Ġredd": 6843,
  "ĠgeÃ§tik": 15155,
  "ĠAnay": 6985,
  "ĠÃ§alan": 14988,
  "ĠÅŁÃ¼pheli": 7577,
  "ĠolduÄŁum": 10345,
  "ĠÃ§oÄŁalt": 14690,
  "ĠtasarÄ±mÄ±nÄ±n": 16290,
  "Ġkristal": 9356,
  "ĠpiÅŁirme": 7025,
  "Ġkas": 1655,
  "yasÄ±": 4278,
  "ĠteÅŁh": 16107,
  "ĠyaratÄ±yor": 13767,
  "sÄ±ndan": 11300,
  "ĠTeÅŁvik": 15597,
  "Ġmakinesi": 8946,
  "-----": 12296,
  "ĠModern": 7164,
  "pinBox": 9421,
  "Ġparka": 10474,
  "ĠyÃ¶ntemlerle": 15290,
  "ĠsaÄŁlÄ±ÄŁÄ±nÄ±": 6537,
  "ĠKanada": 4185,
  "ĠMor": 8295,
  "ĠbarÄ±ÅŁ": 5320,
  "pi": 7597,
  "Ġseg": 5338,
  "En": 4045,
  "ĠcÃ¼mleler": 13952,
  "ĠParis": 5748,
  "Ġtim": 13086,
  "Ġpsik": 6093,
  "ĠsuÃ§lu": 10472,
  "ĠSav": 2288,
  "ĠGeleneksel": 7406,
  "Ġharcama": 7565,
  "Ġbeklem": 12784,
  "Ġolmayan": 1935,
  "ĠbaÅŁkent": 8605,
  "ĠyapÄ±lmalÄ±dÄ±r": 13683,
  "ĠgeliÅŁtirdi": 10359,
  "ĠBizi": 10944,
  "0000": 13222,
  "Ġyetenekli": 9170,
  "ĠKoruma": 9057,
  "ĠkuruluÅŁ": 5057,
  "Ġanahtar": 2649,
  "ĠKarÄ±": 15024,
  "ori": 3724,
  "ĠparkÄ±": 11729,
  "âĸ": 5920,
  "Ġhayvanlara": 15260,
  "ashington": 7163,
  "ĠalÄ±p": 9752,
  "ED": 6820,
  "ĠkabuÄŁ": 13285,
  "ĠyapÄ±ya": 9352,
  "usunu": 5798,
  "Ġoptimize": 2640,
  "Ġkendini": 3564,
  "Ġkokusu": 8036,
  "ĠAuto": 12136,
  "Ġistatistiksel": 9426,
  "akespe": 9040,
  "okr": 3815,
  "ĠparagrafÄ±n": 11523,
  "Ġkurulum": 11158,
  "ĠGÃ¶revleri": 8216,
  "labalÄ±k": 4950,
  "us": 482,
  "Ġmavi": 2701,
  "Ġfiyatlar": 8923,
  "AD": 12080,
  "gui": 14357,
  "ilerin": 744,
  "ino": 5991,
  "Ġaktiviteleri": 11571,
  "ĠDikkat": 7167,
  "ĠKÃ¶pek": 3502,
  "ĠsÄ±nÄ±f": 876,
  "ĠÃ§alÄ±ÅŁmasÄ±nÄ±": 10700,
  "Ġdestekli": 3357,
  "yanust": 11825,
  "ĠgÃ¶stermiÅŁtir": 11452,
  "ĠBana": 4100,
  "ĠpaylaÅŁan": 16226,
  "dent": 3629,
  "Ġrapor": 3597,
  "Ġaraz": 11735,
  "ick": 4435,
  "ĠYardÄ±m": 8949,
  "ĠyakÄ±t": 2637,
  "yim": 14229,
  "ĠyaklaÅŁ": 1329,
  "ĠartÄ±ÅŁÄ±": 7842,
  "ĠsaÄŁlam": 4254,
  "Ġkin": 14935,
  "ategor": 1581,
  "ĠuygulamasÄ±dÄ±r": 12911,
  "yol": 4277,
  "orker": 9883,
  "Ġkoyun": 5495,
  "ĠkapatÄ±n": 8342,
  "urken": 5999,
  "Learning": 14811,
  "ĠBaÄŁ": 3161,
  "Ġduyulan": 11829,
  "WS": 14194,
  "uments": 14295,
  "Ġbulmak": 2101,
  "ula": 5687,
  "ĠYanlÄ±ÅŁ": 5560,
  "Ġayakk": 5465,
  "ĠtavÄ±r": 13862,
  "Ġrend": 6957,
  "Ġberab": 12460,
  "ĠAlice": 4102,
  "ift": 1867,
  "yken": 10594,
  "Ġizi": 15180,
  "jen": 3063,
  "Ġinti": 15921,
  "kulu": 8073,
  "caÄŁÄ±": 3896,
  "ĠOrmansÄ±z": 14042,
  "lÄ±klarÄ±nÄ±": 3871,
  "Ġroman": 2708,
  "ĠÃ¶zetleme": 10113,
  "sinim": 4453,
  "rek": 4628,
  "con": 960,
  "ĠÃ§abalarÄ±": 14623,
  "ĠMÃ¼ÅŁterilerin": 9437,
  "ĠkullanÄ±larak": 3755,
  "yazar": 10630,
  "way": 9991,
  "Ġkendisi": 11085,
  "ĠAÄŁlarÄ±": 13382,
  "ĠÃ§ocukluk": 10435,
  "Ġyasama": 14547,
  "Ã§i": 863,
  "memize": 6467,
  "Ġcez": 3727,
  "ĠTah": 6220,
  "ĠhayÄ±rsever": 12459,
  "eder": 4632,
  "ĠyaÅŁ": 685,
  "iyer": 3670,
  "__':": 16060,
  "Ġveriyor": 7782,
  "lantÄ±": 1190,
  "connect": 5880,
  "Ġmahk": 8039,
  "manÄ±": 4107,
  "ĠolduklarÄ±ndan": 16353,
  "Ġciv": 13665,
  "Ġvitamin": 7719,
  "ĠJava": 3114,
  "ĠÃ¶nlemleri": 7154,
  "ĠzamanÄ±n": 8127,
  "[\\": 14196,
  "ĠhalkÄ±n": 9530,
  "odel": 647,
  "Ġtur": 2611,
  "ĠSÄ±nÄ±rlÄ±": 9949,
  "ĠAsya": 6275,
  "ĠRobert": 8798,
  "Ġkurtarma": 12912,
  "ten": 870,
  "abet": 2895,
  "Ġmarket": 6278,
  "ĠfazlasÄ±nÄ±": 9326,
  "Ġgerekecektir": 15131,
  "ĠayrÄ±ÅŁtÄ±r": 14692,
  "Point": 15756,
  "anmÄ±ÅŁ": 3084,
  "Ġkolesterol": 14801,
  "Ġkup": 10001,
  "ĠÃ¼zerin": 760,
  "ĠTalimat": 7485,
  "ĠkanÄ±tlar": 13409,
  "Ġmentor": 9678,
  "ĠÃ¼lkesi": 10394,
  "Ġadan": 13096,
  "Ġyollar": 6025,
  "ĠromanÄ±n": 12346,
  "ehri": 5039,
  "Į": 170,
  "ĠkarÅŁÄ±laÅŁ": 4354,
  "ĠtamamlayÄ±n": 7261,
  "ĠgÃ¶rÃ¼ÅŁleri": 11122,
  "ĠverdiÄŁini": 15907,
  "ĠhÃ¼crenin": 11987,
  "ĠipuÃ§": 9612,
  "ĠHayal": 8723,
  "ĠtalimatlarÄ±": 8020,
  "ĠEdeb": 11383,
  "ĠkaÅŁ": 10265,
  "ĠsÄ±kÄ±ntÄ±": 16152,
  "sub": 8812,
  "ĠAPI": 5842,
  "ildiÄŁ": 1123,
  "asyon": 895,
  "Ã¼stÃ¼": 2348,
  "ĠgerÃ§ek": 858,
  "Ġoynayarak": 13884,
  "Ġisteksiz": 14711,
  "ĠbasÄ±n": 4908,
  "Ġkalitesi": 5968,
  "ĠdeÄŁiÅŁim": 4392,
  "Ġmasa": 4316,
  "ĠsoÄŁ": 1799,
  "Ġsunucusu": 16356,
  "ĠTemsilcisi": 12487,
  "ĠiÃ§in": 248,
  "anta": 6308,
  "Ġsofistike": 8058,
  "etay": 2812,
  "Ã¼nden": 3983,
  "ĠTaÅŁÄ±": 8118,
  "Ġhuzur": 2578,
  "ĠPolon": 13157,
  "For": 8249,
  "ka": 637,
  "gil": 1482,
  "Ġgeliri": 12783,
  "Ã¶rdÃ¼ncÃ¼": 11801,
  "ĠtanÄ±dÄ±": 8907,
  "Ġteknolojileri": 6363,
  "ĠsalgÄ±n": 14541,
  "ĠYÃ¶net": 5060,
  "Ġeti": 10644,
  "uÅŁ": 752,
  "ĠtereyaÄŁÄ±": 4235,
  "ĠPand": 6540,
  "Ġanalizini": 13829,
  "ĠkÃ¶": 915,
  "avdar": 11379,
  "ĠSeyahat": 8102,
  "lamb": 5638,
  "ĠsÄ±nÄ±flandÄ±rÄ±n": 1500,
  "ÄŁren": 477,
  "burg": 10861,
  "ĠÅŀirketler": 8942,
  "Ġelementin": 14025,
  "Ġcin": 12632,
  "ice": 2345,
  "}\\": 7742,
  "gr": 572,
  "ĠMuharebesi": 15730,
  "inde": 460,
  "ĠPath": 3993,
  "ls": 9239,
  "ĠaltÄ±n": 4265,
  "oda": 12555,
  "ĠHer": 1042,
  "layabilir": 1432,
  "baz": 14890,
  "ĠyukarÄ±": 7328,
  "Ġarazi": 8656,
  "ĠsipariÅŁi": 12511,
  "ĠtarafÄ±nda": 8697,
  "ĠbÃ¶lÃ¼mÃ¼": 7562,
  "wi": 15793,
  "Ġturu": 16313,
  "aÄŁa": 3837,
  "Ġyap": 341,
  "Ġparlak": 2044,
  "ĠtanÄ±mlayan": 3316,
  "ĠKale": 13900,
  "cess": 7911,
  "ĠÃ§alÄ±ÅŁÄ±rlar": 9877,
  "part": 5016,
  "Ġkirlet": 5394,
  "ĠÄ±slak": 12838,
  "%": 24,
  "qrt": 15722,
  "Ġbalina": 13974,
  "G": 58,
  "ĠÅŁeydir": 8704,
  "ĠÃ¶rneÄŁi": 1418,
  "ĠMaÄŁaz": 4873,
  "Ġedebil": 4232,
  "Ġonur": 13770,
  "ĠiyileÅŁ": 9305,
  "Ã¼nde": 1692,
  "ĠkuralÄ±": 12214,
  "ĠsÄ±z": 5544,
  "ĠatÄ±ldÄ±": 16000,
  "ĠsÃ¼rece": 10340,
  "Ġgiden": 10613,
  "ĠDestek": 7344,
  "Ġkelimelerin": 5567,
  "Ġejderha": 7165,
  "¡": 114,
  "Ġbur": 2252,
  "ĠdaÄŁÄ±tÄ±m": 13434,
  "Ã¼klerin": 15020,
  "ĠdÃ¼ÅŁÃ¼nmek": 7990,
  "Ġihtiyac": 3318,
  ")):": 9970,
  "Ġ@": 4926,
  "ĠparÄ±ldayan": 12983,
  "Ä°": 372,
  "Ġpriz": 13832,
  "sanÄ±z": 5138,
  "Ġoda": 3649,
  "ĠBunun": 6426,
  "Ġneler": 2072,
  "olve": 15007,
  "gan": 1192,
  "Ġsaatlik": 14533,
  "ĠyaratÄ±ktÄ±r": 15429,
  "ĠAg": 6623,
  "ĠÃ§or": 13102,
  "ernet": 13882,
  "eleriyle": 5794,
  "Ġsu": 732,
  "Ġmatematik": 3185,
  "ĠtanÄ±mlanÄ±r": 11050,
  "utton": 2968,
  "ĠEndÃ¼stri": 15611,
  "gÄ±yÄ±": 7593,
  "frac": 14205,
  "Ĩ": 164,
  "ĠalÄ±nmasÄ±na": 14491,
  "Ġkop": 4971,
  "Ġterap": 6560,
  "ĠsÄ±k": 1175,
  "Ġinstruction": 15592,
  "ĠRut": 10697,
  "ĠEb": 10328,
  "format": 11067,
  "Ġetob": 15883,
  "labilir": 703,
  "9": 44,
  "Ġolgun": 7206,
  "ĠmÃ¼c": 2394,
  "ĠetkileÅŁ": 1419,
  "Ġkuvveti": 8966,
  "Ġkolek": 4769,
  "ĠTarlas": 11962,
  "ĠtemizliÄŁi": 16292,
  "ĠRus": 7972,
  "ĠyolculuÄŁunun": 16357,
  "ĠBirkaÃ§": 5710,
  "66": 10895,
  "ĠkaldÄ±rma": 16323,
  "ĠDuygu": 6706,
  "ĠyÄ±lÄ±n": 7238,
  "ĠAylÄ±k": 15132,
  "ĠÅŀimdiki": 12927,
  "Ġpaket": 3984,
  "melerini": 4133,
  "ĠÅŁehre": 10485,
  "Ġgelir": 1354,
  "Ġsiv": 14588,
  "mesi": 1107,
  "ĠaÃ§Ä±n": 7627,
  "ĠgÃ¶revde": 7239,
  "Ġkalitede": 15325,
  "Ġkullanabilirler": 9054,
  "ĠaÃ§Ä±klamasÄ±": 5519,
  "ĠyayÄ±n": 2871,
  "Ġnesneler": 8555,
  "Ã¼cr": 2033,
  "atar": 15835,
  "Ġselam": 7696,
  "ĠMilli": 4964,
  "gor": 711,
  "Ġenerjik": 9142,
  "lis": 14273,
  "Ġos": 9476,
  "ĠÃ§ocuklara": 10766,
  "Ġstat": 7855,
  "AdÄ±nÄ±z": 8797,
  "ĠtanÄ±yarak": 7882,
  "ĠfiyatlÄ±": 7677,
  "Ġsenary": 4124,
  "ĠfÄ±stÄ±k": 11351,
  "ĠGrup": 8490,
  "tif": 1693,
  "ove": 10251,
  "ĠMart": 8296,
  "Ġrollerini": 16277,
  "Ġtahminler": 4092,
  "dÃ¼m": 5355,
  "ĠkoÅŁmayÄ±": 16217,
  "emeleri": 15850,
  "Ġart": 1330,
  "ĠKalp": 9381,
  "Ġ45": 6446,
  "Ġlogo": 4822,
  "logger": 2558,
  "ĠÄ°nterneti": 11446,
  "d": 87,
  "aj": 1758,
  "mand": 12660,
  "umanÄ±n": 8103,
  "Ġmuhaseb": 8392,
  "Ġvurgulayan": 11150,
  "ĠanlaÅŁÄ±lmasÄ±": 7409,
  "ĠÃ§Ä±ktÄ±sÄ±": 4948,
  "Ġkelimesiyle": 12218,
  "postasÄ±": 16193,
  "ĠtavayÄ±": 13326,
  "ĠBal": 7057,
  "ĠiÅŁletm": 2959,
  "Ġkavram": 1649,
  "Ġkoruyarak": 6926,
  "Ġth": 8090,
  "ĠsÃ¼releri": 11401,
  "ĠYol": 2952,
  "Ġyorumlar": 12379,
  "nÄ±": 1142,
  "Ġstres": 3705,
  "anlÄ±ÄŁÄ±": 9467,
  "Ġdeneyimler": 5883,
  "ĠgerektiÄŁine": 15341,
  "ĠNil": 14375,
  "ĠHip": 6642,
  "Ġuz": 656,
  "ĠdaÄŁÄ±tÄ±cÄ±": 7569,
  "Ġtropikal": 13087,
  "ĠyasalarÄ±": 11511,
  "ĠAgent": 10862,
  "lali": 12104,
  "ĠÃ§alÄ±ÅŁÄ±rken": 5830,
  "setV": 7116,
  "ulty": 7757,
  "tivasyonu": 14515,
  "Ġhissedebil": 15482,
  "Ġettikleri": 10530,
  "Ġbecer": 2530,
  "ĠkolaydÄ±r": 7994,
  "ĠBirleÅŁ": 1654,
  "ĠMandela": 13456,
  "Ġnelerdir": 2342,
  "ĠÃ¼rper": 11011,
  "lacaÄŁÄ±na": 13598,
  "ĠÃ¶ÄŁrenin": 9519,
  "£": 116,
  "Ä±lmasÄ±nÄ±": 3955,
  "istem": 672,
  "ezavan": 3141,
  "ĠHazÄ±r": 10513,
  "Ġreng": 12152,
  "Ġanla": 3424,
  "Ġresume": 16156,
  "ĠHav": 5717,
  "ĠtartÄ±ÅŁ": 2568,
  "gisi": 2209,
  "Ä±labilir": 4050,
  "Ġfull": 11732,
  "ĠkurallarÄ±na": 11173,
  "ĠFes": 12197,
  "ĠsÄ±ralamak": 8724,
  "Ġsade": 14251,
  "meleri": 3489,
  "Ġalk": 7483,
  "ĠDevrimi": 5252,
  "itsu": 12618,
  "Ġsih": 2809,
  "bilir": 291,
  "Ġrecommended": 7179,
  "ĠvarlÄ±ÄŁÄ±": 9313,
  "atur": 3722,
  "Ä±nÄ±f": 818,
  "Ġdondurma": 8991,
  "g": 90,
  "ĠkatÄ±lÄ±mcÄ±": 9190,
  "ener": 10604,
  "Ġkarak": 1238,
  "ĠhayatÄ±mÄ±zÄ±": 7519,
  "ĠÃ§evrili": 9327,
  "asÄ±ndan": 8829,
  "ines": 14927,
  "ĠolmadÄ±": 8325,
  "ĠtÃ¼ketici": 5103,
  "Ġsistemine": 9104,
  "ĠBoy": 14978,
  "Ġ201": 3591,
  "Ġtercihlerini": 8381,
  "ĠkullanmaktÄ±r": 7139,
  "afe": 10674,
  "Ġatmosferini": 14614,
  "Ġformu": 9334,
  "ĠKÃ¼ltÃ¼r": 10648,
  "Ġilgilen": 5574,
  "ĠyÃ¶netimi": 3221,
  "ĠyÄ±kÄ±cÄ±": 8403,
  "Ġbakarken": 13260,
  "lation": 2909,
  "estion": 4226,
  "heit": 4853,
  "ha": 2875,
  "ĠAND": 14283,
  "ĠOk": 2512,
  "ĠkullanÄ±lmasÄ±": 8482,
  "ĠgÃ¶rÃ¼lebilir": 6538,
  "Har": 15746,
  "Ġpark": 2950,
  "ĠEÅŁ": 7488,
  "Ġbilgilendir": 4602,
  "utc": 14316,
  "ĠPandeminin": 15665,
  "Ä±rken": 4932,
  "Ġevrenin": 7420,
  "ĠTeh": 6744,
  "ĠtÃ¼rÃ¼nÃ¼": 3368,
  "Ġepoch": 13247,
  "ĠTamamen": 15579,
  "ĠoranÄ±": 4707,
  "ĠUygulama": 3976,
  "Ġanlat": 3447,
  "cor": 14199,
  "ketbol": 5877,
  "ĠsayÄ±ya": 9810,
  "ĠazaltÄ±lmasÄ±": 8153,
  "ĠÄ°lkbahar": 12834,
  "ĠDak": 15894,
  "ĠÃ¶vgÃ¼": 14790,
  "inom": 14234,
  "arlar": 2947,
  "esindeki": 4399,
  "ĠpratiÄŁi": 15258,
  "ĠfaktÃ¶rler": 6053,
  "cation": 9978,
  "Ġ21": 5629,
  "Ġyenilen": 6777,
  "ĠProtagonist": 14154,
  "Ã¶rÃ¼": 15994,
  "ĠÄ±lÄ±": 14925,
  "ĠÅŀeker": 15634,
  "Ġedilmelidir": 7285,
  "ĠAm": 8286,
  "ĠDE": 13668,
  "ĠaydÄ±nlatma": 13471,
  "ĠsayÄ±sÄ±": 3706,
  "ĠDijital": 5789,
  "Ġgelmesi": 13140,
  "ĠKaz": 8843,
  "Ġdoy": 12183,
  "document": 14084,
  "Ġkoordin": 9679,
  "ĠtoplanmasÄ±": 13753,
  "Ġkarbonat": 10157,
  "unlu": 9261,
  "ĠaÄŁÄ±r": 2797,
  "iber": 1944,
  "Ġsorulacak": 10112,
  "Ġkaydet": 8395,
  "Ġmodellerinin": 9342,
  "ĠsavaÅŁÄ±": 11107,
  "ĠadayÄ±": 14433,
  "ĠYar": 2601,
  "Ġorijinal": 4966,
  "¤": 117,
  "Ġila": 2811,
  "Ġismi": 9821,
  "ĠAmerik": 2383,
  "ĠPy": 10045,
  "taÅŁ": 5360,
  "ĠyazarÄ±n": 7885,
  "eleyen": 13079,
  "Ġparam": 13725,
  "Ġgittik": 12793,
  "ĠayÄ±n": 13164,
  "Ġbiber": 3718,
  "Ġverir": 1762,
  "Ġhes": 1022,
  "Ġprizden": 15257,
  "Ġgiderek": 2651,
  "Ay": 13040,
  "Ġtablosunu": 13998,
  "ĠÃ¼rÃ¼nÃ¼": 3703,
  "Ġgeceye": 16321,
  "Ġhakim": 14381,
  "Ġkariyer": 5432,
  "Ġkaynak": 775,
  "ersiniz": 6859,
  "ĠaÃ§abilir": 3036,
  "put": 1065,
  "ĠbiliÅŁsel": 6532,
  "mamÄ±za": 14942,
  "ĠGÃ¶lÃ¼": 16305,
  "Ġgelgit": 11763,
  "Ġusta": 12713,
  "Ġkutlamak": 10440,
  "ebilmelidir": 12273,
  "ĠProblem": 13861,
  "sÄ±dÄ±r": 6846,
  "lamaktadÄ±r": 15126,
  "adatas": 10308,
  "ff": 3575,
  "ĠayrÄ±lmak": 14559,
  "ĠeleÅŁtir": 4614,
  "Ġfor": 859,
  "Ġsak": 2026,
  "Ġkarakterden": 16192,
  "ĠÃ§alÄ±ÅŁtÄ±": 2836,
  "Ġyenilenebilir": 2430,
  "ĠendÃ¼striyel": 7394,
  "ĠMon": 4015,
  "Ġmodellerin": 15231,
  "ĠKurt": 10471,
  "Ġanormal": 9284,
  "diÄŁinde": 4061,
  "ĠÄ°sviÃ§re": 14156,
  "Ġedebi": 11216,
  "checkpoint": 2634,
  "Ġbildirdi": 15463,
  "Ġkapat": 4714,
  "Ġ196": 5000,
  "Ġnot": 1456,
  "Ġkolon": 11141,
  "lÃ¼ÄŁÃ¼nÃ¼": 9173,
  "ĠÃĩÄ±kÄ±ÅŁ": 15434,
  "Ġdinleyin": 11501,
  "ĠUltra": 14159,
  "ĠgrafiÄŁi": 15651,
  "Ġaksesu": 10081,
  "elphi": 14657,
  "Ġasla": 2494,
  "DB": 13561,
  "Ġvererek": 4701,
  "tÄ±lÄ±": 11769,
  "Ġsunul": 8154,
  "ĠgazlarÄ±n": 12393,
  "ide": 1565,
  "ĠayrÄ±ntÄ±lÄ±": 9203,
  "anlar": 2911,
  "dÃ¼ÄŁÃ¼nÃ¼": 7691,
  "Ġlistesi": 1262,
  "ĠbaÄŁÄ±mlÄ±lÄ±ÄŁÄ±": 13437,
  "MS": 10244,
  "ĠAsla": 9393,
  "ĠMichael": 13448,
  "isi": 523,
  "Ġvitaminler": 12441,
  "ulma": 15849,
  "ĠValueError": 9009,
  "ĠeÅŁitsiz": 13355,
  "Ġbelirlenir": 9775,
  "Ġsorunuz": 12306,
  "Ġbulgu": 10047,
  "ĠMÃ¼ÅŁterinin": 12295,
  "ĠMem": 3675,
  "ĠgerÃ§ekleÅŁ": 4754,
  "ĠVir": 13708,
  "Ġtutku": 10107,
  "Ġeklen": 9087,
  "Ġyemekler": 6460,
  "ĠÃľret": 12355,
  "ĠunutulmuÅŁ": 15414,
  "Ġgelecek": 2073,
  "Ġduyan": 12231,
  "Ġteknoloji": 1848,
  "category": 14201,
  "ĠÃ§aÄŁrÄ±": 4820,
  "irst": 9463,
  "Ġalgoritmalar": 4066,
  "Ġkorkutucu": 9387,
  "ĠOyunlarÄ±": 10803,
  "ĠmÃ¼zaker": 15648,
  "ĠGatsby": 4981,
  "Ġmem": 1631,
  "Ġkanat": 10175,
  "ĠkartÄ±": 6740,
  "ĠÄ°kinci": 3967,
  "Ġekm": 6858,
  "ĠÃ¶lÃ§er": 14494,
  "Ġsinyal": 6156,
  "liÄŁ": 485,
  "Ġkelimelerle": 8878,
  "ĠCharles": 9953,
  "Ġheyec": 1971,
  "ĠtapÄ±n": 13088,
  "Ġteklifi": 13449,
  "Ġdoku": 13372,
  "ĠReh": 13749,
  "Ġduya": 9473,
  "liyet": 1202,
  "Ã¶val": 4738,
  "ĠÅŁirkette": 13841,
  "ĠCÃ¼mlenin": 7386,
  "Ġdileriz": 14799,
  "ĠÃĸzel": 6897,
  "Yapay": 10879,
  "danÄ±n": 11370,
  "ĠgeÃ§er": 7505,
  "ĠÃľÃ§": 1993,
  "title": 4422,
  "ĠÃ¶lÃ¼mÃ¼ne": 15447,
  "ĠVektÃ¶r": 13159,
  "evher": 8837,
  "Ã§inin": 14241,
  "ĠbaÄŁÄ±msÄ±z": 3713,
  "ĠyÄ±ldÄ±z": 2213,
  "ĠyÃ¶nlendirme": 13951,
  "Ä±nav": 3948,
  "Ġstop": 12823,
  "ĠgerÃ§ekleÅŁti": 9811,
  "BA": 14870,
  "ĠkabuÄŁu": 11870,
  "ĠÃ§amaÅŁÄ±r": 11731,
  "Ġolur": 1001,
  "ĠtaahhÃ¼t": 9444,
  "ediÄŁini": 9265,
  "let": 617,
  "weights": 9935,
  "Ġtak": 1143,
  "ĠihtiyacÄ±nÄ±z": 5833,
  "ĠyazdÄ±r": 4434,
  "cÄ±sÄ±": 11366,
  "mada": 14941,
  "ĠDomates": 6290,
  "ĠbÃ¶ylece": 2111,
  "ĠGeor": 6219,
  "Name": 14188,
  "ĠferahlatÄ±cÄ±": 14855,
  "Ġherkese": 8593,
  "ĠgeldikÃ§e": 13692,
  "losses": 16335,
  "Ġdurumun": 7664,
  "Ġmadde": 6167,
  "ĠgÃ¶revin": 9541,
  "<|fix|>": 9,
  "ĠAfiyet": 7157,
  "Ġseviyelerine": 8554,
  "ĠyaÄŁÄ±yor": 11602,
  "ĠamaÃ§lamaktadÄ±r": 16240,
  "ĠyazÄ±lmÄ±ÅŁ": 6441,
  "ĠÃ¶ÄŁrenmeyi": 6856,
  "bedd": 9450,
  "Conversation": 15468,
  "Ġmsg": 10012,
  "ĠÄ°talya": 9411,
  "ĠhayatÄ±": 3708,
  "raz": 6937,
  "ĠÃ§oÄŁunlukla": 6923,
  "Ġokuyucu": 5809,
  "ĠkaÅŁÄ±ÄŁÄ±": 1576,
  "Ġveritaban": 5339,
  "enk": 1170,
  "ĠalÄ±nabilir": 15912,
  "ĠdeÄŁerlendirir": 9841,
  "Ġyer": 659,
  "eline": 12577,
  "Ġevet": 11851,
  "ĠevrimleÅŁ": 14036,
  "ĠsaÄŁlÄ±ksÄ±z": 12739,
  "Ġorganiz": 2312,
  "ĠbozulmasÄ±na": 14032,
  "Ġmeydana": 4672,
  "Ä±mÄ±": 873,
  "ĠdizÃ¼stÃ¼": 3739,
  "ĠÅŁekillendir": 5139,
  "ĠtanÄ±tÄ±m": 10169,
  "git": 10247,
  "Ġprens": 3222,
[...]
